{
  "version": "1.0",
  "truncation": null,
  "padding": null,
  "added_tokens": [
    {
      "id": 0,
      "content": "<pad>",
      "single_word": false,
      "lstrip": false,
      "rstrip": false,
      "normalized": false,
      "special": true
    },
    {
      "id": 1,
      "content": "<bos>",
      "single_word": false,
      "lstrip": false,
      "rstrip": false,
      "normalized": false,
      "special": true
    },
    {
      "id": 2,
      "content": "<eos>",
      "single_word": false,
      "lstrip": false,
      "rstrip": false,
      "normalized": false,
      "special": true
    },
    {
      "id": 3,
      "content": "<unk>",
      "single_word": false,
      "lstrip": false,
      "rstrip": false,
      "normalized": false,
      "special": true
    }
  ],
  "normalizer": {
    "type": "NFKC"
  },
  "pre_tokenizer": {
    "type": "ByteLevel",
    "add_prefix_space": false,
    "trim_offsets": true,
    "use_regex": true
  },
  "post_processor": {
    "type": "TemplateProcessing",
    "single": [
      {
        "SpecialToken": {
          "id": "<bos>",
          "type_id": 0
        }
      },
      {
        "Sequence": {
          "id": "A",
          "type_id": 0
        }
      },
      {
        "SpecialToken": {
          "id": "<eos>",
          "type_id": 0
        }
      }
    ],
    "pair": [
      {
        "SpecialToken": {
          "id": "<bos>",
          "type_id": 0
        }
      },
      {
        "Sequence": {
          "id": "A",
          "type_id": 0
        }
      },
      {
        "SpecialToken": {
          "id": "<eos>",
          "type_id": 0
        }
      },
      {
        "Sequence": {
          "id": "B",
          "type_id": 0
        }
      },
      {
        "SpecialToken": {
          "id": "<eos>",
          "type_id": 0
        }
      }
    ],
    "special_tokens": {
      "<bos>": {
        "id": "<bos>",
        "ids": [
          1
        ],
        "tokens": [
          "<bos>"
        ]
      },
      "<eos>": {
        "id": "<eos>",
        "ids": [
          2
        ],
        "tokens": [
          "<eos>"
        ]
      }
    }
  },
  "decoder": {
    "type": "ByteLevel",
    "add_prefix_space": true,
    "trim_offsets": true,
    "use_regex": true
  },
  "model": {
    "type": "BPE",
    "dropout": null,
    "unk_token": "<unk>",
    "continuing_subword_prefix": null,
    "end_of_word_suffix": null,
    "fuse_unk": false,
    "byte_fallback": false,
    "ignore_merges": false,
    "vocab": {
      "<pad>": 0,
      "<bos>": 1,
      "<eos>": 2,
      "<unk>": 3,
      "!": 4,
      "\"": 5,
      "#": 6,
      "$": 7,
      "%": 8,
      "&": 9,
      "'": 10,
      "(": 11,
      ")": 12,
      "*": 13,
      "+": 14,
      ",": 15,
      "-": 16,
      ".": 17,
      "/": 18,
      "0": 19,
      "1": 20,
      "2": 21,
      "3": 22,
      "4": 23,
      "5": 24,
      "6": 25,
      "7": 26,
      "8": 27,
      "9": 28,
      ":": 29,
      ";": 30,
      "<": 31,
      "=": 32,
      ">": 33,
      "?": 34,
      "@": 35,
      "A": 36,
      "B": 37,
      "C": 38,
      "D": 39,
      "E": 40,
      "F": 41,
      "G": 42,
      "H": 43,
      "I": 44,
      "J": 45,
      "K": 46,
      "L": 47,
      "M": 48,
      "N": 49,
      "O": 50,
      "P": 51,
      "Q": 52,
      "R": 53,
      "S": 54,
      "T": 55,
      "U": 56,
      "V": 57,
      "W": 58,
      "X": 59,
      "Y": 60,
      "Z": 61,
      "[": 62,
      "\\": 63,
      "]": 64,
      "^": 65,
      "_": 66,
      "`": 67,
      "a": 68,
      "b": 69,
      "c": 70,
      "d": 71,
      "e": 72,
      "f": 73,
      "g": 74,
      "h": 75,
      "i": 76,
      "j": 77,
      "k": 78,
      "l": 79,
      "m": 80,
      "n": 81,
      "o": 82,
      "p": 83,
      "q": 84,
      "r": 85,
      "s": 86,
      "t": 87,
      "u": 88,
      "v": 89,
      "w": 90,
      "x": 91,
      "y": 92,
      "z": 93,
      "{": 94,
      "|": 95,
      "}": 96,
      "~": 97,
      "¡": 98,
      "¢": 99,
      "£": 100,
      "¤": 101,
      "¥": 102,
      "¦": 103,
      "§": 104,
      "¨": 105,
      "©": 106,
      "ª": 107,
      "«": 108,
      "¬": 109,
      "®": 110,
      "¯": 111,
      "°": 112,
      "±": 113,
      "²": 114,
      "³": 115,
      "´": 116,
      "µ": 117,
      "¶": 118,
      "·": 119,
      "¸": 120,
      "¹": 121,
      "º": 122,
      "»": 123,
      "¼": 124,
      "½": 125,
      "¾": 126,
      "¿": 127,
      "À": 128,
      "Á": 129,
      "Â": 130,
      "Ã": 131,
      "Ä": 132,
      "Å": 133,
      "Æ": 134,
      "Ç": 135,
      "È": 136,
      "É": 137,
      "Ê": 138,
      "Ë": 139,
      "Ì": 140,
      "Í": 141,
      "Î": 142,
      "Ï": 143,
      "Ð": 144,
      "Ñ": 145,
      "Ò": 146,
      "Ó": 147,
      "Ô": 148,
      "Õ": 149,
      "Ö": 150,
      "×": 151,
      "Ø": 152,
      "Ù": 153,
      "Ú": 154,
      "Û": 155,
      "Ü": 156,
      "Ý": 157,
      "Þ": 158,
      "ß": 159,
      "à": 160,
      "á": 161,
      "â": 162,
      "ã": 163,
      "ä": 164,
      "å": 165,
      "æ": 166,
      "ç": 167,
      "è": 168,
      "é": 169,
      "ê": 170,
      "ë": 171,
      "ì": 172,
      "í": 173,
      "î": 174,
      "ï": 175,
      "ð": 176,
      "ñ": 177,
      "ò": 178,
      "ó": 179,
      "ô": 180,
      "õ": 181,
      "ö": 182,
      "÷": 183,
      "ø": 184,
      "ù": 185,
      "ú": 186,
      "û": 187,
      "ü": 188,
      "ý": 189,
      "þ": 190,
      "ÿ": 191,
      "Ā": 192,
      "ā": 193,
      "Ă": 194,
      "ă": 195,
      "Ą": 196,
      "ą": 197,
      "Ć": 198,
      "ć": 199,
      "Ĉ": 200,
      "ĉ": 201,
      "Ċ": 202,
      "ċ": 203,
      "Č": 204,
      "č": 205,
      "Ď": 206,
      "ď": 207,
      "Đ": 208,
      "đ": 209,
      "Ē": 210,
      "ē": 211,
      "Ĕ": 212,
      "ĕ": 213,
      "Ė": 214,
      "ė": 215,
      "Ę": 216,
      "ę": 217,
      "Ě": 218,
      "ě": 219,
      "Ĝ": 220,
      "ĝ": 221,
      "Ğ": 222,
      "ğ": 223,
      "Ġ": 224,
      "ġ": 225,
      "Ģ": 226,
      "ģ": 227,
      "Ĥ": 228,
      "ĥ": 229,
      "Ħ": 230,
      "ħ": 231,
      "Ĩ": 232,
      "ĩ": 233,
      "Ī": 234,
      "ī": 235,
      "Ĭ": 236,
      "ĭ": 237,
      "Į": 238,
      "į": 239,
      "İ": 240,
      "ı": 241,
      "Ĳ": 242,
      "ĳ": 243,
      "Ĵ": 244,
      "ĵ": 245,
      "Ķ": 246,
      "ķ": 247,
      "ĸ": 248,
      "Ĺ": 249,
      "ĺ": 250,
      "Ļ": 251,
      "ļ": 252,
      "Ľ": 253,
      "ľ": 254,
      "Ŀ": 255,
      "ŀ": 256,
      "Ł": 257,
      "ł": 258,
      "Ń": 259,
      "Ġt": 260,
      "Ġa": 261,
      "he": 262,
      "in": 263,
      "re": 264,
      "Ġthe": 265,
      "on": 266,
      "er": 267,
      "Ġs": 268,
      "Ġw": 269,
      "at": 270,
      "Ġo": 271,
      "en": 272,
      "Ġc": 273,
      "it": 274,
      "is": 275,
      "an": 276,
      "or": 277,
      "Ġb": 278,
      "ed": 279,
      "es": 280,
      "Ġf": 281,
      "ing": 282,
      "Ġp": 283,
      "ou": 284,
      "Ġan": 285,
      "al": 286,
      "Ġto": 287,
      "ar": 288,
      "Ġm": 289,
      "Ġin": 290,
      "Ġof": 291,
      "Ġd": 292,
      "Ġh": 293,
      "as": 294,
      "ic": 295,
      "Ġand": 296,
      "âĢ": 297,
      "Ġth": 298,
      "le": 299,
      "om": 300,
      "ion": 301,
      "ll": 302,
      "ent": 303,
      "Ġn": 304,
      "Ġl": 305,
      "Ġre": 306,
      "st": 307,
      "ve": 308,
      "Ġe": 309,
      "ly": 310,
      "Ġbe": 311,
      "ro": 312,
      "Ġg": 313,
      "id": 314,
      "ut": 315,
      "ac": 316,
      "ot": 317,
      "ĠT": 318,
      "Ġthat": 319,
      "ĠI": 320,
      "Ġon": 321,
      "ay": 322,
      "ĠS": 323,
      "Ġis": 324,
      "im": 325,
      "et": 326,
      "am": 327,
      "ad": 328,
      "ow": 329,
      "Ġfor": 330,
      "se": 331,
      "ig": 332,
      "âĢĻ": 333,
      "ver": 334,
      "ĠA": 335,
      "ur": 336,
      "ct": 337,
      "ld": 338,
      "ĠC": 339,
      "Ġu": 340,
      "Ġst": 341,
      "Ġy": 342,
      "Ġit": 343,
      "Ġhe": 344,
      "ir": 345,
      "ation": 346,
      "ith": 347,
      "Ġwh": 348,
      "ĠM": 349,
      "ce": 350,
      "ter": 351,
      "ol": 352,
      "Ġwe": 353,
      "il": 354,
      "Ġwith": 355,
      "Ġas": 356,
      "ĠB": 357,
      "ch": 358,
      "ill": 359,
      "nd": 360,
      "Ġwas": 361,
      "Ġyou": 362,
      "ers": 363,
      "ke": 364,
      "ĠP": 365,
      "Ġcon": 366,
      "ĠâĢ": 367,
      "Ġde": 368,
      "Ġr": 369,
      "her": 370,
      "if": 371,
      "ate": 372,
      "Ġat": 373,
      "ag": 374,
      "Ġha": 375,
      "ĠW": 376,
      "Ġse": 377,
      "ore": 378,
      "ĠH": 379,
      "Ġpro": 380,
      "ul": 381,
      "pp": 382,
      "ment": 383,
      "ri": 384,
      "Ġare": 385,
      "ĠD": 386,
      "est": 387,
      "Ġcom": 388,
      "and": 389,
      "ist": 390,
      "us": 391,
      "Ġ1": 392,
      "op": 393,
      "ain": 394,
      "ĠThe": 395,
      "ĠR": 396,
      "igh": 397,
      "rom": 398,
      "Ġ2": 399,
      "th": 400,
      "Ġ(": 401,
      "od": 402,
      "Ġne": 403,
      "ĠF": 404,
      "Ġex": 405,
      "un": 406,
      "um": 407,
      "res": 408,
      "Ġnot": 409,
      "âĢĿ": 410,
      "ab": 411,
      "ess": 412,
      "ĠN": 413,
      "Ġv": 414,
      "ity": 415,
      "Ġhave": 416,
      "ould": 417,
      "Ġor": 418,
      "em": 419,
      "ort": 420,
      "Ġby": 421,
      "ĠG": 422,
      "os": 423,
      "ant": 424,
      "Ġfrom": 425,
      "ive": 426,
      "Ġal": 427,
      "'s": 428,
      "el": 429,
      "Ġsu": 430,
      "oc": 431,
      "art": 432,
      "ĠL": 433,
      "Ġsh": 434,
      "Ġthis": 435,
      "nt": 436,
      "qu": 437,
      "ight": 438,
      "ust": 439,
      "pe": 440,
      "Ġle": 441,
      "ies": 442,
      "end": 443,
      "ĠE": 444,
      "Ġch": 445,
      "out": 446,
      "Ġsa": 447,
      "Ġab": 448,
      "The": 449,
      "all": 450,
      "ie": 451,
      "red": 452,
      "ack": 453,
      "ĠâĢľ": 454,
      "ally": 455,
      "00": 456,
      "Ġhas": 457,
      "Ġpl": 458,
      "Ġgo": 459,
      "ĠJ": 460,
      "ard": 461,
      "ap": 462,
      "ome": 463,
      "iv": 464,
      "Ġhis": 465,
      "gh": 466,
      "ost": 467,
      "our": 468,
      "ear": 469,
      "ĠO": 470,
      "Ġtr": 471,
      "Ġj": 472,
      "ast": 473,
      "ak": 474,
      "ud": 475,
      "Ġwor": 476,
      "Ġdo": 477,
      "Ġthey": 478,
      "Ġbut": 479,
      "Ġcan": 480,
      "rou": 481,
      "Ġwill": 482,
      "ge": 483,
      "ĠU": 484,
      "Ġsaid": 485,
      "Ġwhe": 486,
      "Ġk": 487,
      "ich": 488,
      "Ġ\"": 489,
      "Ġall": 490,
      "ok": 491,
      "Ġwho": 492,
      "ide": 493,
      "Ġint": 494,
      "ame": 495,
      "ial": 496,
      "ans": 497,
      "ther": 498,
      "Ġout": 499,
      "Ġtheir": 500,
      "ff": 501,
      "ice": 502,
      "ong": 503,
      "ect": 504,
      "pl": 505,
      "ure": 506,
      "pt": 507,
      "one": 508,
      "Ġmore": 509,
      "ike": 510,
      "age": 511,
      "Ġme": 512,
      "act": 513,
      "ions": 514,
      "ous": 515,
      "Ġup": 516,
      "Ġad": 517,
      "ine": 518,
      "Ġabout": 519,
      "ra": 520,
      "ated": 521,
      "ber": 522,
      "Ġso": 523,
      "Ġone": 524,
      "Ġus": 525,
      "Ġwere": 526,
      "ime": 527,
      "og": 528,
      "are": 529,
      "Ġhad": 530,
      "ep": 531,
      "ĠK": 532,
      "ia": 533,
      "ub": 534,
      "Ġwould": 535,
      "cc": 536,
      "ake": 537,
      "Ġim": 538,
      "Ġcl": 539,
      "Ġwhich": 540,
      "Ġ20": 541,
      "ind": 542,
      "ue": 543,
      "Ġag": 544,
      "Ġcont": 545,
      "very": 546,
      "iz": 547,
      "Ġcomp": 548,
      "Ġoff": 549,
      "Ġte": 550,
      "Ġun": 551,
      "Ġen": 552,
      "Ġbeen": 553,
      "ĠSt": 554,
      "au": 555,
      "per": 556,
      "so": 557,
      "ary": 558,
      "ign": 559,
      "ĠTh": 560,
      "ace": 561,
      "ip": 562,
      "Ġlike": 563,
      "Ġyear": 564,
      "ven": 565,
      "ew": 566,
      "ere": 567,
      "Ġinc": 568,
      "ays": 569,
      "ook": 570,
      "Ġpe": 571,
      "Ġman": 572,
      "ry": 573,
      "ose": 574,
      "Ġres": 575,
      "Ġper": 576,
      "ite": 577,
      "able": 578,
      "Ġsp": 579,
      "ord": 580,
      "ass": 581,
      "Ġother": 582,
      "ire": 583,
      "mer": 584,
      "ile": 585,
      "Ġsome": 586,
      "ĠIn": 587,
      "ople": 588,
      "ence": 589,
      "ib": 590,
      "..": 591,
      "ations": 592,
      "Ġthere": 593,
      "ical": 594,
      "Ġ201": 595,
      "Ġover": 596,
      "ult": 597,
      "ks": 598,
      "ress": 599,
      "Ġnew": 600,
      "int": 601,
      "Ġdis": 602,
      "Ġbec": 603,
      "Ġthan": 604,
      "ough": 605,
      "Ġalso": 606,
      "own": 607,
      "ance": 608,
      "Ġar": 609,
      "ru": 610,
      "ount": 611,
      "Ġthem": 612,
      "Ġwhat": 613,
      "Ġapp": 614,
      "port": 615,
      "Ġwhen": 616,
      "Ġyour": 617,
      "ree": 618,
      "ail": 619,
      "Ġpart": 620,
      "Ġpeople": 621,
      "fter": 622,
      "orm": 623,
      "ond": 624,
      "Ġsc": 625,
      "Ġqu": 626,
      "av": 627,
      "ase": 628,
      "ĠCh": 629,
      "Ġjust": 630,
      "Ġany": 631,
      "ĠY": 632,
      "Ġher": 633,
      "Ġits": 634,
      "Ġkn": 635,
      "Ġtime": 636,
      "ĠIt": 637,
      "ach": 638,
      "Ġmy": 639,
      "Ġget": 640,
      "Ġrec": 641,
      "lic": 642,
      "Ġif": 643,
      "reat": 644,
      "ens": 645,
      ".âĢĿ": 646,
      "ĠV": 647,
      "Ġinto": 648,
      "irst": 649,
      "vel": 650,
      "Ġwork": 651,
      "Ġtw": 652,
      "du": 653,
      "ound": 654,
      "ian": 655,
      "Ġ3": 656,
      "ction": 657,
      "Ġno": 658,
      "ings": 659,
      "ory": 660,
      "Ġour": 661,
      "ident": 662,
      "ition": 663,
      "ick": 664,
      "ors": 665,
      "Ġco": 666,
      "ang": 667,
      "ob": 668,
      "Ġpre": 669,
      "wn": 670,
      "Ġ-": 671,
      "ause": 672,
      "ink": 673,
      "Ġplay": 674,
      "Ġshe": 675,
      "Ġpol": 676,
      "itt": 677,
      "ates": 678,
      "ark": 679,
      "hing": 680,
      "Ġ19": 681,
      "ade": 682,
      "Ġro": 683,
      "amp": 684,
      "vers": 685,
      "Ġafter": 686,
      "ove": 687,
      "ell": 688,
      ",âĢĿ": 689,
      "Ġfirst": 690,
      "Ġcould": 691,
      "ious": 692,
      "Ġhow": 693,
      "Ġhim": 694,
      "nder": 695,
      "aw": 696,
      "Ġacc": 697,
      "ĠHe": 698,
      "'t": 699,
      "ons": 700,
      "ild": 701,
      "Ġonly": 702,
      "Ġpo": 703,
      "Ġpr": 704,
      "ict": 705,
      "Ġatt": 706,
      "ne": 707,
      "hed": 708,
      "Ġcomm": 709,
      "Ġtwo": 710,
      "Ġspe": 711,
      ".\"": 712,
      "ov": 713,
      "Ġact": 714,
      "ish": 715,
      "erv": 716,
      "âĢľ": 717,
      "form": 718,
      "Ġbl": 719,
      "Ġdec": 720,
      "Ġbet": 721,
      "ft": 722,
      "Ġback": 723,
      "ning": 724,
      "ood": 725,
      "ces": 726,
      "Ġmost": 727,
      "te": 728,
      "Ġfe": 729,
      "ck": 730,
      "Ġdid": 731,
      "Ġam": 732,
      "oy": 733,
      "round": 734,
      "ater": 735,
      "iff": 736,
      "rough": 737,
      "we": 738,
      "Ġagain": 739,
      "Ġdes": 740,
      "ĠâĢĵ": 741,
      "Ġwant": 742,
      "ual": 743,
      "day": 744,
      "Ġunder": 745,
      "ise": 746,
      "rit": 747,
      "sel": 748,
      "Ġcons": 749,
      "Ġ$": 750,
      "lud": 751,
      "Ġnow": 752,
      "Ġbecause": 753,
      "ents": 754,
      "Ġ4": 755,
      "iss": 756,
      "ull": 757,
      "ublic": 758,
      "ĠâĢĶ": 759,
      "Ġyears": 760,
      "Ġeven": 761,
      "man": 762,
      "tern": 763,
      "Ġknow": 764,
      "Ġinv": 765,
      "Ġneed": 766,
      "ec": 767,
      "Ġsee": 768,
      "ced": 769,
      "Ġind": 770,
      ",\"": 771,
      "ments": 772,
      "Ġadd": 773,
      "Ġsec": 774,
      "old": 775,
      "fore": 776,
      "uch": 777,
      "ĠUn": 778,
      "Ġevery": 779,
      "urn": 780,
      "pect": 781,
      "Ġmake": 782,
      "Ġsupp": 783,
      "Ġem": 784,
      "Ġthese": 785,
      "ock": 786,
      "oll": 787,
      "In": 788,
      "Ġ5": 789,
      "ational": 790,
      "Ġwhere": 791,
      "ject": 792,
      "vern": 793,
      "xt": 794,
      "ĠWe": 795,
      "Ġlook": 796,
      "oss": 797,
      "Ġbu": 798,
      "Ġdon": 799,
      "row": 800,
      "Ġev": 801,
      "Th": 802,
      "Ġway": 803,
      "Ġright": 804,
      "Ġbeing": 805,
      "ĠAnd": 806,
      "ating": 807,
      "Ġmay": 808,
      "ily": 809,
      "Ġcall": 810,
      "Ġthen": 811,
      "Ġrem": 812,
      "Ġmany": 813,
      "lect": 814,
      "Ġdiff": 815,
      "ied": 816,
      "ased": 817,
      "Ġthink": 818,
      "ason": 819,
      "Ġdef": 820,
      "Ġinclud": 821,
      "Ġrel": 822,
      "Ġfl": 823,
      "iew": 824,
      "ump": 825,
      "ng": 826,
      "Ġreg": 827,
      "ont": 828,
      "ĠBut": 829,
      "ath": 830,
      "Ġimp": 831,
      "ited": 832,
      "meric": 833,
      "aking": 834,
      "Ġpres": 835,
      "Ġsy": 836,
      "rib": 837,
      "Ġthrough": 838,
      "Ġshould": 839,
      "Ġsay": 840,
      "ĠTr": 841,
      "les": 842,
      "Ġvery": 843,
      "ower": 844,
      "Ġmuch": 845,
      "uring": 846,
      "Ġthose": 847,
      "Ġlast": 848,
      ").": 849,
      "âĢĶ": 850,
      "other": 851,
      "ities": 852,
      "get": 853,
      "Ġstate": 854,
      "ics": 855,
      "ative": 856,
      "ĠThis": 857,
      "ty": 858,
      "ss": 859,
      "Ġ[": 860,
      "Ġshow": 861,
      "Ġph": 862,
      "und": 863,
      "ĠWh": 864,
      "Ġown": 865,
      "ific": 866,
      "hen": 867,
      "oth": 868,
      "Ġdoes": 869,
      "Ġwell": 870,
      "Ġend": 871,
      "als": 872,
      "Ġcount": 873,
      "Ġdown": 874,
      "arly": 875,
      "Ġbr": 876,
      "Ġbel": 877,
      "Ġ200": 878,
      "ange": 879,
      "ting": 880,
      "ince": 881,
      "Ġass": 882,
      "ters": 883,
      "Ġuse": 884,
      "ĠAmeric": 885,
      "Ġbefore": 886,
      "ward": 887,
      "Ġgovern": 888,
      "Ġlong": 889,
      "Ġmon": 890,
      "gr": 891,
      "omet": 892,
      "Ġreport": 893,
      "up": 894,
      "ible": 895,
      "ues": 896,
      "Ġstart": 897,
      "ĠNew": 898,
      "ble": 899,
      "Ġke": 900,
      "ts": 901,
      "ife": 902,
      "olog": 903,
      "oun": 904,
      "Ġsuch": 905,
      "Ġmade": 906,
      "),": 907,
      "Ġfin": 908,
      "Ġgoing": 909,
      "ener": 910,
      "ism": 911,
      "ix": 912,
      "Ġsm": 913,
      "ually": 914,
      "Ġteam": 915,
      "erson": 916,
      "tain": 917,
      "Ġworld": 918,
      "ful": 919,
      "Ġhel": 920,
      "ists": 921,
      "Ġstud": 922,
      "ility": 923,
      "its": 924,
      "It": 925,
      "ek": 926,
      "Ġgood": 927,
      "ren": 928,
      "Ġeff": 929,
      "Ġent": 930,
      "Ġac": 931,
      "Ġsur": 932,
      "Ġsub": 933,
      "com": 934,
      "Ġagainst": 935,
      "ars": 936,
      "ork": 937,
      "stem": 938,
      "Ġgame": 939,
      "Ġgu": 940,
      "Ġset": 941,
      "ys": 942,
      "ank": 943,
      "...": 944,
      "imes": 945,
      "roup": 946,
      "gan": 947,
      "Ġgr": 948,
      "Ġmin": 949,
      "alk": 950,
      "Ġstill": 951,
      "ms": 952,
      "ax": 953,
      "Ġpoint": 954,
      "Ġprov": 955,
      "Ġlead": 956,
      "Ġwhile": 957,
      "Ġ6": 958,
      "Ġhelp": 959,
      "Ġprodu": 960,
      "li": 961,
      "ef": 962,
      "illion": 963,
      "Ġsays": 964,
      "ween": 965,
      "cy": 966,
      "Ġstr": 967,
      "Ġinst": 968,
      "self": 969,
      "Ġinter": 970,
      "Ġtake": 971,
      "000": 972,
      "Ġconf": 973,
      "Ġcr": 974,
      "Ġchar": 975,
      "ool": 976,
      "Ġob": 977,
      "cess": 978,
      "Ġsim": 979,
      "Ġthough": 980,
      "Ġcol": 981,
      "Ġoffic": 982,
      "air": 983,
      "ah": 984,
      "Ġlaw": 985,
      "Ġsame": 986,
      "land": 987,
      "Ġed": 988,
      "read": 989,
      "ci": 990,
      "Ġdiffere": 991,
      "Ġbetween": 992,
      "ever": 993,
      "ures": 994,
      "Ġop": 995,
      "Ġhigh": 996,
      "io": 997,
      "ution": 998,
      "way": 999,
      "Ġgovernment": 1000,
      "ollow": 1001,
      "Ġnum": 1002,
      "arch": 1003,
      "led": 1004,
      "ner": 1005,
      "Ġter": 1006,
      "cent": 1007,
      ".[": 1008,
      "atch": 1009,
      "ĠRe": 1010,
      "Ġsign": 1011,
      "hip": 1012,
      "Ġsomet": 1013,
      "velop": 1014,
      "uss": 1015,
      "ames": 1016,
      "any": 1017,
      "Ġref": 1018,
      "Ġins": 1019,
      "Ġaround": 1020,
      "Ġreal": 1021,
      "Ġmem": 1022,
      "Ġser": 1023,
      "Ġtrans": 1024,
      "gg": 1025,
      "hes": 1026,
      "Ġthree": 1027,
      "We": 1028,
      "Ġsystem": 1029,
      "ave": 1030,
      "Ġdisc": 1031,
      "Ġfound": 1032,
      "ather": 1033,
      "ives": 1034,
      "az": 1035,
      "Ġexp": 1036,
      "Ġmed": 1037,
      "ee": 1038,
      "Ġcour": 1039,
      "ĠYou": 1040,
      "ved": 1041,
      "Ġrun": 1042,
      "cer": 1043,
      "cept": 1044,
      "Ġused": 1045,
      "Ġhere": 1046,
      "oot": 1047,
      "ouse": 1048,
      "Ġreally": 1049,
      "Ġgroup": 1050,
      "ving": 1051,
      "ale": 1052,
      "con": 1053,
      "Ġsupport": 1054,
      "Ġ10": 1055,
      "Ġspec": 1056,
      "Ġpublic": 1057,
      "Ġhand": 1058,
      "Ġmod": 1059,
      "ĠAr": 1060,
      "Ġret": 1061,
      "ĠAl": 1062,
      "Ġgreat": 1063,
      "pr": 1064,
      "Ġcar": 1065,
      "ying": 1066,
      "ins": 1067,
      "Ġext": 1068,
      "Ġcur": 1069,
      "Ġfam": 1070,
      "Ġfact": 1071,
      "alth": 1072,
      "Ġhapp": 1073,
      "Ġ7": 1074,
      "Ġexper": 1075,
      "irect": 1076,
      "ton": 1077,
      "ense": 1078,
      "ĠCom": 1079,
      "ph": 1080,
      "Ġcap": 1081,
      "--": 1082,
      "Ġday": 1083,
      "ĠThey": 1084,
      "Ġfind": 1085,
      "ines": 1086,
      "Ġboth": 1087,
      "ices": 1088,
      "uth": 1089,
      "ĠIs": 1090,
      "ĠSh": 1091,
      "Ġsl": 1092,
      "ular": 1093,
      "Ġread": 1094,
      "Ġdet": 1095,
      "Ġfr": 1096,
      "Ġrep": 1097,
      "Ġcre": 1098,
      "Ġmonth": 1099,
      "Ġduring": 1100,
      "Ġwom": 1101,
      "Ġtold": 1102,
      "Ġiss": 1103,
      "min": 1104,
      "ered": 1105,
      "oh": 1106,
      "ivers": 1107,
      "Ġdevelop": 1108,
      "ĠTrump": 1109,
      "ĠLe": 1110,
      "Ġperson": 1111,
      "Ġserv": 1112,
      "Ġsince": 1113,
      "ision": 1114,
      "med": 1115,
      "Ġbig": 1116,
      "ically": 1117,
      "Ġlar": 1118,
      "iet": 1119,
      "ĠAs": 1120,
      "ages": 1121,
      "Ġwar": 1122,
      "the": 1123,
      "Ġ8": 1124,
      "ared": 1125,
      "akes": 1126,
      "ves": 1127,
      "Ġfollow": 1128,
      "aj": 1129,
      "Ġpolit": 1130,
      "Ġfew": 1131,
      "Ġcent": 1132,
      "Ġweek": 1133,
      "Ġleg": 1134,
      "ĠCl": 1135,
      "ording": 1136,
      "ex": 1137,
      "Ġlot": 1138,
      "chool": 1139,
      "Ġrequ": 1140,
      "Ġbelie": 1141,
      "Ġcontin": 1142,
      "der": 1143,
      "Ġexpl": 1144,
      "Ġgener": 1145,
      "Ġtoo": 1146,
      "Ġfil": 1147,
      "ash": 1148,
      "rent": 1149,
      "Wh": 1150,
      "ness": 1151,
      "anc": 1152,
      "ets": 1153,
      "Ġcle": 1154,
      "bers": 1155,
      "Ġput": 1156,
      "Ġche": 1157,
      "Ġresp": 1158,
      "Ġ9": 1159,
      "ĠIf": 1160,
      "Ġsomething": 1161,
      "ized": 1162,
      "orn": 1163,
      "ĠFr": 1164,
      "Ġsoc": 1165,
      "Ġinvest": 1166,
      "Ġprot": 1167,
      "ata": 1168,
      "Ġplan": 1169,
      "ric": 1170,
      "Ġopp": 1171,
      "ention": 1172,
      "Ġloc": 1173,
      "Ġdifferent": 1174,
      "Ġthings": 1175,
      "Ġinf": 1176,
      "Ġcommun": 1177,
      "Ġanother": 1178,
      "Ġpower": 1179,
      "ger": 1180,
      "att": 1181,
      "thing": 1182,
      "erest": 1183,
      "ute": 1184,
      "Ġlife": 1185,
      "Ġposs": 1186,
      "ĠDe": 1187,
      "Ġask": 1188,
      "ience": 1189,
      "Ġrele": 1190,
      "ret": 1191,
      "Ġfar": 1192,
      "ox": 1193,
      "iness": 1194,
      "Ġart": 1195,
      "Ġhead": 1196,
      "Ġpass": 1197,
      "Ġnever": 1198,
      "Ġdep": 1199,
      "Ġcamp": 1200,
      "Ġmight": 1201,
      "ody": 1202,
      "ize": 1203,
      "ned": 1204,
      "Ġeach": 1205,
      "Ġmet": 1206,
      "Ġ'": 1207,
      "ross": 1208,
      "uc": 1209,
      "Ġbus": 1210,
      "20": 1211,
      "view": 1212,
      "ants": 1213,
      "This": 1214,
      "Ġquest": 1215,
      "Ġcome": 1216,
      "ik": 1217,
      "ĠFor": 1218,
      "Ġnext": 1219,
      "ott": 1220,
      "Ġvot": 1221,
      "Ġdem": 1222,
      "Ġadv": 1223,
      "Ġsecond": 1224,
      "Ġcor": 1225,
      "Ġmark": 1226,
      "Ġbest": 1227,
      "ittle": 1228,
      "Ġopen": 1229,
      "Ġfeel": 1230,
      "ier": 1231,
      "ital": 1232,
      "Ġallow": 1233,
      "ĠAn": 1234,
      "Ġchild": 1235,
      "ĠâĢĺ": 1236,
      "nce": 1237,
      "ĠThat": 1238,
      "ield": 1239,
      "Ġpercent": 1240,
      "ient": 1241,
      "Ġseem": 1242,
      "istr": 1243,
      "ĠUS": 1244,
      "ple": 1245,
      "Ġ0": 1246,
      "Ġhome": 1247,
      "Ġdirect": 1248,
      "ired": 1249,
      "Ġ.": 1250,
      "cl": 1251,
      "Ġincre": 1252,
      "Ġpri": 1253,
      "ug": 1254,
      "less": 1255,
      "ĠSe": 1256,
      "gram": 1257,
      "gy": 1258,
      "Ġresult": 1259,
      "Ġpost": 1260,
      "ĠPro": 1261,
      "ged": 1262,
      "osed": 1263,
      "ĠRep": 1264,
      "Ġcontro": 1265,
      "Ġwr": 1266,
      "co": 1267,
      "Ġimport": 1268,
      "Ġhum": 1269,
      "Ġproble": 1270,
      "son": 1271,
      "Ġcare": 1272,
      "Ġincluding": 1273,
      "ama": 1274,
      "chn": 1275,
      "Ġcomple": 1276,
      "Ġinform": 1277,
      "Ġplace": 1278,
      "Ġwithout": 1279,
      "ately": 1280,
      "Ġhard": 1281,
      "Ġav": 1282,
      "conom": 1283,
      "Ġnumber": 1284,
      "aim": 1285,
      "Ġbuild": 1286,
      "Ġide": 1287,
      "Ġtop": 1288,
      "riend": 1289,
      "oney": 1290,
      "Ġmillion": 1291,
      "Ġel": 1292,
      "ĠBl": 1293,
      "Ġstand": 1294,
      "ral": 1295,
      "Ġcountry": 1296,
      "Ġgl": 1297,
      "Ġlet": 1298,
      "Ġinterest": 1299,
      "Ġmov": 1300,
      "ably": 1301,
      "Ġrecent": 1302,
      "Ġfour": 1303,
      "ished": 1304,
      "Ġless": 1305,
      "Ġappro": 1306,
      "Ġgot": 1307,
      "ways": 1308,
      "Ġcase": 1309,
      "Ġcalled": 1310,
      "Ġtri": 1311,
      "uro": 1312,
      "Ġbetter": 1313,
      "Ġbro": 1314,
      "Ġpartic": 1315,
      "Ġlittle": 1316,
      "Ġseason": 1317,
      "app": 1318,
      "tt": 1319,
      "rat": 1320,
      "But": 1321,
      "Ġturn": 1322,
      "ead": 1323,
      "ina": 1324,
      "Ġann": 1325,
      "Ġfun": 1326,
      "inal": 1327,
      "Ġbeh": 1328,
      "Ġpop": 1329,
      "Ġdr": 1330,
      "ling": 1331,
      "Ġmil": 1332,
      "ised": 1333,
      "line": 1334,
      "ency": 1335,
      "Ġdidn": 1336,
      "Ġmain": 1337,
      "me": 1338,
      "ĠThere": 1339,
      "ajor": 1340,
      "Ġkeep": 1341,
      "Ġattack": 1342,
      "10": 1343,
      "Ġpolice": 1344,
      "ature": 1345,
      "Ġrest": 1346,
      "Ġfull": 1347,
      "Ġprev": 1348,
      "Ġleft": 1349,
      "Ġmove": 1350,
      "Ġeffect": 1351,
      "ĠInd": 1352,
      "ode": 1353,
      "ider": 1354,
      "ĠZ": 1355,
      "Ġtest": 1356,
      "Ġprogram": 1357,
      "Ġval": 1358,
      "Ġwin": 1359,
      "Ġschool": 1360,
      "Ġear": 1361,
      "ology": 1362,
      "Ġeconom": 1363,
      "ined": 1364,
      "ract": 1365,
      "Ġusing": 1366,
      "Ġpay": 1367,
      "be": 1368,
      "Ġnews": 1369,
      "ready": 1370,
      "Ġform": 1371,
      "Ġpos": 1372,
      "reen": 1373,
      "ĠAmerican": 1374,
      "Ġsmall": 1375,
      "iving": 1376,
      "Ġlevel": 1377,
      "uck": 1378,
      "He": 1379,
      "ploy": 1380,
      "Ġpresident": 1381,
      "Ġchange": 1382,
      "Ġprocess": 1383,
      "Ġdata": 1384,
      "ains": 1385,
      "iversity": 1386,
      "ided": 1387,
      "ĠSo": 1388,
      "Ġcompany": 1389,
      "'re": 1390,
      "Ġcurrent": 1391,
      "Ġeas": 1392,
      "Ġmar": 1393,
      "ten": 1394,
      "Ġdri": 1395,
      "Ġprom": 1396,
      "Ġlist": 1397,
      "Ġalready": 1398,
      "orth": 1399,
      "ruct": 1400,
      "ĠUnited": 1401,
      "Ġbre": 1402,
      "Ġsol": 1403,
      "ĠHow": 1404,
      "Ġrece": 1405,
      "ians": 1406,
      "St": 1407,
      "!!": 1408,
      "ĠOb": 1409,
      "ird": 1410,
      "Ġmat": 1411,
      "ted": 1412,
      "used": 1413,
      "Ġunt": 1414,
      "rap": 1415,
      "__": 1416,
      "Ġtechn": 1417,
      "Ġlater": 1418,
      "Ġmoney": 1419,
      "Ġdesign": 1420,
      "Ġofficial": 1421,
      "Ġwomen": 1422,
      "Ġtalk": 1423,
      "Ġty": 1424,
      "stand": 1425,
      "Ġthing": 1426,
      "Ġexpect": 1427,
      "ases": 1428,
      "Ġbusiness": 1429,
      "Ġwhy": 1430,
      "Ġproject": 1431,
      "Ġhist": 1432,
      "ĠPh": 1433,
      "ohn": 1434,
      "Ġclaim": 1435,
      "Ġorgan": 1436,
      "Ġalways": 1437,
      "ĠShe": 1438,
      "aign": 1439,
      "Ġchang": 1440,
      "Ġmajor": 1441,
      "Ġstory": 1442,
      "Ġprof": 1443,
      "ĠCan": 1444,
      "Ġhealth": 1445,
      "Ġclass": 1446,
      "Ġinformation": 1447,
      "ĠQ": 1448,
      "Ġjob": 1449,
      "Ġele": 1450,
      "to": 1451,
      "Ġedit": 1452,
      "iven": 1453,
      "Ġvis": 1454,
      "aff": 1455,
      "Ġbook": 1456,
      "ption": 1457,
      "Ġable": 1458,
      "Ġhappen": 1459,
      "ertain": 1460,
      "Ġmust": 1461,
      "ron": 1462,
      "ards": 1463,
      "here": 1464,
      "Ġ--": 1465,
      "Ġbo": 1466,
      "Ġpur": 1467,
      "Ġsk": 1468,
      "Ġaway": 1469,
      "Ġpast": 1470,
      "Ġ18": 1471,
      "Ġkill": 1472,
      "ury": 1473,
      "Ġcost": 1474,
      "Ġimportant": 1475,
      "ĠMar": 1476,
      "ĠBe": 1477,
      "ior": 1478,
      "Ġfree": 1479,
      "wit": 1480,
      "outh": 1481,
      "Ġvar": 1482,
      "Ġpat": 1483,
      "Ġgrow": 1484,
      "Ġrese": 1485,
      "ror": 1486,
      "ample": 1487,
      "Ġconst": 1488,
      "ission": 1489,
      "ured": 1490,
      "uthor": 1491,
      "Ġleast": 1492,
      "ending": 1493,
      "Ġdoesn": 1494,
      "ural": 1495,
      "Ġoper": 1496,
      "Ġest": 1497,
      "Ġcity": 1498,
      "Ġstre": 1499,
      "Ġdays": 1500,
      "Ġaff": 1501,
      "ĠAd": 1502,
      "Ġold": 1503,
      "Ġhop": 1504,
      "Ġfore": 1505,
      "Ġtax": 1506,
      "Ġpolic": 1507,
      "19": 1508,
      "urity": 1509,
      "ator": 1510,
      "Ġtell": 1511,
      "Ġlarge": 1512,
      "Ġcampaign": 1513,
      "ern": 1514,
      "ney": 1515,
      "ides": 1516,
      "acy": 1517,
      "Ġdist": 1518,
      "Ġmen": 1519,
      "ained": 1520,
      "Ġkind": 1521,
      "Ġfriend": 1522,
      "eral": 1523,
      "Ġenough": 1524,
      "Ġcame": 1525,
      "Ġrecord": 1526,
      "gin": 1527,
      "Ġfamily": 1528,
      "ĠGo": 1529,
      "els": 1530,
      "ccess": 1531,
      "Ġmaking": 1532,
      "ush": 1533,
      "side": 1534,
      "ality": 1535,
      "Ġsit": 1536,
      "resident": 1537,
      "rist": 1538,
      "by": 1539,
      "Ġview": 1540,
      "pped": 1541,
      "sc": 1542,
      "Ġuntil": 1543,
      "ering": 1544,
      "ware": 1545,
      "augh": 1546,
      "Ġvide": 1547,
      "Ġpolitical": 1548,
      "Ġelect": 1549,
      "Ġworking": 1550,
      "br": 1551,
      "As": 1552,
      "ified": 1553,
      "Ġ12": 1554,
      "Ġair": 1555,
      "ived": 1556,
      "bs": 1557,
      "ister": 1558,
      "ries": 1559,
      "alf": 1560,
      "ional": 1561,
      "ued": 1562,
      "50": 1563,
      "ley": 1564,
      "oad": 1565,
      "arent": 1566,
      "Ġ=": 1567,
      "Ġbecome": 1568,
      "Ġmean": 1569,
      "ĠSp": 1570,
      "ising": 1571,
      "ĠRepublic": 1572,
      "If": 1573,
      "ĠSc": 1574,
      "ĠComm": 1575,
      "Ġintern": 1576,
      "Ġactually": 1577,
      "Ġhuman": 1578,
      "Ġdeal": 1579,
      "ann": 1580,
      "Ġline": 1581,
      "Ġtook": 1582,
      "Ġes": 1583,
      "ĠJohn": 1584,
      "Ġfund": 1585,
      "aring": 1586,
      "Ġve": 1587,
      "iol": 1588,
      "Ġwon": 1589,
      "Ġever": 1590,
      "aps": 1591,
      "Ġorder": 1592,
      "Ġword": 1593,
      "ember": 1594,
      "Ġtimes": 1595,
      "most": 1596,
      "Ġname": 1597,
      "Ġoften": 1598,
      "ison": 1599,
      "Ġla": 1600,
      "ony": 1601,
      "Ġgive": 1602,
      "ĠPl": 1603,
      "ane": 1604,
      "aining": 1605,
      "ocrat": 1606,
      "Ġformer": 1607,
      "ĠEuro": 1608,
      "Ġaccording": 1609,
      "for": 1610,
      "wh": 1611,
      "Ġdeb": 1612,
      "Ġ199": 1613,
      "ĠAll": 1614,
      "Ġsever": 1615,
      "oint": 1616,
      "ĠSy": 1617,
      "ĠMay": 1618,
      "year": 1619,
      "Ġpar": 1620,
      "Ġreturn": 1621,
      "Ġbit": 1622,
      "Ġgames": 1623,
      "work": 1624,
      "ization": 1625,
      "Ġdev": 1626,
      "ither": 1627,
      "ges": 1628,
      "ĠOr": 1629,
      "Ġcharac": 1630,
      "Ġsing": 1631,
      "aken": 1632,
      "ĠDem": 1633,
      "Ġdoing": 1634,
      "idence": 1635,
      "There": 1636,
      "Ġhaving": 1637,
      "Ġnight": 1638,
      "uture": 1639,
      "Ġbas": 1640,
      "Ġsocial": 1641,
      "Ġseen": 1642,
      "11": 1643,
      "Ġperform": 1644,
      "mber": 1645,
      "Ġmarket": 1646,
      "iqu": 1647,
      "ĠYork": 1648,
      "Ġseveral": 1649,
      "Ġfac": 1650,
      "Ġra": 1651,
      "idd": 1652,
      "ories": 1653,
      "Ġpress": 1654,
      "Ġmedia": 1655,
      "Ġlear": 1656,
      "ĠCon": 1657,
      "Ġocc": 1658,
      "ĠMc": 1659,
      "Ġtoday": 1660,
      "Ġwent": 1661,
      "Ġmembers": 1662,
      "Ġappear": 1663,
      "Ġcrit": 1664,
      "ĠAt": 1665,
      "Ġearly": 1666,
      "Ġevent": 1667,
      "ched": 1668,
      "rop": 1669,
      "Ġmeet": 1670,
      "iously": 1671,
      "Ġsure": 1672,
      "lf": 1673,
      "Ġlikely": 1674,
      "icle": 1675,
      "sh": 1676,
      "raft": 1677,
      "Ġquestion": 1678,
      "Ġwater": 1679,
      "Ġplayers": 1680,
      "ots": 1681,
      "une": 1682,
      "Ġside": 1683,
      "Ġwhether": 1684,
      "Ġ15": 1685,
      "ĠPresident": 1686,
      "Ġcertain": 1687,
      "Ġfive": 1688,
      "Ġequ": 1689,
      "Ġcontrol": 1690,
      "Ġmilit": 1691,
      "ĠStates": 1692,
      "ended": 1693,
      "artment": 1694,
      "ubl": 1695,
      "Ġshort": 1696,
      "Ġyoung": 1697,
      "Ġprop": 1698,
      "ĠRuss": 1699,
      "Ġinvol": 1700,
      "inc": 1701,
      "ene": 1702,
      "Ġexample": 1703,
      "ĠObama": 1704,
      "iver": 1705,
      "Ġvers": 1706,
      "ium": 1707,
      "ER": 1708,
      "Ġarg": 1709,
      "let": 1710,
      "Ġeng": 1711,
      "Ġmonths": 1712,
      "Ġchildren": 1713,
      "Ġhour": 1714,
      "ands": 1715,
      "ats": 1716,
      "enn": 1717,
      "Ġalong": 1718,
      "ĠUniversity": 1719,
      "Ġonce": 1720,
      "Ġsuccess": 1721,
      "And": 1722,
      "Ġdone": 1723,
      "Ġfight": 1724,
      "Ġ]": 1725,
      "Ġmeans": 1726,
      "Ġpossible": 1727,
      "ential": 1728,
      "Ġwithin": 1729,
      "ĠEurope": 1730,
      "ĠMr": 1731,
      "ulation": 1732,
      "Ġdesc": 1733,
      "gress": 1734,
      "Ġcho": 1735,
      "Ġcourse": 1736,
      "ĠCol": 1737,
      "Ġpot": 1738,
      "Ġconcer": 1739,
      "Ġproduct": 1740,
      "Ġinvestig": 1741,
      "Ġant": 1742,
      "Ġknown": 1743,
      "ague": 1744,
      "ially": 1745,
      "uff": 1746,
      "Ġpriv": 1747,
      "Ġactiv": 1748,
      "iting": 1749,
      "nect": 1750,
      "vert": 1751,
      "urs": 1752,
      "Ġproblem": 1753,
      "ivid": 1754,
      "empt": 1755,
      "Ġthought": 1756,
      "Ġunderstand": 1757,
      "rew": 1758,
      "Ġfuture": 1759,
      "Ġprotect": 1760,
      "ĠOn": 1761,
      "Ġamong": 1762,
      "por": 1763,
      "Ġauthor": 1764,
      "Ġlocal": 1765,
      "verage": 1766,
      "ederal": 1767,
      "Ġasked": 1768,
      "ster": 1769,
      "Ġfail": 1770,
      "Ġhold": 1771,
      "ortun": 1772,
      "ourn": 1773,
      "Ġreason": 1774,
      "Ġnon": 1775,
      "oci": 1776,
      "iety": 1777,
      "Ġwrit": 1778,
      "Ġ11": 1779,
      "ald": 1780,
      "Ġviol": 1781,
      "ggest": 1782,
      "imate": 1783,
      "Ġavail": 1784,
      "Ġcommunity": 1785,
      "ball": 1786,
      "Ġorig": 1787,
      "not": 1788,
      "my": 1789,
      "Ġgiven": 1790,
      "ĠTe": 1791,
      "Ġyet": 1792,
      "ĠWhen": 1793,
      "You": 1794,
      "Ġ&": 1795,
      "ones": 1796,
      "Ġacross": 1797,
      "ĠNo": 1798,
      "Ġstrong": 1799,
      "Ġvideo": 1800,
      "itive": 1801,
      "back": 1802,
      "ĠCar": 1803,
      "aged": 1804,
      "iber": 1805,
      "Ġsuggest": 1806,
      "Ġprob": 1807,
      "book": 1808,
      "Ġ,": 1809,
      "ĠBr": 1810,
      "Ġmakes": 1811,
      "Ġannoun": 1812,
      "Ġbelieve": 1813,
      "ensive": 1814,
      "Ġsex": 1815,
      "Ġca": 1816,
      "ĠState": 1817,
      "Ġlim": 1818,
      "Ġ2016": 1819,
      "Ġreported": 1820,
      "Ġben": 1821,
      "ances": 1822,
      "Ġothers": 1823,
      "ler": 1824,
      "Ġlight": 1825,
      "12": 1826,
      "Ġgetting": 1827,
      "iron": 1828,
      "itions": 1829,
      "Ġident": 1830,
      "Ġmus": 1831,
      "orld": 1832,
      "Ġnational": 1833,
      "Ġsent": 1834,
      "ober": 1835,
      "Ġdeath": 1836,
      "Ġcut": 1837,
      "leg": 1838,
      "ored": 1839,
      "urther": 1840,
      "Ġi": 1841,
      "Ġindust": 1842,
      "allen": 1843,
      "ĠHouse": 1844,
      "'ve": 1845,
      "30": 1846,
      "Ġsaf": 1847,
      "Ġland": 1848,
      "rest": 1849,
      "âĢĵ": 1850,
      "Ġissue": 1851,
      "Ġemploy": 1852,
      "ashing": 1853,
      "ĠCent": 1854,
      "ĠChrist": 1855,
      "Ġstarted": 1856,
      "Ġsour": 1857,
      "ĠCo": 1858,
      "aster": 1859,
      "Ġseries": 1860,
      "Ġlow": 1861,
      "ament": 1862,
      "Ġaccount": 1863,
      "Ġcond": 1864,
      "Ġ30": 1865,
      "Ġavailable": 1866,
      "Ġbased": 1867,
      "Ġcreat": 1868,
      "Ġlove": 1869,
      "selves": 1870,
      "For": 1871,
      "Ġhig": 1872,
      "Ġ2015": 1873,
      "Ġcomes": 1874,
      "Ġclose": 1875,
      "ams": 1876,
      "arm": 1877,
      "Ġalmost": 1878,
      "Ġtrying": 1879,
      "ĠDemocrat": 1880,
      "ĠMin": 1881,
      "ĠAm": 1882,
      "uly": 1883,
      "ief": 1884,
      "Ġmom": 1885,
      "Ġfilm": 1886,
      "//": 1887,
      "hers": 1888,
      "resent": 1889,
      "ai": 1890,
      "Ġago": 1891,
      "ĠPr": 1892,
      "ĠWhat": 1893,
      "ument": 1894,
      "Ġtoget": 1895,
      "Ġtogether": 1896,
      "Ġnet": 1897,
      "Ġfollowing": 1898,
      "ability": 1899,
      "Ġpract": 1900,
      "Ġcourt": 1901,
      "Ġrul": 1902,
      "ring": 1903,
      "utes": 1904,
      "erman": 1905,
      "Ġexperience": 1906,
      "reed": 1907,
      "though": 1908,
      "itional": 1909,
      "Ġclear": 1910,
      "go": 1911,
      "Ġidea": 1912,
      "Ġisn": 1913,
      "ination": 1914,
      "Ġaccess": 1915,
      "Ġhistory": 1916,
      "ustom": 1917,
      "Ġparty": 1918,
      "ividual": 1919,
      "pro": 1920,
      "orts": 1921,
      "ators": 1922,
      "ĠCanad": 1923,
      "ĠAmerica": 1924,
      "use": 1925,
      "ails": 1926,
      "Ġfoc": 1927,
      "rael": 1928,
      "Ġadded": 1929,
      "Ġtrad": 1930,
      "15": 1931,
      "erence": 1932,
      "of": 1933,
      "ĠEx": 1934,
      "Ġ#": 1935,
      "ĠÂ": 1936,
      "unch": 1937,
      "gest": 1938,
      "af": 1939,
      "ĠX": 1940,
      "Ġimpro": 1941,
      "Ġhalf": 1942,
      "ĠBro": 1943,
      "ĠFl": 1944,
      "Ġlooking": 1945,
      "AT": 1946,
      "ilar": 1947,
      "Ġanything": 1948,
      "ĠSen": 1949,
      "Ġpresent": 1950,
      "Ġproper": 1951,
      "ĠOne": 1952,
      "eb": 1953,
      "Ġcomplete": 1954,
      "raw": 1955,
      "Ġtaken": 1956,
      "aid": 1957,
      "ien": 1958,
      "icult": 1959,
      "Ġmiss": 1960,
      "ograp": 1961,
      ".,": 1962,
      "Ġbad": 1963,
      "oto": 1964,
      "Ġfood": 1965,
      "Ġsix": 1966,
      "Ġsaying": 1967,
      "Ġarea": 1968,
      "inton": 1969,
      "'m": 1970,
      "Ġentire": 1971,
      "wards": 1972,
      "ote": 1973,
      "Ġ16": 1974,
      "Ġ2014": 1975,
      "arget": 1976,
      "Ġlive": 1977,
      "Ġcolle": 1978,
      "Ġcompet": 1979,
      "witter": 1980,
      "ids": 1981,
      "cially": 1982,
      "ert": 1983,
      "Ġindividual": 1984,
      "rug": 1985,
      "Ġbehind": 1986,
      "Ġface": 1987,
      "Ġanal": 1988,
      "osp": 1989,
      "nes": 1990,
      "ĠPol": 1991,
      "Ġmind": 1992,
      "Ġrather": 1993,
      "Ġbill": 1994,
      "Ġtot": 1995,
      "ministr": 1996,
      "ev": 1997,
      "What": 1998,
      "Ġnear": 1999,
      "Ġris": 2000,
      "Ġsecurity": 2001,
      "Ġmilitary": 2002,
      "Ġaut": 2003,
      "par": 2004,
      "Ġtry": 2005,
      "Ġwanted": 2006,
      "Ġtre": 2007,
      "Ġvict": 2008,
      "uge": 2009,
      "Ã©": 2010,
      "ĠTo": 2011,
      "Ġpolicy": 2012,
      "Ġpubl": 2013,
      "Ġsingle": 2014,
      "irc": 2015,
      "play": 2016,
      "Ġmess": 2017,
      "Ġmult": 2018,
      "Ġdiscuss": 2019,
      "Ġmor": 2020,
      "ĠGr": 2021,
      "Ġthreat": 2022,
      "amed": 2023,
      "sy": 2024,
      "ales": 2025,
      "Ġconsider": 2026,
      "Ġsomeone": 2027,
      "ĠNorth": 2028,
      "ĠBrit": 2029,
      "Ġer": 2030,
      "Ġquick": 2031,
      "Ġstudy": 2032,
      "Ġblack": 2033,
      "Ġfav": 2034,
      "Ġspecial": 2035,
      "Ġ14": 2036,
      "Ġbring": 2037,
      "On": 2038,
      "Ġsum": 2039,
      "Ġredu": 2040,
      "igr": 2041,
      "ĠEng": 2042,
      "ĠCal": 2043,
      "atic": 2044,
      "Ġcompan": 2045,
      "off": 2046,
      "ĠDon": 2047,
      "aper": 2048,
      "ĠAf": 2049,
      "**": 2050,
      "Ġcomb": 2051,
      "IN": 2052,
      "ĠSec": 2053,
      "Ġspace": 2054,
      "ĠWar": 2055,
      "ĠMan": 2056,
      "reme": 2057,
      "ĠIsrael": 2058,
      "Ġcou": 2059,
      "ows": 2060,
      "Ġjo": 2061,
      "An": 2062,
      "ply": 2063,
      "Ġcoun": 2064,
      "Ġcult": 2065,
      "Ġfoot": 2066,
      "Ġplayer": 2067,
      "cing": 2068,
      "ĠCity": 2069,
      "Ġpret": 2070,
      "ashington": 2071,
      "ĠNational": 2072,
      "Ġz": 2073,
      "Ġattempt": 2074,
      "Ġsw": 2075,
      "rote": 2076,
      "Ġelse": 2077,
      "Ġkey": 2078,
      "viron": 2079,
      "ify": 2080,
      "ĠDep": 2081,
      "Ġtaking": 2082,
      "Ġbenef": 2083,
      "Ġmass": 2084,
      "olution": 2085,
      "Ġnothing": 2086,
      "Ġener": 2087,
      "RE": 2088,
      "Ġcoming": 2089,
      "When": 2090,
      "ĠBar": 2091,
      "Ġprobably": 2092,
      "Ġ:": 2093,
      "Ġconnect": 2094,
      "Ġbody": 2095,
      "dd": 2096,
      "Ġ...": 2097,
      ".)": 2098,
      "----": 2099,
      "IS": 2100,
      "ully": 2101,
      "Ġ13": 2102,
      "Ġexist": 2103,
      "over": 2104,
      "Ġhowever": 2105,
      "Ġdescrib": 2106,
      "Ġrights": 2107,
      "Ġfront": 2108,
      "That": 2109,
      "Ġdecision": 2110,
      "ON": 2111,
      "Ġsus": 2112,
      "Ġenc": 2113,
      "ran": 2114,
      "So": 2115,
      "Ġbar": 2116,
      "asing": 2117,
      "elt": 2118,
      "yn": 2119,
      "irl": 2120,
      "Ġfeat": 2121,
      "ris": 2122,
      "Ġrepl": 2123,
      "Ġ17": 2124,
      "Ġeither": 2125,
      "ĠIm": 2126,
      "lier": 2127,
      "ault": 2128,
      "Ġcreate": 2129,
      "aces": 2130,
      "Al": 2131,
      "Ġfederal": 2132,
      "ging": 2133,
      "Ġhouse": 2134,
      "ĠWorld": 2135,
      "ĠHar": 2136,
      "ĠGu": 2137,
      "Ġissues": 2138,
      "Ġconv": 2139,
      "ĠClinton": 2140,
      "Ġeverything": 2141,
      "Ġfig": 2142,
      "ively": 2143,
      "sw": 2144,
      "Ġwrote": 2145,
      "16": 2146,
      "Ġtarget": 2147,
      "Ġwhole": 2148,
      "ches": 2149,
      "ĠSu": 2150,
      "Ġstri": 2151,
      "Ġresearch": 2152,
      "ming": 2153,
      "Ġfurther": 2154,
      "Ġwa": 2155,
      "Ġey": 2156,
      "Ġroom": 2157,
      "Ġsignific": 2158,
      "14": 2159,
      "ivil": 2160,
      "Ġsimilar": 2161,
      "Ġstep": 2162,
      "Ġbegin": 2163,
      "lement": 2164,
      "Ġself": 2165,
      "Ġcompanies": 2166,
      "ĠMed": 2167,
      "Ġthird": 2168,
      "ĠJan": 2169,
      "ĠAust": 2170,
      "ĠGe": 2171,
      "anks": 2172,
      "Ġexec": 2173,
      "Ġdoc": 2174,
      "ĠWashington": 2175,
      "Ġseems": 2176,
      "ps": 2177,
      "rodu": 2178,
      "Ġstop": 2179,
      "Ġwatch": 2180,
      "Ġamount": 2181,
      "Ġtra": 2182,
      "Ġdue": 2183,
      "itted": 2184,
      "Ġimm": 2185,
      "Ġinfl": 2186,
      "13": 2187,
      "Ġofficials": 2188,
      "ried": 2189,
      "Ġ198": 2190,
      "ana": 2191,
      "ĠWith": 2192,
      "ery": 2193,
      "ĠPart": 2194,
      "ĠHowever": 2195,
      "Ġcompl": 2196,
      "Ġservice": 2197,
      "pecially": 2198,
      "uation": 2199,
      "Ġsuper": 2200,
      "ently": 2201,
      "Ġpoints": 2202,
      "iday": 2203,
      "ĠDav": 2204,
      "ape": 2205,
      "Ġhit": 2206,
      "mb": 2207,
      "Ġchallen": 2208,
      "Ġsound": 2209,
      "attle": 2210,
      "Ġlab": 2211,
      "Ġstudents": 2212,
      "Ġfinal": 2213,
      "Ġdam": 2214,
      "Ġrole": 2215,
      "Ġenergy": 2216,
      "now": 2217,
      "sec": 2218,
      "Ġpick": 2219,
      "Ġcand": 2220,
      "Ġstates": 2221,
      "ades": 2222,
      "Ch": 2223,
      "Ġmeas": 2224,
      "Ġcustom": 2225,
      "eal": 2226,
      "Ġreleased": 2227,
      "Ġbegan": 2228,
      "Ġstatement": 2229,
      "pping": 2230,
      "Ġ2013": 2231,
      "Ġdevelopment": 2232,
      "Ġbreak": 2233,
      "Ġwasn": 2234,
      "Ġ2017": 2235,
      "pite": 2236,
      "Ġleaders": 2237,
      "ilt": 2238,
      "Ġitself": 2239,
      "Ġmatter": 2240,
      "like": 2241,
      "Ġbecame": 2242,
      "ĠSouth": 2243,
      "Ġposition": 2244,
      "Ġevidence": 2245,
      "ĠChina": 2246,
      "ĠGerman": 2247,
      "ãģ": 2248,
      "Ġcharacter": 2249,
      "obal": 2250,
      "Ġfield": 2251,
      "Ġcontinue": 2252,
      "Ġrelations": 2253,
      "vironment": 2254,
      "Ġstat": 2255,
      "ĠApp": 2256,
      "Ġhimself": 2257,
      "Ġfire": 2258,
      "Ġhours": 2259,
      "Ġtreat": 2260,
      "oon": 2261,
      "Ġ|": 2262,
      "Ġdou": 2263,
      "ibility": 2264,
      "Ġopt": 2265,
      "Ġfall": 2266,
      "amer": 2267,
      "Ġgun": 2268,
      "Ġneg": 2269,
      "Ġground": 2270,
      "Ġprovide": 2271,
      "head": 2272,
      "Ġinit": 2273,
      "ĠAss": 2274,
      "lling": 2275,
      "Ġgeneral": 2276,
      "Ġinterview": 2277,
      "ĠInst": 2278,
      "iod": 2279,
      "Ġagree": 2280,
      "Ġgroups": 2281,
      "ili": 2282,
      "Ġcountries": 2283,
      "Ġthemselves": 2284,
      "isc": 2285,
      "AN": 2286,
      "ung": 2287,
      "Ġaction": 2288,
      "Ġrad": 2289,
      "Ġdom": 2290,
      "'ll": 2291,
      "Ġrepresent": 2292,
      "Ġ/": 2293,
      "17": 2294,
      "Ġoutside": 2295,
      "aul": 2296,
      "lim": 2297,
      "ww": 2298,
      "Ġoffice": 2299,
      "Ġtyp": 2300,
      "Ġsimply": 2301,
      "BC": 2302,
      "ÂŃ": 2303,
      "Ġdifficult": 2304,
      "Ġprofess": 2305,
      "Ġ25": 2306,
      "aced": 2307,
      "ĠEd": 2308,
      "Ġaddress": 2309,
      "Ġwhite": 2310,
      "ograph": 2311,
      "Ġversion": 2312,
      "Ġtrue": 2313,
      "acebook": 2314,
      "Ġ2012": 2315,
      "18": 2316,
      "Ġabove": 2317,
      "Ġneeded": 2318,
      "ogn": 2319,
      "Ġcommon": 2320,
      "ender": 2321,
      "ĠJust": 2322,
      "reg": 2323,
      "Ġbuilding": 2324,
      "Ġlat": 2325,
      "Ġ100": 2326,
      "Ġsaw": 2327,
      "iddle": 2328,
      "Ġsignificant": 2329,
      "eks": 2330,
      "ift": 2331,
      "ĠRes": 2332,
      "Ġgen": 2333,
      "umb": 2334,
      "abl": 2335,
      "ĠHis": 2336,
      "Ġdest": 2337,
      "Ġneeds": 2338,
      "arter": 2339,
      "Ġtem": 2340,
      "://": 2341,
      "Ġdi": 2342,
      "Ġcop": 2343,
      "eng": 2344,
      "Ġdrug": 2345,
      "ĠIntern": 2346,
      "Ġinclude": 2347,
      "light": 2348,
      "Ġeveryone": 2349,
      "Ġadministr": 2350,
      "Ġphys": 2351,
      "ream": 2352,
      "Ġexc": 2353,
      "yle": 2354,
      "Ġrunning": 2355,
      "Ġspecific": 2356,
      "oid": 2357,
      "ask": 2358,
      "Ġrespons": 2359,
      "Ġpretty": 2360,
      "Ġrelease": 2361,
      "Ġwoman": 2362,
      "Ġdeep": 2363,
      "ournal": 2364,
      "Ġlate": 2365,
      "Ġbelow": 2366,
      "Ġmusic": 2367,
      "ribut": 2368,
      "atur": 2369,
      "Ġred": 2370,
      "Ġsuff": 2371,
      "Ġanim": 2372,
      "Ġchanges": 2373,
      "Ġinstead": 2374,
      "How": 2375,
      "ĠAb": 2376,
      "Ġplayed": 2377,
      "Ġpain": 2378,
      "Ġindustry": 2379,
      "Ġlegal": 2380,
      "ogle": 2381,
      "Ġshows": 2382,
      "Ġfriends": 2383,
      "Ġsense": 2384,
      "Ġlost": 2385,
      "right": 2386,
      "Ġjud": 2387,
      "Ġinj": 2388,
      "Ġmag": 2389,
      "ĠWest": 2390,
      "Ġquite": 2391,
      "Ġple": 2392,
      "lam": 2393,
      "Ġap": 2394,
      "body": 2395,
      "where": 2396,
      "Ġrecently": 2397,
      "ĠAfter": 2398,
      "Ġbillion": 2399,
      "Ġplaying": 2400,
      "Ġball": 2401,
      "oe": 2402,
      "time": 2403,
      "angu": 2404,
      "Ġespecially": 2405,
      "Ġrelig": 2406,
      "ccording": 2407,
      "ele": 2408,
      "Ġ50": 2409,
      "Ġcandid": 2410,
      "Ġsite": 2411,
      "istic": 2412,
      "Ġelection": 2413,
      "ached": 2414,
      "Ġvalue": 2415,
      "epend": 2416,
      "AS": 2417,
      "osing": 2418,
      "Ġhom": 2419,
      "ival": 2420,
      "Ġweeks": 2421,
      "Ġabs": 2422,
      "Ġeconomic": 2423,
      "AR": 2424,
      "oring": 2425,
      "Ġconsum": 2426,
      "Ġdeter": 2427,
      "Ġmoment": 2428,
      "Ġblock": 2429,
      "omm": 2430,
      "ĠMy": 2431,
      "Ġhope": 2432,
      "Ġtit": 2433,
      "su": 2434,
      "Ġpie": 2435,
      "Ġshoot": 2436,
      "Ġep": 2437,
      "cil": 2438,
      "Ġopportun": 2439,
      "ĠNot": 2440,
      "oke": 2441,
      "Ġtrack": 2442,
      "Ġlo": 2443,
      "Ġforward": 2444,
      "Ġsoon": 2445,
      "Ġperiod": 2446,
      "Ġdecl": 2447,
      "duct": 2448,
      "medi": 2449,
      "Ġaccept": 2450,
      "ĠTwitter": 2451,
      "Ġworks": 2452,
      "Ġwords": 2453,
      "Ġcirc": 2454,
      "Ġshare": 2455,
      "alt": 2456,
      "ĠOct": 2457,
      "oph": 2458,
      "arc": 2459,
      "ĠNews": 2460,
      "itting": 2461,
      "ager": 2462,
      "Ġwebs": 2463,
      "bo": 2464,
      "irm": 2465,
      "Ġmot": 2466,
      "ĠWhite": 2467,
      "Ġcred": 2468,
      "ĠMus": 2469,
      "onse": 2470,
      "uary": 2471,
      "ĠWill": 2472,
      "Ġcheck": 2473,
      "ients": 2474,
      "Ġhigher": 2475,
      "Ġobject": 2476,
      "eed": 2477,
      "irt": 2478,
      "Ġ24": 2479,
      "Ġlonger": 2480,
      "Ġvote": 2481,
      "ĠCong": 2482,
      "ancial": 2483,
      "ularly": 2484,
      "Ġhost": 2485,
      "Ġonline": 2486,
      "Ġparent": 2487,
      "Ġwrong": 2488,
      "Ġpred": 2489,
      "ĠMarch": 2490,
      "asons": 2491,
      "Ġreve": 2492,
      "cial": 2493,
      "ĠSyri": 2494,
      "ĠSept": 2495,
      "Ġheld": 2496,
      "ĠAug": 2497,
      "key": 2498,
      "Ġstay": 2499,
      "Ġcomput": 2500,
      "ĠThese": 2501,
      "ĠDepartment": 2502,
      "Ġtotal": 2503,
      "ĠRepublican": 2504,
      "Ġwalk": 2505,
      "ns": 2506,
      "Ġpotential": 2507,
      "Ġfocus": 2508,
      "lt": 2509,
      "ees": 2510,
      "fer": 2511,
      "ique": 2512,
      "Ġfunction": 2513,
      "cle": 2514,
      "put": 2515,
      "ript": 2516,
      "iding": 2517,
      "ĠSte": 2518,
      "aging": 2519,
      "Ġgoal": 2520,
      "Ġrev": 2521,
      "str": 2522,
      "Ġanyone": 2523,
      "Ġled": 2524,
      "ends": 2525,
      "Ġ197": 2526,
      "Ġresults": 2527,
      "Ġage": 2528,
      "urd": 2529,
      "ateg": 2530,
      "They": 2531,
      "Ġtechnology": 2532,
      "Ph": 2533,
      "Ġcode": 2534,
      "Ġstru": 2535,
      "Ġdiv": 2536,
      "Ġproblems": 2537,
      "pril": 2538,
      "Ġeduc": 2539,
      "ĠMich": 2540,
      "aut": 2541,
      "Ġexpress": 2542,
      "Ġdead": 2543,
      "ĠSm": 2544,
      "hod": 2545,
      "Ġservices": 2546,
      "Ġden": 2547,
      "Ġupd": 2548,
      "Ġcontract": 2549,
      "aterial": 2550,
      "ole": 2551,
      "ĠJune": 2552,
      "Ġpersonal": 2553,
      "Ġannounced": 2554,
      "Ġsold": 2555,
      "Ġreceived": 2556,
      "Ġenvironment": 2557,
      "Ġshot": 2558,
      "Ġpopular": 2559,
      "Ġways": 2560,
      "ĠPar": 2561,
      "ĠDr": 2562,
      "ky": 2563,
      "isl": 2564,
      "haps": 2565,
      "action": 2566,
      "Ġreview": 2567,
      "che": 2568,
      "urch": 2569,
      "Ġcomment": 2570,
      "anger": 2571,
      "Ġearlier": 2572,
      "itution": 2573,
      "hood": 2574,
      "ĠGod": 2575,
      "fect": 2576,
      "Ġ{": 2577,
      "ĠPe": 2578,
      "Ġrespect": 2579,
      "icro": 2580,
      "Ġminutes": 2581,
      "ĠJuly": 2582,
      "ĠMe": 2583,
      "hern": 2584,
      "Ġwind": 2585,
      "Ġrate": 2586,
      "Ġnecess": 2587,
      "Ġapplic": 2588,
      "ij": 2589,
      "Ġexpected": 2590,
      "25": 2591,
      "Ġarticle": 2592,
      "Ġaud": 2593,
      "aving": 2594,
      "ĠEn": 2595,
      "Ġprice": 2596,
      "Ġquestions": 2597,
      "Ġ)": 2598,
      "Ġprivate": 2599,
      "na": 2600,
      "Ġsurpr": 2601,
      "ude": 2602,
      "Ġansw": 2603,
      "ĠDo": 2604,
      "Ġcreated": 2605,
      "Ad": 2606,
      "apan": 2607,
      "Ġprim": 2608,
      "Ġport": 2609,
      "ule": 2610,
      "Ġanti": 2611,
      "60": 2612,
      "Ġcivil": 2613,
      "Ġimpact": 2614,
      "atives": 2615,
      "Ġincrease": 2616,
      "uel": 2617,
      "val": 2618,
      "ilities": 2619,
      "Ġhy": 2620,
      "____": 2621,
      "Ġcannot": 2622,
      "iter": 2623,
      "Ġcases": 2624,
      "Ġinternational": 2625,
      "Ġpack": 2626,
      "ham": 2627,
      "ires": 2628,
      "!!!!": 2629,
      "ples": 2630,
      "ray": 2631,
      "Ġexecut": 2632,
      "Ġinvolved": 2633,
      "Ġoriginal": 2634,
      "Ġheart": 2635,
      "Ġexact": 2636,
      "Ġ2011": 2637,
      "Ġforce": 2638,
      "Ġbase": 2639,
      "Ġvol": 2640,
      "Ġeasy": 2641,
      "Ġterror": 2642,
      "Ġsoft": 2643,
      "hel": 2644,
      "Ġur": 2645,
      "ĠCongress": 2646,
      "Ġstaff": 2647,
      "Ġnearly": 2648,
      "iple": 2649,
      "Ġscient": 2650,
      "Ġarrest": 2651,
      "ĠCour": 2652,
      "ĠFacebook": 2653,
      "reet": 2654,
      "aker": 2655,
      "itiz": 2656,
      "Ġaverage": 2657,
      "ĠMond": 2658,
      "ills": 2659,
      "ittee": 2660,
      "ĠFriday": 2661,
      "ĠRed": 2662,
      "Ġkilled": 2663,
      "bor": 2664,
      "Ġsen": 2665,
      "Ġreports": 2666,
      "Ġusers": 2667,
      "ĠApril": 2668,
      "Ġmodel": 2669,
      "ctor": 2670,
      "ners": 2671,
      "Ġcontent": 2672,
      "Ġ2010": 2673,
      "Ġcoll": 2674,
      "Ġleave": 2675,
      "âĢĶâĢĶ": 2676,
      "Ġdel": 2677,
      "Ġcell": 2678,
      "Ġliving": 2679,
      "itten": 2680,
      "Ġresponse": 2681,
      "Ġphot": 2682,
      "ĠAmericans": 2683,
      "Ġsubject": 2684,
      "Ġfavor": 2685,
      "ĠAustral": 2686,
      "lex": 2687,
      "okes": 2688,
      "mon": 2689,
      "Ġclub": 2690,
      "ips": 2691,
      "unt": 2692,
      "rel": 2693,
      "Ġrequest": 2694,
      "ES": 2695,
      "ael": 2696,
      "Ġcapt": 2697,
      "Ġinside": 2698,
      "Ġbecom": 2699,
      "Ġstore": 2700,
      "joy": 2701,
      "Ġglobal": 2702,
      "ext": 2703,
      "ites": 2704,
      "uesday": 2705,
      "ĠGoogle": 2706,
      "Ġrespond": 2707,
      "Ġ<": 2708,
      "Ġlangu": 2709,
      "eter": 2710,
      "Ġworked": 2711,
      "Ġterms": 2712,
      "To": 2713,
      "mp": 2714,
      "Ġhappened": 2715,
      "Ġrisk": 2716,
      "Ġweap": 2717,
      "At": 2718,
      "omb": 2719,
      "Ġobs": 2720,
      "Ġdirector": 2721,
      "Ġfans": 2722,
      "ises": 2723,
      "ino": 2724,
      "Ġworth": 2725,
      "Ġgave": 2726,
      "rem": 2727,
      "ech": 2728,
      "Ġcal": 2729,
      "Ġbroad": 2730,
      "99": 2731,
      "ĠCalif": 2732,
      "Ġnation": 2733,
      "Ġrelationship": 2734,
      "istrict": 2735,
      "Ġgirl": 2736,
      "Ġchance": 2737,
      "Ġability": 2738,
      "ought": 2739,
      "\".": 2740,
      "ĠJanuary": 2741,
      "bit": 2742,
      "ellig": 2743,
      "atural": 2744,
      "Ġimmedi": 2745,
      "osition": 2746,
      "Ġtype": 2747,
      "Ġmid": 2748,
      "lled": 2749,
      "ĠCount": 2750,
      "Ġestabl": 2751,
      "ĠMonday": 2752,
      "Ġdecided": 2753,
      "Ġet": 2754,
      "Ġtakes": 2755,
      "ological": 2756,
      "ĠNow": 2757,
      "Ġcollect": 2758,
      "apt": 2759,
      "Ġfem": 2760,
      "Ġassoci": 2761,
      "Ġadm": 2762,
      "Ġroad": 2763,
      "rought": 2764,
      "Ġpublished": 2765,
      "ĠWed": 2766,
      "cast": 2767,
      "ĠWhile": 2768,
      "Ġdefin": 2769,
      "Ġsqu": 2770,
      "Ġinflu": 2771,
      "Ġcapital": 2772,
      "Ġbuy": 2773,
      "Ġlack": 2774,
      "ĠTuesday": 2775,
      "ops": 2776,
      "iction": 2777,
      "ruction": 2778,
      "ĠSome": 2779,
      "Ġworkers": 2780,
      "ĠAct": 2781,
      "usion": 2782,
      "izing": 2783,
      "Ġfinancial": 2784,
      "Ġplans": 2785,
      "Ġsource": 2786,
      "Ġrequire": 2787,
      "Ġwhose": 2788,
      "ĠJapan": 2789,
      "Ġareas": 2790,
      "Ġmother": 2791,
      "rown": 2792,
      "Ġemer": 2793,
      "Ġphone": 2794,
      "ĠSund": 2795,
      "][": 2796,
      "Ġsituation": 2797,
      "Ġbank": 2798,
      "Ġmaterial": 2799,
      "\",": 2800,
      "ovember": 2801,
      "based": 2802,
      "fully": 2803,
      "Ġaffect": 2804,
      "Ġforeign": 2805,
      "ĠPal": 2806,
      "Ġcurrently": 2807,
      "Ġrecogn": 2808,
      "Ġcouple": 2809,
      "Ġlog": 2810,
      "ctions": 2811,
      "Ġoil": 2812,
      "Ġturned": 2813,
      "oved": 2814,
      "Ġlives": 2815,
      "Ġregard": 2816,
      "EN": 2817,
      "Ġ40": 2818,
      "ursday": 2819,
      "ĠOff": 2820,
      "Ġadministration": 2821,
      "Ġ@": 2822,
      "Ġcy": 2823,
      "Ġindic": 2824,
      "nesday": 2825,
      "rain": 2826,
      "Ġarri": 2827,
      "Ġmeeting": 2828,
      "ĠHill": 2829,
      "Ġmember": 2830,
      "Ġfelt": 2831,
      "Ġhuge": 2832,
      "Ġsimple": 2833,
      "ĠPer": 2834,
      "ĠSeptember": 2835,
      "Ġord": 2836,
      "oor": 2837,
      "Ġill": 2838,
      "Ġbi": 2839,
      "ĠRussia": 2840,
      "ĠAg": 2841,
      "ĠGeor": 2842,
      "vertise": 2843,
      "ĠBy": 2844,
      "Ġapproach": 2845,
      "Ġtal": 2846,
      "ese": 2847,
      "OR": 2848,
      "Ġnorm": 2849,
      "Ġpict": 2850,
      "Ġtou": 2851,
      "ornia": 2852,
      "Ġgoes": 2853,
      "Ġpage": 2854,
      "ructure": 2855,
      "Ġmis": 2856,
      "Ġneigh": 2857,
      "One": 2858,
      "Ġvia": 2859,
      "Ġquickly": 2860,
      "Ġparticip": 2861,
      "ĠTV": 2862,
      "oud": 2863,
      "Ġevents": 2864,
      "Ġintrodu": 2865,
      "ĠFeb": 2866,
      "ĠGl": 2867,
      "Ġoffer": 2868,
      "Ġeconomy": 2869,
      "chie": 2870,
      "ĠEuropean": 2871,
      "40": 2872,
      "Ġsecret": 2873,
      "Ġpull": 2874,
      "Ġfre": 2875,
      "ety": 2876,
      "ĠDavid": 2877,
      "Ġcover": 2878,
      "ani": 2879,
      "Ġteams": 2880,
      "Ġwide": 2881,
      "Ġ21": 2882,
      "Ġheard": 2883,
      "ĠWednesday": 2884,
      "Ġfather": 2885,
      "Ġthous": 2886,
      "ĠÂ£": 2887,
      "ĠThursday": 2888,
      "Ġhands": 2889,
      "ĠSan": 2890,
      "Ġhon": 2891,
      "Ġperformance": 2892,
      "aur": 2893,
      "estern": 2894,
      "Ġpers": 2895,
      "force": 2896,
      "aily": 2897,
      "Ġrepe": 2898,
      "ĠCourt": 2899,
      "ened": 2900,
      "Ġemail": 2901,
      "ĠBritish": 2902,
      "iment": 2903,
      "ĠNovember": 2904,
      "Ġspent": 2905,
      "Ġlegisl": 2906,
      "ences": 2907,
      "Ġtool": 2908,
      "Ġmatch": 2909,
      "atory": 2910,
      "Ġwebsite": 2911,
      "ma": 2912,
      "Ġknew": 2913,
      "Ġmethod": 2914,
      "ĠAugust": 2915,
      "'d": 2916,
      "Ġboy": 2917,
      "load": 2918,
      "Ġtown": 2919,
      "Ġloss": 2920,
      "Ġenjoy": 2921,
      "Ġdeli": 2922,
      "Ġimprove": 2923,
      "Ġdig": 2924,
      "cember": 2925,
      "ĠCor": 2926,
      "Ġnetwork": 2927,
      "Ġtravel": 2928,
      "Ġtrade": 2929,
      "Ġbuilt": 2930,
      "ĠCanada": 2931,
      "?âĢĿ": 2932,
      "order": 2933,
      "ceed": 2934,
      "Ġreveal": 2935,
      "ett": 2936,
      "Sh": 2937,
      "Ġlower": 2938,
      "Ġtele": 2939,
      "Ġincluded": 2940,
      "Ġengine": 2941,
      "Ġrace": 2942,
      "Ġproduction": 2943,
      "eg": 2944,
      "lin": 2945,
      "Ġpopulation": 2946,
      "orters": 2947,
      "Ġsepar": 2948,
      "ession": 2949,
      "Ġcareer": 2950,
      "Ġsize": 2951,
      "ĠSunday": 2952,
      "ĠCalifornia": 2953,
      "Ġcause": 2954,
      "Ġtried": 2955,
      "ĠIslam": 2956,
      "200": 2957,
      "ĠAfric": 2958,
      "cies": 2959,
      "ume": 2960,
      "Ġwants": 2961,
      "Ġste": 2962,
      "avy": 2963,
      "Ġboard": 2964,
      "uses": 2965,
      "Ġvo": 2966,
      "Ġround": 2967,
      "rect": 2968,
      "Ġ+": 2969,
      "ĠAng": 2970,
      "face": 2971,
      "Ġgrowth": 2972,
      "Ġfear": 2973,
      "Ġtext": 2974,
      "ĠEl": 2975,
      "oo": 2976,
      "Ġvisit": 2977,
      "akers": 2978,
      "Ġallowed": 2979,
      "ĠHer": 2980,
      "Ġgets": 2981,
      "Ġ22": 2982,
      "Ġforces": 2983,
      "ĠOctober": 2984,
      "bl": 2985,
      "alled": 2986,
      "Ġfair": 2987,
      "idents": 2988,
      "âĢĿ.": 2989,
      "With": 2990,
      "Ġprogress": 2991,
      "idered": 2992,
      "Ġperfect": 2993,
      "Ġvictim": 2994,
      "raz": 2995,
      ");": 2996,
      "Ġnumbers": 2997,
      "ights": 2998,
      "Ġmovement": 2999,
      "ĠSch": 3000,
      "Ġfell": 3001,
      "ĠTimes": 3002,
      "ĠPost": 3003,
      "Ġpoll": 3004,
      "AL": 3005,
      "Ġreach": 3006,
      "ishing": 3007,
      "hold": 3008,
      "Ġbehav": 3009,
      "arily": 3010,
      "agement": 3011,
      "Ġmention": 3012,
      "Ġparticular": 3013,
      "Ġprevious": 3014,
      "Ġrules": 3015,
      "After": 3016,
      "Ġmedical": 3017,
      "Ġdemand": 3018,
      "yond": 3019,
      "ĠSw": 3020,
      "ĠQu": 3021,
      "Ġban": 3022,
      "Ġlooks": 3023,
      "Ġcontact": 3024,
      "Ġsett": 3025,
      "lear": 3026,
      "Ġbrought": 3027,
      "undred": 3028,
      "Ġsong": 3029,
      "ĠDecember": 3030,
      "down": 3031,
      "ibly": 3032,
      "ĠIS": 3033,
      "ecause": 3034,
      "raq": 3035,
      "arth": 3036,
      "Ġrac": 3037,
      "iam": 3038,
      "ĠParty": 3039,
      "Ġattention": 3040,
      "Ġindepend": 3041,
      "Ġmorning": 3042,
      "Ġess": 3043,
      "Ġvarious": 3044,
      "come": 3045,
      "Ġbud": 3046,
      "ĠPark": 3047,
      "ening": 3048,
      "ĠPaul": 3049,
      "Ġleader": 3050,
      "Ġveh": 3051,
      "urning": 3052,
      "ĠKore": 3053,
      "Ġcitiz": 3054,
      "Ġliber": 3055,
      "ĠCont": 3056,
      "ĠKing": 3057,
      "sequ": 3058,
      "Ġconsidered": 3059,
      "aph": 3060,
      "omp": 3061,
      "field": 3062,
      "IC": 3063,
      "Ġlatest": 3064,
      "ĠChar": 3065,
      "==": 3066,
      "Ġdoll": 3067,
      "Ġcoach": 3068,
      "ĠUK": 3069,
      "Ġlink": 3070,
      "ze": 3071,
      "inks": 3072,
      "Ġhot": 3073,
      "aturday": 3074,
      "Ġ23": 3075,
      "While": 3076,
      "Ġreb": 3077,
      "Ġprep": 3078,
      "Ġtalking": 3079,
      "ope": 3080,
      "Ġfeatures": 3081,
      "uk": 3082,
      "bed": 3083,
      "Ġwond": 3084,
      "AC": 3085,
      "ĠCenter": 3086,
      "vent": 3087,
      "Ġcritic": 3088,
      "ED": 3089,
      "Ġsystems": 3090,
      "ification": 3091,
      "Ġsearch": 3092,
      "rim": 3093,
      "Ġhear": 3094,
      "Ġslow": 3095,
      "Ġens": 3096,
      "Ġimage": 3097,
      "Ġstar": 3098,
      "uments": 3099,
      "coin": 3100,
      "ĠIran": 3101,
      "ledge": 3102,
      "Ġsort": 3103,
      "ĠBlack": 3104,
      "ĠIraq": 3105,
      "ĠMark": 3106,
      "Ġdemon": 3107,
      "asc": 3108,
      "Ġinvestigation": 3109,
      "Ġupon": 3110,
      "Ġbott": 3111,
      "Ġsens": 3112,
      "imately": 3113,
      "Ġtraining": 3114,
      "unk": 3115,
      "Ġstrugg": 3116,
      "Ġbox": 3117,
      "Ġconduct": 3118,
      "Tr": 3119,
      "Ġalle": 3120,
      "Ġsn": 3121,
      "Ġhtt": 3122,
      "icles": 3123,
      "Ġextreme": 3124,
      "ĠStreet": 3125,
      "Ġaddition": 3126,
      "22": 3127,
      "ondon": 3128,
      "elligence": 3129,
      "Ġexam": 3130,
      "Ġspeed": 3131,
      "ico": 3132,
      "Ġpen": 3133,
      "Ġparents": 3134,
      "Ġseek": 3135,
      "Ġson": 3136,
      "Ġ2009": 3137,
      "Ġserious": 3138,
      "ining": 3139,
      "Ġachie": 3140,
      "Ġconserv": 3141,
      "Ġsurve": 3142,
      "het": 3143,
      "aries": 3144,
      "ĠPat": 3145,
      "istan": 3146,
      "iant": 3147,
      "wo": 3148,
      "Ġexcept": 3149,
      "ground": 3150,
      "Ġeffort": 3151,
      "ĠSenate": 3152,
      "Ġhor": 3153,
      "ban": 3154,
      "Ġcrim": 3155,
      "Ġlevels": 3156,
      "fl": 3157,
      "Ġofficers": 3158,
      "eff": 3159,
      "Ġfast": 3160,
      "Ġlooked": 3161,
      "Ġsociety": 3162,
      "IT": 3163,
      "tr": 3164,
      "ruary": 3165,
      "Ġmach": 3166,
      "Ġincreasing": 3167,
      "sych": 3168,
      "Ġwritten": 3169,
      "Ġclaims": 3170,
      "eared": 3171,
      "Ġmajority": 3172,
      "Ġlearn": 3173,
      "Ġseven": 3174,
      "Ġexperien": 3175,
      "Ġprevent": 3176,
      "Ġund": 3177,
      "illed": 3178,
      "Ġscreen": 3179,
      "Ġcompletely": 3180,
      "Ġdocument": 3181,
      "Ġdraw": 3182,
      "Ġlanguage": 3183,
      "Ġrequired": 3184,
      "uf": 3185,
      "ibr": 3186,
      "Ġconc": 3187,
      "ĠCounty": 3188,
      "eth": 3189,
      "Ġcommunic": 3190,
      "ĠSand": 3191,
      "ysis": 3192,
      "ux": 3193,
      "Ġrange": 3194,
      "Ġparticularly": 3195,
      "Ġregul": 3196,
      "Ġinteresting": 3197,
      "Ġmovie": 3198,
      "Ġdoub": 3199,
      "ĠSoc": 3200,
      "Ġjobs": 3201,
      "Ġspokes": 3202,
      "Ġpaper": 3203,
      "pir": 3204,
      "set": 3205,
      "room": 3206,
      "Ġcard": 3207,
      "OS": 3208,
      "80": 3209,
      "Ġexactly": 3210,
      "Ġlay": 3211,
      "erve": 3212,
      "Ġjournal": 3213,
      "reedom": 3214,
      "Ġeight": 3215,
      "Ġconvers": 3216,
      "Ġopportunity": 3217,
      "ĠKe": 3218,
      "ĠRussian": 3219,
      "Ġproducts": 3220,
      "ĠSaturday": 3221,
      "inese": 3222,
      "Ġdro": 3223,
      "Ġobv": 3224,
      "Ġattacks": 3225,
      "Ġprior": 3226,
      "Ġextra": 3227,
      "Ġ2008": 3228,
      "Ġresour": 3229,
      "ille": 3230,
      "US": 3231,
      "arr": 3232,
      "Ġhundred": 3233,
      "lying": 3234,
      "ha": 3235,
      "24": 3236,
      "Ġstories": 3237,
      "Ġoccur": 3238,
      "Ġpoor": 3239,
      "?\"": 3240,
      "Ġplat": 3241,
      "Ġmessage": 3242,
      "rast": 3243,
      "Ġblood": 3244,
      "Ġprison": 3245,
      "Ġnamed": 3246,
      "Ġpaid": 3247,
      "Ġimmigr": 3248,
      "Ġbiggest": 3249,
      "Ġcarry": 3250,
      "ĠIndia": 3251,
      "Ġinn": 3252,
      "ari": 3253,
      "Ġdespite": 3254,
      "ĠEm": 3255,
      "Ġquarter": 3256,
      "ny": 3257,
      "oses": 3258,
      "ĠTex": 3259,
      "Ġaren": 3260,
      "Ġones": 3261,
      "pper": 3262,
      "Ġdescribed": 3263,
      "FL": 3264,
      "Ġterm": 3265,
      "Ġsometimes": 3266,
      "AM": 3267,
      "Ġleading": 3268,
      "Ġfinally": 3269,
      "Ġincreased": 3270,
      "idge": 3271,
      "Ġstuff": 3272,
      "abor": 3273,
      "ospital": 3274,
      "hib": 3275,
      "itch": 3276,
      "anced": 3277,
      "vertisement": 3278,
      "Ġsurv": 3279,
      "Ġprotest": 3280,
      "ida": 3281,
      "Ġ*": 3282,
      "Ġgas": 3283,
      "aves": 3284,
      "ĠÐ": 3285,
      "Ġpractice": 3286,
      "Ġdetails": 3287,
      "Ġquality": 3288,
      "Ġdefense": 3289,
      "aming": 3290,
      "iers": 3291,
      "Ġnatural": 3292,
      "ĠDonald": 3293,
      "Ġscience": 3294,
      "entially": 3295,
      "Ġhous": 3296,
      "Ġimag": 3297,
      "ĠFebruary": 3298,
      "inally": 3299,
      "ĠLondon": 3300,
      "isions": 3301,
      "Ġmiddle": 3302,
      "Ġmodern": 3303,
      "She": 3304,
      "Ġcosts": 3305,
      "Ġviolence": 3306,
      "Ġ}": 3307,
      "Ġkids": 3308,
      "Ġgrowing": 3309,
      "ĠMuslim": 3310,
      "add": 3311,
      "Ġimplement": 3312,
      "Ġchanged": 3313,
      "Ġremain": 3314,
      "ĠEast": 3315,
      "Ġclimate": 3316,
      "Ġult": 3317,
      "Ġcertainly": 3318,
      "Ġuser": 3319,
      "Ġpan": 3320,
      "aught": 3321,
      "fort": 3322,
      "Ġsexual": 3323,
      "Ġfix": 3324,
      "Ġcontinued": 3325,
      "ĠRom": 3326,
      "Ġcross": 3327,
      "ĠJew": 3328,
      "Ġguy": 3329,
      "nces": 3330,
      "Ġanswer": 3331,
      "ĠCoun": 3332,
      "ously": 3333,
      "Ġsummer": 3334,
      "Ġsafe": 3335,
      "ĠMore": 3336,
      "Ġtable": 3337,
      "atter": 3338,
      "Ġpath": 3339,
      "Ġ27": 3340,
      "utions": 3341,
      "Ġthinking": 3342,
      "Ġdamage": 3343,
      "Ġgiving": 3344,
      "Ġcalls": 3345,
      "No": 3346,
      "Ġready": 3347,
      "ĠMor": 3348,
      "Ġspeak": 3349,
      "Ġwriting": 3350,
      "aly": 3351,
      "Ġpurp": 3352,
      "Ġmaintain": 3353,
      "erc": 3354,
      "astic": 3355,
      "Ġaw": 3356,
      "urt": 3357,
      "Ġstarting": 3358,
      "Ġdanger": 3359,
      "ĠSpe": 3360,
      "lish": 3361,
      "uclear": 3362,
      "Ġremains": 3363,
      "Ġshowed": 3364,
      "Ġlaws": 3365,
      "Ġwouldn": 3366,
      "Ġdied": 3367,
      "ĠDemocratic": 3368,
      "ĠEven": 3369,
      "rowd": 3370,
      "Ġpurch": 3371,
      "ĠStar": 3372,
      "vision": 3373,
      "Ġassist": 3374,
      "ĠNet": 3375,
      "Ġalthough": 3376,
      "ĠGener": 3377,
      "Ġreading": 3378,
      "Ġchief": 3379,
      "Ġreality": 3380,
      "Ġregion": 3381,
      "ĠCons": 3382,
      "Ġrob": 3383,
      "Ġusually": 3384,
      "ĠMcC": 3385,
      "zz": 3386,
      "ĠLeague": 3387,
      "ĠRepublicans": 3388,
      "Ġdirectly": 3389,
      "Ġcamer": 3390,
      "egr": 3391,
      "Ġhistor": 3392,
      "inated": 3393,
      "OP": 3394,
      "oul": 3395,
      "Ġrout": 3396,
      "Ġbudget": 3397,
      "Ġcomments": 3398,
      "Ġment": 3399,
      "atever": 3400,
      "ension": 3401,
      "Ġprovided": 3402,
      "Ġefforts": 3403,
      "Ġmultiple": 3404,
      "Ġconcept": 3405,
      "inary": 3406,
      "Ġcele": 3407,
      "Ġparts": 3408,
      "ara": 3409,
      "Ġsoftware": 3410,
      "Ġstandard": 3411,
      "ĠChe": 3412,
      "using": 3413,
      "Ġitem": 3414,
      "Ġbeyond": 3415,
      "Ġcouldn": 3416,
      "Ġavoid": 3417,
      "ĠDes": 3418,
      "Ġperhaps": 3419,
      "overed": 3420,
      "ĠInt": 3421,
      "ĠChinese": 3422,
      "Ġmill": 3423,
      "rench": 3424,
      "Ġfootball": 3425,
      "Ġsle": 3426,
      "Ġdog": 3427,
      "sp": 3428,
      "BI": 3429,
      "Ġproperty": 3430,
      "icated": 3431,
      "Ġver": 3432,
      "ĠBill": 3433,
      "Ġ28": 3434,
      "Ġeducation": 3435,
      "Ġadditional": 3436,
      "Ġunf": 3437,
      "Ġepis": 3438,
      "Ġmob": 3439,
      "oper": 3440,
      "Ġcorpor": 3441,
      "Ġspeech": 3442,
      "Ġil": 3443,
      "Ġselect": 3444,
      "Ġtowards": 3445,
      "Ġscene": 3446,
      "icted": 3447,
      "Ġwrite": 3448,
      "Ġfigure": 3449,
      "Ġchoice": 3450,
      "Ġcounter": 3451,
      "Ġdesigned": 3452,
      "Ġtro": 3453,
      "Ġcomplex": 3454,
      "Ġsafety": 3455,
      "Ġculture": 3456,
      "Ġ(@": 3457,
      "imum": 3458,
      "ables": 3459,
      "Ġcomputer": 3460,
      "Ġthroughout": 3461,
      "icks": 3462,
      "Ġvoters": 3463,
      "ĠMinister": 3464,
      "Ġwife": 3465,
      "mit": 3466,
      "Ġguys": 3467,
      "Ġincludes": 3468,
      "Ġten": 3469,
      "ĠMichael": 3470,
      "ĠFirst": 3471,
      "Ġconsist": 3472,
      "Ġstudent": 3473,
      "Ġrecomm": 3474,
      "Ġdisapp": 3475,
      "Ġ196": 3476,
      "Ġ26": 3477,
      "23": 3478,
      "ago": 3479,
      "Ġofficer": 3480,
      "Ġgone": 3481,
      "Ġpressure": 3482,
      "ford": 3483,
      "amb": 3484,
      "wise": 3485,
      "Ġincome": 3486,
      "Now": 3487,
      "ĠSer": 3488,
      "Ġalone": 3489,
      "etro": 3490,
      "Ġeffects": 3491,
      "urg": 3492,
      "Ġrelative": 3493,
      "Ġthousands": 3494,
      "Ġplatform": 3495,
      "Ġnom": 3496,
      "itute": 3497,
      "cient": 3498,
      "Ġimmediately": 3499,
      "Ġsuspect": 3500,
      "irth": 3501,
      "anch": 3502,
      "Ġcast": 3503,
      "Ġsell": 3504,
      "ĠThen": 3505,
      "Ġcris": 3506,
      "Ġpiece": 3507,
      "Ġresearc": 3508,
      "itor": 3509,
      "Ġreasons": 3510,
      "ĠSchool": 3511,
      "Ġcenter": 3512,
      "ĠMon": 3513,
      "ilies": 3514,
      "Ġclos": 3515,
      "All": 3516,
      "Ġremember": 3517,
      "Ġreceive": 3518,
      "Ġclean": 3519,
      "arian": 3520,
      "Ġopin": 3521,
      "aches": 3522,
      "ĠGreen": 3523,
      "Ġletter": 3524,
      "ression": 3525,
      "Ġrock": 3526,
      "Ġlaunch": 3527,
      "aughter": 3528,
      "iny": 3529,
      "Ġsat": 3530,
      "Ġmoved": 3531,
      "Ġcommand": 3532,
      "ĠIndian": 3533,
      "ĠSim": 3534,
      "hest": 3535,
      "ĠJames": 3536,
      "Ġcharacters": 3537,
      "Ġsil": 3538,
      "adem": 3539,
      "Ġdifference": 3540,
      "Ġut": 3541,
      "iles": 3542,
      "Im": 3543,
      "airs": 3544,
      "Ġmeaning": 3545,
      "Ġahead": 3546,
      "My": 3547,
      "Ġdate": 3548,
      "Ġstage": 3549,
      "Ġoption": 3550,
      "Ġtitle": 3551,
      "Ġmoving": 3552,
      "Ġtoward": 3553,
      "Ġeyes": 3554,
      "Ġagency": 3555,
      "ĠAssoci": 3556,
      "ĠTexas": 3557,
      "Ġpassed": 3558,
      "Ġnature": 3559,
      "icient": 3560,
      "oes": 3561,
      "Ġorganization": 3562,
      "Ġdebate": 3563,
      "ĠRich": 3564,
      "ocked": 3565,
      "ĠII": 3566,
      "rief": 3567,
      "de": 3568,
      "Ġign": 3569,
      "Ġdrive": 3570,
      "olute": 3571,
      "Ġhelped": 3572,
      "Ġpresidential": 3573,
      "ĠServ": 3574,
      "Ġreligious": 3575,
      "ustr": 3576,
      "Ġconditions": 3577,
      "Ġfailed": 3578,
      "roy": 3579,
      "venue": 3580,
      "Ġhappy": 3581,
      "itness": 3582,
      "Ġsubst": 3583,
      "Ġcentury": 3584,
      "Ġbeginning": 3585,
      "ston": 3586,
      "ĠMex": 3587,
      "itation": 3588,
      "Ġfile": 3589,
      "Ġdevice": 3590,
      "rupt": 3591,
      "Ġfan": 3592,
      "Ġconference": 3593,
      "Ġscore": 3594,
      "Ġspending": 3595,
      "Ġpark": 3596,
      "ĠBo": 3597,
      "ĠNe": 3598,
      "Ġencour": 3599,
      "Ġcool": 3600,
      "ares": 3601,
      "omen": 3602,
      "Ġcrowd": 3603,
      "Ġcontribut": 3604,
      "Ġdeg": 3605,
      "ĠTor": 3606,
      "ampions": 3607,
      "Ġ>": 3608,
      "Ġdark": 3609,
      "Ġappears": 3610,
      "urance": 3611,
      "agon": 3612,
      "45": 3613,
      "Ġlimited": 3614,
      "Ġmeant": 3615,
      "Ġshown": 3616,
      "35": 3617,
      "ĠApple": 3618,
      "Ġdemonstr": 3619,
      "Ġrefer": 3620,
      "Ġband": 3621,
      "Ġaim": 3622,
      "chan": 3623,
      "Ġbal": 3624,
      "Ġ60": 3625,
      "ĠPlay": 3626,
      "Ġalleged": 3627,
      "Ġnecessary": 3628,
      "Ġmaybe": 3629,
      "Ġprec": 3630,
      "Ġblog": 3631,
      "ĠSyria": 3632,
      "Ġtour": 3633,
      "orks": 3634,
      "ivity": 3635,
      "Ġmyself": 3636,
      "berg": 3637,
      "wood": 3638,
      "Ġstra": 3639,
      "ĠOf": 3640,
      "ĠJack": 3641,
      "Ġestim": 3642,
      "just": 3643,
      "more": 3644,
      "Ġnote": 3645,
      "ufact": 3646,
      "Ġcitizens": 3647,
      "Ġmix": 3648,
      "Ġpowerful": 3649,
      "Ġexecutive": 3650,
      "Ġgrad": 3651,
      "Ġbattle": 3652,
      "enty": 3653,
      "ports": 3654,
      "Ġlargest": 3655,
      "Ġschools": 3656,
      "Ġtrust": 3657,
      "ĠHere": 3658,
      "27": 3659,
      "ĠGermany": 3660,
      "Ġaware": 3661,
      "Ġconfir": 3662,
      "Ġnuclear": 3663,
      "ĠEU": 3664,
      "ĠDay": 3665,
      "aint": 3666,
      "ĠRober": 3667,
      "Ġleague": 3668,
      "inn": 3669,
      "ĠDemocrats": 3670,
      "Ġarch": 3671,
      "Ġtwe": 3672,
      "Ġautom": 3673,
      "Ġbrain": 3674,
      "Ġsche": 3675,
      "ĠEnglish": 3676,
      "ĠTur": 3677,
      "Ġeventually": 3678,
      "Ġwall": 3679,
      "Ġpositive": 3680,
      "Ġcopy": 3681,
      "ĠSuper": 3682,
      "men": 3683,
      "OT": 3684,
      "Ġforced": 3685,
      "new": 3686,
      "rows": 3687,
      "Ġfeed": 3688,
      "orney": 3689,
      "ĠMart": 3690,
      "Ġfrequ": 3691,
      "Don": 3692,
      "encies": 3693,
      "Ġfeature": 3694,
      "29": 3695,
      "Ġyourself": 3696,
      "Ġdetail": 3697,
      "Ġstreng": 3698,
      "Ġfamilies": 3699,
      "Ġcandidate": 3700,
      "New": 3701,
      "Ġsal": 3702,
      "Ġdisp": 3703,
      "Ġgives": 3704,
      "yan": 3705,
      "pre": 3706,
      "EC": 3707,
      "Ġcrime": 3708,
      "Ġyes": 3709,
      "Ġcollege": 3710,
      "Ġanalysis": 3711,
      "Ġphysical": 3712,
      "Ġfollowed": 3713,
      "Ġrates": 3714,
      "ressed": 3715,
      "craft": 3716,
      "Ġbooks": 3717,
      "Ġweapons": 3718,
      "Ġcriminal": 3719,
      "ken": 3720,
      "Ġesc": 3721,
      "Ġcelebr": 3722,
      "Is": 3723,
      "Ġcompared": 3724,
      "Ġx": 3725,
      "Ġtouch": 3726,
      "Ġcrisis": 3727,
      "Ġpolitics": 3728,
      "Ġilleg": 3729,
      "Ġoverall": 3730,
      "ĠTH": 3731,
      "Ġcharge": 3732,
      "uing": 3733,
      "ĠEarth": 3734,
      "Be": 3735,
      "Ġuses": 3736,
      "aud": 3737,
      "Ġdecades": 3738,
      "ĠCap": 3739,
      "ĠBel": 3740,
      "ĠWell": 3741,
      "Ġallows": 3742,
      "Ġfirm": 3743,
      "Ġeasily": 3744,
      "Ġunique": 3745,
      "Ġnice": 3746,
      "ĠAir": 3747,
      "Ġvari": 3748,
      "ĠJer": 3749,
      "Ġactions": 3750,
      "Ġideas": 3751,
      "26": 3752,
      "owers": 3753,
      "iring": 3754,
      "Ġsenior": 3755,
      "Ġcentral": 3756,
      "cul": 3757,
      "Ġsigned": 3758,
      "Ġbenefits": 3759,
      "AD": 3760,
      "Ġsusp": 3761,
      "Ġindividuals": 3762,
      "Ġtruth": 3763,
      "By": 3764,
      "ĠDis": 3765,
      "Ġang": 3766,
      "Ġcontinues": 3767,
      "Ġspir": 3768,
      "lection": 3769,
      "Ġplant": 3770,
      "Ġtreatment": 3771,
      "ĠBen": 3772,
      "Ġdeveloped": 3773,
      "Ġpreviously": 3774,
      "According": 3775,
      "AP": 3776,
      "bum": 3777,
      "Ġcustomers": 3778,
      "Ġlif": 3779,
      "Ġpromot": 3780,
      "Ġcat": 3781,
      "band": 3782,
      "Ġ29": 3783,
      "Ġobserv": 3784,
      "rs": 3785,
      "oti": 3786,
      "Ġpus": 3787,
      "Pro": 3788,
      "lease": 3789,
      "Ġnoted": 3790,
      "Ġsmart": 3791,
      "Some": 3792,
      "Ġaltern": 3793,
      "Re": 3794,
      "Ġprojects": 3795,
      "Ġbrother": 3796,
      "ube": 3797,
      "Ġdoor": 3798,
      "Ġswe": 3799,
      "resh": 3800,
      "Ġpolicies": 3801,
      "ĠPolice": 3802,
      "icit": 3803,
      "Ġgoals": 3804,
      "Ð°": 3805,
      "21": 3806,
      "onents": 3807,
      "ĠGeorge": 3808,
      "itely": 3809,
      "ĠCouncil": 3810,
      "Ġappeared": 3811,
      "Un": 3812,
      "Ġspread": 3813,
      "Ġrap": 3814,
      "Ġreform": 3815,
      "Ġintelligence": 3816,
      "Ġvoice": 3817,
      "ean": 3818,
      "Ġcredit": 3819,
      "Advertisement": 3820,
      "Ġplaces": 3821,
      "ĠVal": 3822,
      "Ġexpand": 3823,
      "ero": 3824,
      "Ġpsych": 3825,
      "ease": 3826,
      "ĠInternational": 3827,
      "sey": 3828,
      "Ġminor": 3829,
      "Ġspot": 3830,
      "ĠGovern": 3831,
      "yl": 3832,
      "Ġadvant": 3833,
      "Ġconflic": 3834,
      "uty": 3835,
      "part": 3836,
      "ĠWind": 3837,
      "nown": 3838,
      "Ġreached": 3839,
      "Ġweb": 3840,
      "ĠTom": 3841,
      "Ġapparent": 3842,
      "Ġtraff": 3843,
      "Ġlines": 3844,
      "dom": 3845,
      "pen": 3846,
      "ĠAngel": 3847,
      "bon": 3848,
      "Ġsto": 3849,
      "IA": 3850,
      "board": 3851,
      "ĠSmith": 3852,
      "Ġcorrect": 3853,
      "Ġâ": 3854,
      "):": 3855,
      "Ġstraight": 3856,
      "Ġrelated": 3857,
      "Ġfighting": 3858,
      "Ġfully": 3859,
      "ĠUnion": 3860,
      "while": 3861,
      "Ġbeaut": 3862,
      "Ġgreen": 3863,
      "secut": 3864,
      "ET": 3865,
      "Ġdisplay": 3866,
      "Ġgrand": 3867,
      "Ġlarger": 3868,
      "Ġpatients": 3869,
      "Ġstudies": 3870,
      "riage": 3871,
      "Ġprem": 3872,
      "Ġhighly": 3873,
      "ĠFrench": 3874,
      "Ġlic": 3875,
      "orter": 3876,
      "Ġseemed": 3877,
      "Ġclearly": 3878,
      "ĠRob": 3879,
      "change": 3880,
      "28": 3881,
      "Ġprint": 3882,
      "Ġmeasure": 3883,
      "Ġemb": 3884,
      "Ġanaly": 3885,
      "ĠAustralia": 3886,
      "udd": 3887,
      "--------": 3888,
      "70": 3889,
      "Ġhar": 3890,
      "Ġgreater": 3891,
      "clus": 3892,
      "osh": 3893,
      "Ġcities": 3894,
      "Ġchallenge": 3895,
      "term": 3896,
      "Ġgold": 3897,
      "ĠAnt": 3898,
      "Ġfine": 3899,
      "Ġdrop": 3900,
      "ĠBrown": 3901,
      "Ġkept": 3902,
      "antly": 3903,
      "Ġrule": 3904,
      "Ġdraft": 3905,
      "que": 3906,
      "mar": 3907,
      "Ġsuccessful": 3908,
      "Ġmanufact": 3909,
      "....": 3910,
      "Ġsales": 3911,
      "iced": 3912,
      "ĠMac": 3913,
      "ategy": 3914,
      "Ġknowledge": 3915,
      "Ġattract": 3916,
      "oles": 3917,
      "Ġincident": 3918,
      "Ġspend": 3919,
      "oday": 3920,
      "100": 3921,
      "Ġactivity": 3922,
      "Ġresources": 3923,
      "Ġowners": 3924,
      "Ġpeace": 3925,
      "Ġfa": 3926,
      "Ġsources": 3927,
      "OM": 3928,
      "Ġminister": 3929,
      "ĠEvery": 3930,
      "Ġcaused": 3931,
      "Ġ2007": 3932,
      "roll": 3933,
      "Ġknows": 3934,
      "Ġintegr": 3935,
      "Ġstatus": 3936,
      "Ġbeat": 3937,
      "olic": 3938,
      "ĠFlor": 3939,
      "Ġstyle": 3940,
      "Ġhaven": 3941,
      "Ġcalling": 3942,
      "Ġmist": 3943,
      "ID": 3944,
      "box": 3945,
      "iverse": 3946,
      "Ġrare": 3947,
      "ĠChristian": 3948,
      "iled": 3949,
      "Ġcolor": 3950,
      "Ġfemale": 3951,
      "Ġhospital": 3952,
      "Ġcharges": 3953,
      "Ġprograms": 3954,
      "ĠFranc": 3955,
      "Ġorganiz": 3956,
      "Ġshooting": 3957,
      "Ġliter": 3958,
      "ĠHigh": 3959,
      "wide": 3960,
      "Ġended": 3961,
      "uman": 3962,
      "Ġleaving": 3963,
      "Ġagreement": 3964,
      "Ġprimary": 3965,
      "ãĤ": 3966,
      "iders": 3967,
      "Ġimpl": 3968,
      "Ġenforce": 3969,
      "Ġfeet": 3970,
      "Ġsend": 3971,
      "ĠFrom": 3972,
      "alse": 3973,
      "ocks": 3974,
      "Ġrise": 3975,
      "ĠBer": 3976,
      "Ġlaun": 3977,
      "Ġadding": 3978,
      "Ġoptions": 3979,
      "ki": 3980,
      "Ġemot": 3981,
      "Ġnormal": 3982,
      "ĠHam": 3983,
      "Ġlik": 3984,
      "Ġsave": 3985,
      "Ġclaimed": 3986,
      "Ġtrou": 3987,
      "Ġregular": 3988,
      "Ġemployees": 3989,
      "ava": 3990,
      ".âĢĻ": 3991,
      "ounds": 3992,
      "ingly": 3993,
      "Ġbasic": 3994,
      "Ġwhatever": 3995,
      "Ġpush": 3996,
      "Ġconcerns": 3997,
      "Ġcry": 3998,
      "Ġmanager": 3999,
      "ribution": 4000,
      "ĠGeneral": 4001,
      "ĠComp": 4002,
      "Ġtraditional": 4003,
      "see": 4004,
      "ifying": 4005,
      "iance": 4006,
      "ĠBit": 4007,
      "Ġjudge": 4008,
      "Ġprices": 4009,
      "ado": 4010,
      "SA": 4011,
      "Ġtemper": 4012,
      "agn": 4013,
      "Ġreflect": 4014,
      "ya": 4015,
      "Ġresearchers": 4016,
      "ĠBre": 4017,
      "ength": 4018,
      "Ġauthorities": 4019,
      "Ġadop": 4020,
      "Ġactual": 4021,
      "Ġseeing": 4022,
      "Ġslight": 4023,
      "lick": 4024,
      "Ġenem": 4025,
      "Ġsupposed": 4026,
      "Ġpun": 4027,
      "icago": 4028,
      "Ġfunding": 4029,
      "Ġbirth": 4030,
      "ĠScott": 4031,
      "Ġshut": 4032,
      "Ġcreating": 4033,
      "Not": 4034,
      "ĠBush": 4035,
      "Ð¾": 4036,
      "Con": 4037,
      "olf": 4038,
      "Ġmostly": 4039,
      "Ġabsolute": 4040,
      "Ġvac": 4041,
      "Ġhappens": 4042,
      "mark": 4043,
      "EO": 4044,
      "Ġraised": 4045,
      "vest": 4046,
      "etic": 4047,
      "Ar": 4048,
      "Ġstation": 4049,
      "ĠLou": 4050,
      "ĠMo": 4051,
      "earch": 4052,
      "ĠMost": 4053,
      "Ġensure": 4054,
      "Ġir": 4055,
      "ĠRec": 4056,
      "ront": 4057,
      "ĠÃ": 4058,
      "Ġnames": 4059,
      "Ġjump": 4060,
      "ĠArab": 4061,
      "Ġwait": 4062,
      "Ġalbum": 4063,
      "ĠDef": 4064,
      "Ġproduce": 4065,
      "Ġmassive": 4066,
      "gen": 4067,
      "Ġfeeling": 4068,
      "Ġdetermin": 4069,
      "Ġdistrict": 4070,
      "ĠGold": 4071,
      "Ġteac": 4072,
      "vere": 4073,
      "onent": 4074,
      "Ġmechan": 4075,
      "ĠUp": 4076,
      "ram": 4077,
      "ĠTrans": 4078,
      "Ġfreedom": 4079,
      "Ġweekend": 4080,
      "Ġeye": 4081,
      "Ġcommit": 4082,
      "ĠAccording": 4083,
      "ĠLet": 4084,
      "spect": 4085,
      "Ġvalues": 4086,
      "Ġscen": 4087,
      "Ġchoose": 4088,
      "Ġbehavior": 4089,
      "Ġacqu": 4090,
      "Sc": 4091,
      "rial": 4092,
      "Ġoffered": 4093,
      "ota": 4094,
      "Here": 4095,
      "ĠInternet": 4096,
      "ĠAlex": 4097,
      "Ġrestr": 4098,
      "Ġpropos": 4099,
      "Ġcommer": 4100,
      ".'": 4101,
      "Ġdebt": 4102,
      "Ġwonder": 4103,
      "90": 4104,
      "Ġbeg": 4105,
      "ĠFlorida": 4106,
      "ĠHealth": 4107,
      "Ġstreet": 4108,
      "ville": 4109,
      "Ġrevealed": 4110,
      "Ġarm": 4111,
      "ĠFrance": 4112,
      "org": 4113,
      "Ġmission": 4114,
      "ING": 4115,
      "Ġarrested": 4116,
      "Ġwhom": 4117,
      "Ġrank": 4118,
      "ĠEngland": 4119,
      "Ġappl": 4120,
      "Ġwild": 4121,
      "Ġbelieved": 4122,
      "Ġresidents": 4123,
      "Ġstrategy": 4124,
      "ae": 4125,
      "500": 4126,
      "istry": 4127,
      "Ġdevices": 4128,
      "Ðµ": 4129,
      "igned": 4130,
      "Ġqual": 4131,
      "ĠReg": 4132,
      "Ġadult": 4133,
      "icial": 4134,
      "uild": 4135,
      "inger": 4136,
      "Ġdrink": 4137,
      "33": 4138,
      "Ġperm": 4139,
      "Ġwilling": 4140,
      "Ġindependent": 4141,
      "Ġenter": 4142,
      "Ġtick": 4143,
      "ica": 4144,
      "Ġhero": 4145,
      "Ġagreed": 4146,
      "Ġspecies": 4147,
      "Ġconfirmed": 4148,
      "Ġbrief": 4149,
      "well": 4150,
      "âĢĿ,": 4151,
      "Ġlawy": 4152,
      "ias": 4153,
      "ags": 4154,
      "Ġtend": 4155,
      "ords": 4156,
      "Ġinvestment": 4157,
      "Ġposted": 4158,
      "Ġchem": 4159,
      "Ġinstall": 4160,
      "Ġcars": 4161,
      "Ġdollars": 4162,
      "Ġinfluence": 4163,
      "uana": 4164,
      "ona": 4165,
      "Ġpicture": 4166,
      "Ġproduced": 4167,
      "Ġmemory": 4168,
      "itude": 4169,
      "acing": 4170,
      "ĠLa": 4171,
      "Ġrecords": 4172,
      "Ġparties": 4173,
      "pri": 4174,
      "ĠCommission": 4175,
      "Ġimages": 4176,
      "Ġetc": 4177,
      "Ġlearned": 4178,
      "ĠSun": 4179,
      "Ġvirt": 4180,
      "aked": 4181,
      "roid": 4182,
      "Ġapplication": 4183,
      "ĠLaw": 4184,
      "orial": 4185,
      "Ġeth": 4186,
      "Ġoperations": 4187,
      "ĠHillary": 4188,
      "ĠStud": 4189,
      "Ġthrow": 4190,
      "Ġnegoti": 4191,
      "ĠPress": 4192,
      "ĠPeople": 4193,
      "Ġtrial": 4194,
      "Ġmount": 4195,
      "rol": 4196,
      "Ġlose": 4197,
      "aby": 4198,
      "ties": 4199,
      "rian": 4200,
      "Ġmer": 4201,
      "ĠBay": 4202,
      "Ġfat": 4203,
      "Ġfavorite": 4204,
      "icians": 4205,
      "cher": 4206,
      "Ġshowing": 4207,
      "ĠOther": 4208,
      "ĠSecret": 4209,
      "Ġadvoc": 4210,
      "Ġwat": 4211,
      "Ġopposition": 4212,
      "Ġinterested": 4213,
      "estic": 4214,
      "Ġship": 4215,
      "Ġsleep": 4216,
      "Ġbenefit": 4217,
      "bert": 4218,
      "www": 4219,
      "Cl": 4220,
      "Ġdire": 4221,
      "Ġasking": 4222,
      "Ġcru": 4223,
      "ĠSanders": 4224,
      "ĠAP": 4225,
      "Ġsection": 4226,
      "Ġprovides": 4227,
      "Ġdigital": 4228,
      "Ġeffective": 4229,
      "Ġcoal": 4230,
      "Ġassault": 4231,
      "Ex": 4232,
      "ĠVir": 4233,
      "Ġcritical": 4234,
      "ĠWestern": 4235,
      "Ġneighbor": 4236,
      "ste": 4237,
      "ection": 4238,
      "ented": 4239,
      "Ġbrand": 4240,
      "Ġworse": 4241,
      "Ġweight": 4242,
      "Ġreplace": 4243,
      "Ġsurround": 4244,
      "Ġruns": 4245,
      "ĠLiber": 4246,
      "ĠPhil": 4247,
      "Ġchair": 4248,
      "Ġmale": 4249,
      "EL": 4250,
      "However": 4251,
      "ĠWhy": 4252,
      "outhern": 4253,
      "Ġmur": 4254,
      "mine": 4255,
      "ĠMod": 4256,
      "ĠBecause": 4257,
      "cell": 4258,
      "ĠChicago": 4259,
      "cont": 4260,
      "ĠCommittee": 4261,
      "no": 4262,
      "ription": 4263,
      "Ġdefend": 4264,
      "Ġsolution": 4265,
      "Ġrat": 4266,
      "ĠNFL": 4267,
      "ĠBank": 4268,
      "cience": 4269,
      "Ġborder": 4270,
      "ĠSam": 4271,
      "rav": 4272,
      "Ġexplained": 4273,
      "Ġpattern": 4274,
      "Ġresponsible": 4275,
      "Ġtheory": 4276,
      "Ġvill": 4277,
      "Ġgenerally": 4278,
      "ĠOh": 4279,
      "Ġonto": 4280,
      "Ġlimit": 4281,
      "point": 4282,
      "lands": 4283,
      "Ġcore": 4284,
      "Ġcoverage": 4285,
      "vant": 4286,
      "otten": 4287,
      "Ġbottom": 4288,
      "44": 4289,
      "rey": 4290,
      "ĠDel": 4291,
      "Ġnotice": 4292,
      "Ġice": 4293,
      "Ġthus": 4294,
      "coming": 4295,
      "Ġoccas": 4296,
      "Ġlearning": 4297,
      "Ġadvantage": 4298,
      "ĠPalest": 4299,
      "Ġunderstanding": 4300,
      "ĠCanadian": 4301,
      "Ġbur": 4302,
      "Ġkick": 4303,
      "liament": 4304,
      "ijuana": 4305,
      "ĠCup": 4306,
      "ST": 4307,
      "ĠMedic": 4308,
      "illing": 4309,
      "ĠPort": 4310,
      "ocr": 4311,
      "Ġtypes": 4312,
      "ĠRo": 4313,
      "!!!!!!!!": 4314,
      "IL": 4315,
      "ĠFrancis": 4316,
      "Ġmillions": 4317,
      "Ġpartners": 4318,
      "orthern": 4319,
      "Ġheavy": 4320,
      "These": 4321,
      "Ġhighest": 4322,
      "Ġopening": 4323,
      "Ġbecoming": 4324,
      "Ġobtain": 4325,
      "ĠJustice": 4326,
      "Ġreject": 4327,
      "Ġoffers": 4328,
      "soft": 4329,
      "Ġopinion": 4330,
      "Ġ80": 4331,
      "ĠOur": 4332,
      "ictions": 4333,
      "win": 4334,
      "Ġdefe": 4335,
      "Ġepisode": 4336,
      "orrow": 4337,
      "Ġseparate": 4338,
      "ĠFrank": 4339,
      "Ġbasis": 4340,
      "Ġbecomes": 4341,
      "0000": 4342,
      "Ġjoin": 4343,
      "Ġcondition": 4344,
      "Ġunlike": 4345,
      "Ġteach": 4346,
      "ĠMal": 4347,
      "ada": 4348,
      "Ġresist": 4349,
      "Ġwinning": 4350,
      "Ġproposed": 4351,
      "Ġtrain": 4352,
      "Ġdaily": 4353,
      "icip": 4354,
      "ĠLab": 4355,
      "oly": 4356,
      "Ġspl": 4357,
      "ading": 4358,
      "GB": 4359,
      "Ġstated": 4360,
      "36": 4361,
      "Ġtransfer": 4362,
      "Ġannounce": 4363,
      "Ġdestroy": 4364,
      "Ġachieve": 4365,
      "Ġserved": 4366,
      "Ġlegislation": 4367,
      "Ġhundreds": 4368,
      "Ġextremely": 4369,
      "Ġassum": 4370,
      "Ġmarriage": 4371,
      "ĠSecurity": 4372,
      "Ġhearing": 4373,
      "azing": 4374,
      "Ġserve": 4375,
      "Ġtelevision": 4376,
      "Mr": 4377,
      "Ġcancer": 4378,
      "ios": 4379,
      "ghan": 4380,
      "inate": 4381,
      "omas": 4382,
      "Ġnegative": 4383,
      "Ġaspect": 4384,
      "Ġbed": 4385,
      "Ġhttp": 4386,
      "Ġcateg": 4387,
      "la": 4388,
      "Ġreduce": 4389,
      "iller": 4390,
      "atically": 4391,
      "Ġfit": 4392,
      "Ġstructure": 4393,
      "Ġcamera": 4394,
      "Get": 4395,
      "ĠMike": 4396,
      "eline": 4397,
      "Ġillegal": 4398,
      "Ġincred": 4399,
      "Ġmiles": 4400,
      "ĠOffice": 4401,
      "ih": 4402,
      "Ġran": 4403,
      "andon": 4404,
      "Ġstrik": 4405,
      "Ġpurpose": 4406,
      "ĠWall": 4407,
      "Ġmanagement": 4408,
      "Ġputting": 4409,
      "imb": 4410,
      "Ġinitial": 4411,
      "Ġborn": 4412,
      "Ġreturned": 4413,
      "Ġnine": 4414,
      "Ġshared": 4415,
      "Ġactive": 4416,
      "ĠMil": 4417,
      "Ġeasier": 4418,
      "OU": 4419,
      "zen": 4420,
      "Ġamb": 4421,
      "Ġphoto": 4422,
      "ĠCr": 4423,
      "za": 4424,
      "ĠOver": 4425,
      "ĠFound": 4426,
      "Ġappeal": 4427,
      "uries": 4428,
      "Ġopened": 4429,
      "ĠKorea": 4430,
      "Ġcontrovers": 4431,
      "house": 4432,
      "Ġhack": 4433,
      "Ġinsurance": 4434,
      "Ġsupported": 4435,
      "37": 4436,
      "acity": 4437,
      "Ġassociated": 4438,
      "ĠHall": 4439,
      "Ġdriver": 4440,
      "ĠMany": 4441,
      "Ġtraffic": 4442,
      "ĠYour": 4443,
      "Ġlabor": 4444,
      "ulf": 4445,
      "Ġprofessional": 4446,
      "Ġbomb": 4447,
      "Ġinternet": 4448,
      "iliar": 4449,
      "Ġchurch": 4450,
      "Ġsolid": 4451,
      "krain": 4452,
      "known": 4453,
      "Ġharm": 4454,
      "Ġ31": 4455,
      "Ġdocuments": 4456,
      "Ġinstance": 4457,
      "FC": 4458,
      "Ġmicro": 4459,
      "Ġexisting": 4460,
      "Ġload": 4461,
      "ĠUN": 4462,
      "ĠTer": 4463,
      "ipe": 4464,
      "32": 4465,
      "Ġvs": 4466,
      "Ġaccused": 4467,
      "Ġmap": 4468,
      "Ġnotes": 4469,
      "Ġsupporters": 4470,
      "ĠCommun": 4471,
      "rig": 4472,
      "Ġder": 4473,
      "Ġaudience": 4474,
      "ĠInc": 4475,
      "Ġdism": 4476,
      "Ġmachine": 4477,
      "ipped": 4478,
      "OL": 4479,
      "level": 4480,
      "ãĥ": 4481,
      "spe": 4482,
      "55": 4483,
      "ortunately": 4484,
      "Ġscientists": 4485,
      "Ġlocation": 4486,
      "Ġcards": 4487,
      "Ġissued": 4488,
      "Ġbelief": 4489,
      "Ġcells": 4490,
      "Ġspoke": 4491,
      "ĠAM": 4492,
      "going": 4493,
      "Ġdepartment": 4494,
      "do": 4495,
      "âĢ¢": 4496,
      "ĠSup": 4497,
      "Ġsun": 4498,
      "Ġfresh": 4499,
      "ography": 4500,
      "Ġdoubt": 4501,
      "Ġdaughter": 4502,
      "Ġexplain": 4503,
      "Ġvictory": 4504,
      "ugg": 4505,
      "Ġargument": 4506,
      "Ġanimals": 4507,
      "ĠGreat": 4508,
      "ĠTre": 4509,
      "Ġfloor": 4510,
      "Ġfalse": 4511,
      "ĠAtt": 4512,
      "Ġcharged": 4513,
      "Ġfaith": 4514,
      "Ġvehicle": 4515,
      "istics": 4516,
      "Ġdouble": 4517,
      "ĠBritain": 4518,
      "lor": 4519,
      "Ġwatching": 4520,
      "ĠFBI": 4521,
      "Ġwealth": 4522,
      "iful": 4523,
      "Ġ2006": 4524,
      "Ġ90": 4525,
      "Ġelectric": 4526,
      "works": 4527,
      "ĠMicro": 4528,
      "Ġvictims": 4529,
      "BA": 4530,
      "ĠChurch": 4531,
      "Ġcommunities": 4532,
      "Ġdangerous": 4533,
      "SP": 4534,
      "Ġjoined": 4535,
      "itable": 4536,
      "ĠKh": 4537,
      "Ġrepeated": 4538,
      "ĠArt": 4539,
      "________": 4540,
      "Ġcomfort": 4541,
      "ĠEv": 4542,
      "Ġentirely": 4543,
      "ĠInstitute": 4544,
      "Ġleadership": 4545,
      "Ġenforcement": 4546,
      "aks": 4547,
      "gers": 4548,
      "TC": 4549,
      "Ġrefere": 4550,
      "ĠGet": 4551,
      "Ġsites": 4552,
      "Ġconstruction": 4553,
      "witch": 4554,
      "ĠSince": 4555,
      "ibrary": 4556,
      "Ġded": 4557,
      "Ġconservative": 4558,
      "Ġnor": 4559,
      "ander": 4560,
      "azon": 4561,
      "Ġitems": 4562,
      "48": 4563,
      "Ġconcerned": 4564,
      "Ġclosed": 4565,
      "Ġphotos": 4566,
      "NA": 4567,
      "inct": 4568,
      "ĠUs": 4569,
      "Ġholding": 4570,
      "ĠWil": 4571,
      "odes": 4572,
      "Ġdefinitely": 4573,
      "Ġcommittee": 4574,
      "equ": 4575,
      "ĠWindows": 4576,
      "Bl": 4577,
      "Ġmax": 4578,
      "Ġfinding": 4579,
      "anted": 4580,
      "ears": 4581,
      "Ġexperiment": 4582,
      "Ġ35": 4583,
      "Ġrequires": 4584,
      "Ġhousing": 4585,
      "ĠChris": 4586,
      "Ġdecade": 4587,
      "Ġcompetition": 4588,
      "Ġtools": 4589,
      "38": 4590,
      "ĠRobert": 4591,
      "Ġviews": 4592,
      "Ġtrend": 4593,
      "ctors": 4594,
      "Ġhair": 4595,
      "ĠVirgin": 4596,
      "Ġbelieves": 4597,
      "Ġnovel": 4598,
      "Ġbanks": 4599,
      "ĠFin": 4600,
      "ishment": 4601,
      "ĠGame": 4602,
      "Ġplanning": 4603,
      "Ġdriving": 4604,
      "Ġradio": 4605,
      "Ġlaunched": 4606,
      "Ġcompar": 4607,
      "iling": 4608,
      "ĠIsraeli": 4609,
      "gency": 4610,
      "ĠJohnson": 4611,
      "ribute": 4612,
      "Ġcommercial": 4613,
      "ource": 4614,
      "Ġcash": 4615,
      "ĠDirect": 4616,
      "ĠLike": 4617,
      "Ġsmaller": 4618,
      "Ġnorth": 4619,
      "ĠMag": 4620,
      "ĠSal": 4621,
      "Ġunit": 4622,
      "ĠLos": 4623,
      "Ġframe": 4624,
      "ĠGree": 4625,
      "Ġbackground": 4626,
      "Americ": 4627,
      "tered": 4628,
      "âĢĶâĢĶâĢĶâĢĶ": 4629,
      "Ġhus": 4630,
      "iation": 4631,
      "itz": 4632,
      "Ġdownload": 4633,
      "Ġplease": 4634,
      "ey": 4635,
      "Ġsurface": 4636,
      "nel": 4637,
      "Ġjustice": 4638,
      "Ġattend": 4639,
      "which": 4640,
      "ĠAfghan": 4641,
      "night": 4642,
      "ĠMad": 4643,
      "Ġwitness": 4644,
      "Ġgeneration": 4645,
      "Ġstock": 4646,
      "Ġwel": 4647,
      "!âĢĿ": 4648,
      "Ġsuggested": 4649,
      "Ġrestaur": 4650,
      "Ġeat": 4651,
      "ĠMiss": 4652,
      "ĠCarol": 4653,
      "47": 4654,
      "oms": 4655,
      "Ġbusinesses": 4656,
      "Ġannual": 4657,
      "Ġdiscovered": 4658,
      "Ġafford": 4659,
      "Ġtelling": 4660,
      "Ġdirection": 4661,
      "ĠBig": 4662,
      "ĠUkrain": 4663,
      "htt": 4664,
      "ĠPM": 4665,
      "Ġtruly": 4666,
      "urb": 4667,
      "ĠQue": 4668,
      "ĠPri": 4669,
      "resp": 4670,
      "Ġdrugs": 4671,
      "Ġrough": 4672,
      "ampionship": 4673,
      "Ġplays": 4674,
      "Ġworst": 4675,
      "Ġcontain": 4676,
      "Ġguess": 4677,
      "Ġallowing": 4678,
      "isation": 4679,
      "ĠMP": 4680,
      "Ġspirit": 4681,
      "rad": 4682,
      "Ġoccup": 4683,
      "Ġconcern": 4684,
      "Ġtim": 4685,
      "Ġ70": 4686,
      "Ġlargely": 4687,
      "Ġcaught": 4688,
      "Ġmurder": 4689,
      "Ġblue": 4690,
      "ici": 4691,
      "ĠTy": 4692,
      "Ġphil": 4693,
      "ribe": 4694,
      "owl": 4695,
      "ĠLouis": 4696,
      "how": 4697,
      "ario": 4698,
      "ĠAssociation": 4699,
      "Ġpresence": 4700,
      "Ġtransport": 4701,
      "ipp": 4702,
      "Ġuseful": 4703,
      "Ġ2005": 4704,
      "Ġcontext": 4705,
      "phone": 4706,
      "Ġolder": 4707,
      "Ġmissing": 4708,
      "Ġsan": 4709,
      "Ġraise": 4710,
      "ait": 4711,
      "actions": 4712,
      "NN": 4713,
      "Ġge": 4714,
      "ĠMer": 4715,
      "ĠFox": 4716,
      "Ġhomes": 4717,
      "but": 4718,
      "ĠAdd": 4719,
      "hem": 4720,
      "Ġlength": 4721,
      "izes": 4722,
      "ĠMexico": 4723,
      "ĠIslamic": 4724,
      "ĠPC": 4725,
      "arant": 4726,
      "49": 4727,
      "ĠSupreme": 4728,
      "Ġmobile": 4729,
      "oman": 4730,
      "ĠAre": 4731,
      "ĠGroup": 4732,
      "ossible": 4733,
      "Ġstrength": 4734,
      "39": 4735,
      "Ġbul": 4736,
      "Ġconsequ": 4737,
      "****": 4738,
      "ĠSil": 4739,
      "Ġdie": 4740,
      "More": 4741,
      "overy": 4742,
      "Ġestablished": 4743,
      "ĠLeg": 4744,
      "anging": 4745,
      "Ġrecommend": 4746,
      "ancy": 4747,
      "Ġcook": 4748,
      "icy": 4749,
      "Ġkid": 4750,
      "ulated": 4751,
      "Ġplaced": 4752,
      "Ġfarm": 4753,
      "annel": 4754,
      "Ġstrateg": 4755,
      "EM": 4756,
      "vention": 4757,
      "Ġowner": 4758,
      "ĠAc": 4759,
      "Ġscale": 4760,
      "Ġcandidates": 4761,
      "lant": 4762,
      "CC": 4763,
      "Ġwaiting": 4764,
      "what": 4765,
      "Ġfuel": 4766,
      "Ġactivities": 4767,
      "ius": 4768,
      "Ġaward": 4769,
      "Ġmarijuana": 4770,
      "Ġcrew": 4771,
      "apped": 4772,
      "ĠArmy": 4773,
      "ference": 4774,
      "Ġtesting": 4775,
      "Ġearth": 4776,
      "Ġfunds": 4777,
      "hi": 4778,
      "adium": 4779,
      "iable": 4780,
      "Ġmentioned": 4781,
      "Des": 4782,
      "Ġcatch": 4783,
      "ĠVer": 4784,
      "oyal": 4785,
      "Ġproviding": 4786,
      "onto": 4787,
      "âĢĺ": 4788,
      "Ġoffensive": 4789,
      "Ġaccur": 4790,
      "Ġconversation": 4791,
      "wing": 4792,
      "ĠSur": 4793,
      "bour": 4794,
      "Ġgay": 4795,
      "fe": 4796,
      "Ġfigh": 4797,
      "Ġgirls": 4798,
      "azine": 4799,
      "Ġdeliver": 4800,
      "oted": 4801,
      "Ġdisease": 4802,
      "ĠInstead": 4803,
      "Our": 4804,
      "Ġalleg": 4805,
      "Ġarrived": 4806,
      "Image": 4807,
      "Ġintroduced": 4808,
      "aven": 4809,
      "Ġtaxes": 4810,
      "kin": 4811,
      "osure": 4812,
      "Ġ2018": 4813,
      "igan": 4814,
      "Ġrelatively": 4815,
      "ception": 4816,
      "Ġstopped": 4817,
      "PA": 4818,
      "ĠJapanese": 4819,
      "Ġtells": 4820,
      "Ġaggress": 4821,
      "vered": 4822,
      "ĠJeff": 4823,
      "Ġspokesman": 4824,
      "asy": 4825,
      "Ġtask": 4826,
      "Ġiniti": 4827,
      "lege": 4828,
      "PS": 4829,
      "issions": 4830,
      "Ġdecisions": 4831,
      "cknow": 4832,
      "Ġconclud": 4833,
      "Ġconflict": 4834,
      "Ġskills": 4835,
      "mail": 4836,
      "ĠProf": 4837,
      "ĠAfrican": 4838,
      "Ġstrike": 4839,
      "real": 4840,
      "Ġexerc": 4841,
      "icon": 4842,
      "Ġupdate": 4843,
      "ests": 4844,
      "Ġidentified": 4845,
      "Photo": 4846,
      "ĠKen": 4847,
      "ĠMary": 4848,
      "eah": 4849,
      "Ġcommitted": 4850,
      "verse": 4851,
      "DA": 4852,
      "isf": 4853,
      "ĠStep": 4854,
      "Ġhighlight": 4855,
      "ĠAngeles": 4856,
      "Ġinterests": 4857,
      "ocracy": 4858,
      "rick": 4859,
      "andom": 4860,
      "ĠJim": 4861,
      "Ġ2000": 4862,
      "Ġmeasures": 4863,
      "Ġcircum": 4864,
      "ĠBitcoin": 4865,
      "ania": 4866,
      "ĠJones": 4867,
      "Ġfailure": 4868,
      "Ġfant": 4869,
      "Ġhasn": 4870,
      "ĠCEO": 4871,
      "ĠPalestin": 4872,
      "Ġdat": 4873,
      "Ġfle": 4874,
      "ication": 4875,
      "bre": 4876,
      "semb": 4877,
      "ĠMat": 4878,
      "Ġfeels": 4879,
      "Ġsequ": 4880,
      "Ġidentity": 4881,
      "illa": 4882,
      "Ġsteps": 4883,
      "ĠMont": 4884,
      "ĠRichard": 4885,
      "Ġmanaged": 4886,
      "Ġslightly": 4887,
      "CH": 4888,
      "ĠSl": 4889,
      "BS": 4890,
      "ĠAfrica": 4891,
      "Ġconnection": 4892,
      "ady": 4893,
      "inter": 4894,
      "ĠFore": 4895,
      "Ġsust": 4896,
      "kins": 4897,
      "Ġsetting": 4898,
      "ym": 4899,
      "Ġcommission": 4900,
      "Ġneighborhood": 4901,
      "gar": 4902,
      "cious": 4903,
      "ĠMet": 4904,
      "ups": 4905,
      "Ġnewsp": 4906,
      "Ġdetect": 4907,
      "ĠJud": 4908,
      "umn": 4909,
      "ucky": 4910,
      "ĠPak": 4911,
      "Ġplanned": 4912,
      "Ġremoved": 4913,
      "Ġappropri": 4914,
      "itutional": 4915,
      "ga": 4916,
      "ulate": 4917,
      "eless": 4918,
      "ĠGood": 4919,
      "ications": 4920,
      "ula": 4921,
      "place": 4922,
      "Ġobvious": 4923,
      "Ġtherefore": 4924,
      "78": 4925,
      "Ġstick": 4926,
      "Ġappoint": 4927,
      "ĠNor": 4928,
      "Ġotherwise": 4929,
      "Ã¡": 4930,
      "rency": 4931,
      "Ġfocused": 4932,
      "Ġprotection": 4933,
      "ronic": 4934,
      "Ġsurvey": 4935,
      "Ġcorner": 4936,
      "Ġplanet": 4937,
      "itect": 4938,
      "ĠRock": 4939,
      "ancing": 4940,
      "outs": 4941,
      "Ġkeeping": 4942,
      "Ġsouth": 4943,
      "rees": 4944,
      "Ġoperation": 4945,
      "ĠThomas": 4946,
      "enses": 4947,
      "!\"": 4948,
      "34": 4949,
      "cks": 4950,
      "lig": 4951,
      "gypt": 4952,
      "ĠTim": 4953,
      "Ġsupply": 4954,
      "Ġheat": 4955,
      "Ġroll": 4956,
      "dden": 4957,
      "Ġrefuge": 4958,
      "abb": 4959,
      "ocal": 4960,
      "ĠSub": 4961,
      "Ġbeer": 4962,
      "Ġtough": 4963,
      "suit": 4964,
      "Ġfourth": 4965,
      "Ġmere": 4966,
      "mas": 4967,
      "with": 4968,
      "Ġflight": 4969,
      "Ġgraph": 4970,
      "uct": 4971,
      "gu": 4972,
      "Ġpet": 4973,
      "Ġunits": 4974,
      "Ġsuggests": 4975,
      "Ġacknow": 4976,
      "Ġpartner": 4977,
      "ĠAlthough": 4978,
      "Ġdepend": 4979,
      "Ġaccounts": 4980,
      "Ġhusband": 4981,
      "ĠPre": 4982,
      "olly": 4983,
      "Ġassess": 4984,
      "Ġnone": 4985,
      "odies": 4986,
      "Ġfamiliar": 4987,
      "Ġdiscussion": 4988,
      "Ġstandards": 4989,
      "uke": 4990,
      "hedul": 4991,
      "Ġspect": 4992,
      "Ġtransform": 4993,
      "ĠTeam": 4994,
      "Ġkilling": 4995,
      "Ġfigures": 4996,
      "makers": 4997,
      "iser": 4998,
      "ĠConst": 4999,
      "Ġmodels": 5000,
      "Ġdefensive": 5001,
      "Ġtalks": 5002,
      "ils": 5003,
      "Ġprefer": 5004,
      "Why": 5005,
      "ka": 5006,
      "ĠGOP": 5007,
      "aren": 5008,
      "Ġdecide": 5009,
      "ĠJewish": 5010,
      "Ġsubsc": 5011,
      "Ġinjury": 5012,
      "range": 5013,
      "ano": 5014,
      "onym": 5015,
      "RA": 5016,
      "Ġterrit": 5017,
      "Ġexchange": 5018,
      "Ġseconds": 5019,
      "Ġclick": 5020,
      "ĠFed": 5021,
      "Ġremind": 5022,
      "Ġenvironmental": 5023,
      "Ġprofessor": 5024,
      "ansion": 5025,
      "].": 5026,
      "den": 5027,
      "ĠSyrian": 5028,
      "Ġweak": 5029,
      "Ġskin": 5030,
      "Ġhappening": 5031,
      "Ġforest": 5032,
      "Ġwish": 5033,
      "ĠSecretary": 5034,
      "ĠMartin": 5035,
      "aded": 5036,
      "Ġanimal": 5037,
      "Ġsudden": 5038,
      "Ġorganizations": 5039,
      "Ġtests": 5040,
      "Ġdropped": 5041,
      "ortion": 5042,
      "ĠResearch": 5043,
      "Ġrich": 5044,
      "ĠService": 5045,
      "season": 5046,
      "64": 5047,
      "amm": 5048,
      "uters": 5049,
      "Ġshall": 5050,
      "Ġamazing": 5051,
      "Ġguard": 5052,
      "Ġveter": 5053,
      "Ġfiles": 5054,
      "ynam": 5055,
      "ĠGovernment": 5056,
      "Ġprinc": 5057,
      "Ġspeaking": 5058,
      "Ġreligion": 5059,
      "ĠRyan": 5060,
      "Ġelements": 5061,
      "Ġhelping": 5062,
      "acks": 5063,
      "Ġ32": 5064,
      "Ġfinished": 5065,
      "Ġtrip": 5066,
      "Ġabuse": 5067,
      "ĠInter": 5068,
      "erous": 5069,
      "Ġstanding": 5070,
      "ader": 5071,
      "prof": 5072,
      "Ġcollection": 5073,
      "oston": 5074,
      "arsh": 5075,
      "ĠJose": 5076,
      "Ġgain": 5077,
      "uate": 5078,
      "ĠCollege": 5079,
      "Ġsports": 5080,
      "Ġfellow": 5081,
      "Ġphilos": 5082,
      "Pl": 5083,
      "met": 5084,
      "Ġmulti": 5085,
      "Ġfiled": 5086,
      "Ġdomestic": 5087,
      "Ġimmigration": 5088,
      "Ġcarried": 5089,
      "Ġscientific": 5090,
      "net": 5091,
      "Ġtweet": 5092,
      "Ġagencies": 5093,
      "Ġbigger": 5094,
      "reci": 5095,
      "Ġstruct": 5096,
      "Ġthanks": 5097,
      "obby": 5098,
      "Ġvariety": 5099,
      "Ġacadem": 5100,
      "ĠBur": 5101,
      "Ġsides": 5102,
      "Ã¤": 5103,
      "Ġmigr": 5104,
      "Ġmental": 5105,
      "Ġturns": 5106,
      "AA": 5107,
      "awn": 5108,
      "Ġvast": 5109,
      "Ġstarts": 5110,
      "ĠTheir": 5111,
      "Ġlosing": 5112,
      "Ġschedul": 5113,
      "Ġdevelopers": 5114,
      "under": 5115,
      "war": 5116,
      "Ġimpossible": 5117,
      "Ġrevolution": 5118,
      "Ġhonest": 5119,
      "Ġtwice": 5120,
      "Ġtransl": 5121,
      "Ġcapacity": 5122,
      "ĠIr": 5123,
      "Trump": 5124,
      "ĠMicrosoft": 5125,
      "Ġcuts": 5126,
      "Ġalternative": 5127,
      "ĠBern": 5128,
      "hens": 5129,
      "agues": 5130,
      "Ġcold": 5131,
      "ĠST": 5132,
      "ĠAmazon": 5133,
      "Ġworry": 5134,
      "Ġcovered": 5135,
      "ĠTwo": 5136,
      "anda": 5137,
      "ĠOut": 5138,
      "Le": 5139,
      "ĠCentral": 5140,
      "ola": 5141,
      "Ġapply": 5142,
      "Ġsolar": 5143,
      "Ġuns": 5144,
      "Ġpaying": 5145,
      "state": 5146,
      "ĠCamp": 5147,
      "Ġmarkets": 5148,
      "Ġseeking": 5149,
      "Ġultimately": 5150,
      "Ġpair": 5151,
      "iams": 5152,
      "ĠPet": 5153,
      "Ġbalance": 5154,
      "Ġtast": 5155,
      "ĠPrime": 5156,
      "stream": 5157,
      "isher": 5158,
      "01": 5159,
      "Ġpresented": 5160,
      "Ġincreasingly": 5161,
      "icide": 5162,
      "Ġdin": 5163,
      "Ġreserv": 5164,
      "anche": 5165,
      "Ġdegree": 5166,
      "ĠVirginia": 5167,
      "stein": 5168,
      "Ġdeveloping": 5169,
      "Ġunless": 5170,
      "gn": 5171,
      "Ġhumans": 5172,
      "Ġmut": 5173,
      "Ġscript": 5174,
      "Ġarmy": 5175,
      "Ġoptim": 5176,
      "Up": 5177,
      "ĠSol": 5178,
      "65": 5179,
      "Go": 5180,
      "ĠOpen": 5181,
      "Ġscr": 5182,
      "Ġ195": 5183,
      "rastructure": 5184,
      "Ġequip": 5185,
      "Ð¸": 5186,
      "Ġcorporate": 5187,
      "Ġabsolutely": 5188,
      "ĠLat": 5189,
      "Ġexpensive": 5190,
      "ĠAlso": 5191,
      "Ġbatter": 5192,
      "Ġauthority": 5193,
      "Ġunivers": 5194,
      "Ġsoldiers": 5195,
      "Ġintended": 5196,
      "Ġvotes": 5197,
      "Ġchanging": 5198,
      "Last": 5199,
      "Ġfamous": 5200,
      "rd": 5201,
      "aine": 5202,
      "Ġsounds": 5203,
      "Ġfired": 5204,
      "75": 5205,
      "Ġimagine": 5206,
      "Ġapparently": 5207,
      "Ġpossibility": 5208,
      "Ġstreets": 5209,
      "Of": 5210,
      "Ġsitting": 5211,
      "Ġgar": 5212,
      "ĠEgypt": 5213,
      "ĠToronto": 5214,
      "isted": 5215,
      "edia": 5216,
      "Ġunion": 5217,
      "Ġpossibly": 5218,
      "Ġlived": 5219,
      "ĠAndroid": 5220,
      "arks": 5221,
      "Ġwindow": 5222,
      "ores": 5223,
      "pret": 5224,
      "ĠDistrict": 5225,
      "Ġvision": 5226,
      "Ġexpert": 5227,
      "ayer": 5228,
      "Ġbroke": 5229,
      "ashed": 5230,
      "Ġcouncil": 5231,
      "Ġtack": 5232,
      "enced": 5233,
      "Ġfundament": 5234,
      "Ġattorney": 5235,
      "ĠPublic": 5236,
      "apers": 5237,
      "ĠLast": 5238,
      "Ġque": 5239,
      "Ġconsult": 5240,
      "Ġhate": 5241,
      "ĠLee": 5242,
      "uration": 5243,
      "roud": 5244,
      "Ġelim": 5245,
      "Ġprospect": 5246,
      "Ġarms": 5247,
      "Ġregarding": 5248,
      "Ġinnov": 5249,
      "iot": 5250,
      "Ġcloser": 5251,
      "ĠFoundation": 5252,
      "ĠJoe": 5253,
      "Even": 5254,
      "ini": 5255,
      "ĠMass": 5256,
      "ĠPlan": 5257,
      "Ġoccurred": 5258,
      "cons": 5259,
      "Ġfactors": 5260,
      "Ġwriter": 5261,
      "lets": 5262,
      "rible": 5263,
      "Ġrapid": 5264,
      "Do": 5265,
      "ĠDen": 5266,
      "ruit": 5267,
      "inating": 5268,
      "ĠCarolina": 5269,
      "Ġruling": 5270,
      "Ġchemical": 5271,
      "66": 5272,
      "Ġhealthy": 5273,
      "Ġexperts": 5274,
      "ĠMiddle": 5275,
      "atures": 5276,
      "95": 5277,
      "Just": 5278,
      "Ġpieces": 5279,
      "ĠFrancisco": 5280,
      "Ġrid": 5281,
      "SS": 5282,
      "run": 5283,
      "that": 5284,
      "ĠDec": 5285,
      "olit": 5286,
      "Ġpil": 5287,
      "Ġapart": 5288,
      "vis": 5289,
      "Ġodd": 5290,
      "Ġbeautiful": 5291,
      "ĠJo": 5292,
      "Ġprime": 5293,
      "person": 5294,
      "Ġapplications": 5295,
      "ocol": 5296,
      "ologies": 5297,
      "Ġtroops": 5298,
      "ĠYes": 5299,
      "Ġ2004": 5300,
      "porary": 5301,
      "ĠAny": 5302,
      "look": 5303,
      "Ġrevenue": 5304,
      "ĠUnder": 5305,
      "Ġ45": 5306,
      "====": 5307,
      "DP": 5308,
      "ĠFire": 5309,
      "ĠJon": 5310,
      "ĠUSA": 5311,
      "ĠImages": 5312,
      "31": 5313,
      "Ġton": 5314,
      "ĠOnce": 5315,
      "Read": 5316,
      "pm": 5317,
      "osen": 5318,
      "Ġbroken": 5319,
      "uzz": 5320,
      "ours": 5321,
      "Ġequal": 5322,
      "ĠConserv": 5323,
      "ĠChief": 5324,
      "Ġinstit": 5325,
      "Ġstars": 5326,
      "Ġguarant": 5327,
      "Ġflow": 5328,
      "related": 5329,
      "Ġperspect": 5330,
      "IV": 5331,
      "Ġfif": 5332,
      "ĠJes": 5333,
      "Let": 5334,
      "rie": 5335,
      "Ġvul": 5336,
      "()": 5337,
      "Ġtourn": 5338,
      "Ġtrail": 5339,
      "Ġgender": 5340,
      "Ġsurprise": 5341,
      "Ġexclus": 5342,
      "Ġforms": 5343,
      "Ġoperating": 5344,
      "Ġprosecut": 5345,
      "ĠSocial": 5346,
      "hand": 5347,
      "Ġhelps": 5348,
      "uster": 5349,
      "ĠCath": 5350,
      "standing": 5351,
      "ĠRub": 5352,
      "ĠBoston": 5353,
      "Ġfol": 5354,
      "Ġestimated": 5355,
      "Ġseasons": 5356,
      "phas": 5357,
      "Ab": 5358,
      "Ġbought": 5359,
      "ĠGal": 5360,
      "ĠWeb": 5361,
      "ĠAri": 5362,
      "Ġdeploy": 5363,
      "och": 5364,
      "ĠSing": 5365,
      "Ġerror": 5366,
      "Ġminimum": 5367,
      "Ġbringing": 5368,
      "ressive": 5369,
      "Ġserver": 5370,
      "ĠFree": 5371,
      "ĠDuring": 5372,
      "Ġsale": 5373,
      "Ġadjust": 5374,
      "oving": 5375,
      "Ġelected": 5376,
      "Ġconvention": 5377,
      "rier": 5378,
      "Ġdetermine": 5379,
      "Ġconducted": 5380,
      "odd": 5381,
      "road": 5382,
      "alls": 5383,
      "From": 5384,
      "ĠFederal": 5385,
      "ĠThose": 5386,
      "class": 5387,
      "Ġprepared": 5388,
      "Ġpit": 5389,
      "Ġsecure": 5390,
      "Ġsport": 5391,
      "Ġinternal": 5392,
      "App": 5393,
      "LE": 5394,
      "ĠTime": 5395,
      "Ġvoted": 5396,
      "Ġspecifically": 5397,
      "Every": 5398,
      "Ġsch": 5399,
      "Ġvir": 5400,
      "Ġequipment": 5401,
      "oom": 5402,
      "Ġfra": 5403,
      "ĠGuard": 5404,
      "Ġplants": 5405,
      "idden": 5406,
      "col": 5407,
      "Ġid": 5408,
      "Ġbreat": 5409,
      "gl": 5410,
      "Ġgovernments": 5411,
      "ĠParis": 5412,
      "centr": 5413,
      "ĠBook": 5414,
      "arp": 5415,
      "Ġcarbon": 5416,
      "Ġstret": 5417,
      "Ġsymb": 5418,
      "ros": 5419,
      "Ġoffering": 5420,
      "Ġinsp": 5421,
      "Ġresponsibility": 5422,
      "ĠSpr": 5423,
      "Ġdram": 5424,
      "ĠAN": 5425,
      "Ġheav": 5426,
      "Ġrefused": 5427,
      "ĠSher": 5428,
      "Ġcas": 5429,
      "Ġappearance": 5430,
      "Ġvehicles": 5431,
      "Ġ;": 5432,
      "reens": 5433,
      "Äĥ": 5434,
      "terday": 5435,
      "Ġweren": 5436,
      "Ġweapon": 5437,
      "IG": 5438,
      "Ġremained": 5439,
      "Ġoriginally": 5440,
      "Ġregime": 5441,
      "Ġgreatest": 5442,
      "Ġera": 5443,
      "ĠWho": 5444,
      "Ġinfrastructure": 5445,
      "oty": 5446,
      "Ġsector": 5447,
      "ĠDan": 5448,
      "Ġmort": 5449,
      "asp": 5450,
      "Ġmaster": 5451,
      "olved": 5452,
      "Ġherself": 5453,
      "Ġplus": 5454,
      "Ġelections": 5455,
      "orage": 5456,
      "Ġpercentage": 5457,
      "Ġcombat": 5458,
      "Ġprivacy": 5459,
      "ĠPeter": 5460,
      "Ġsea": 5461,
      "Ġfaster": 5462,
      "Ġhurt": 5463,
      "Ġclin": 5464,
      "ĠAtlant": 5465,
      "clusion": 5466,
      "Ġproposal": 5467,
      "Ġaffected": 5468,
      "onom": 5469,
      "ocking": 5470,
      "noon": 5471,
      "Ġpages": 5472,
      "ĠRiver": 5473,
      "ĠFe": 5474,
      "Ġreduced": 5475,
      "Ġselling": 5476,
      "Ġshape": 5477,
      "Ġminute": 5478,
      "Ġprove": 5479,
      "ipping": 5480,
      "Ġshift": 5481,
      "Ġwidely": 5482,
      "IP": 5483,
      "Ġboost": 5484,
      "Ġinvolve": 5485,
      "Well": 5486,
      "ĠMel": 5487,
      "46": 5488,
      "yr": 5489,
      "Ġwearing": 5490,
      "Ġteen": 5491,
      "ION": 5492,
      "inent": 5493,
      "Ġhun": 5494,
      "Ġstress": 5495,
      "Ġchallenges": 5496,
      "Ġdepart": 5497,
      "life": 5498,
      "Ġproceed": 5499,
      "Ġfactor": 5500,
      "useum": 5501,
      "Ġpotentially": 5502,
      "Ġhandle": 5503,
      "HL": 5504,
      "Ġcriticism": 5505,
      "Ġtypically": 5506,
      "mosp": 5507,
      "Ġexpressed": 5508,
      ",âĢĻ": 5509,
      "Ġlocated": 5510,
      "ĠAustralian": 5511,
      "sen": 5512,
      "Ġtact": 5513,
      "ENT": 5514,
      "Ġtalked": 5515,
      "Ġexcited": 5516,
      "ruption": 5517,
      "Ġaccident": 5518,
      "Ġremove": 5519,
      "Ind": 5520,
      "Ġexperienced": 5521,
      "Ġcart": 5522,
      "ĠWilliams": 5523,
      "Ġjail": 5524,
      "Ġpredict": 5525,
      "Ġpoliticians": 5526,
      "Ġplenty": 5527,
      "auc": 5528,
      "OW": 5529,
      "Ġbound": 5530,
      "Ġ1990": 5531,
      "##": 5532,
      "ĠJournal": 5533,
      "Ġobviously": 5534,
      "Ġpointed": 5535,
      "ĠBoth": 5536,
      "lymp": 5537,
      "Ġearn": 5538,
      "Ġrecorded": 5539,
      "First": 5540,
      "coh": 5541,
      "Ġthr": 5542,
      "Ġpositions": 5543,
      ",[": 5544,
      "uit": 5545,
      "urrent": 5546,
      "Ġtight": 5547,
      "rog": 5548,
      "Ġleads": 5549,
      "lo": 5550,
      "Ġfinish": 5551,
      "Ġquant": 5552,
      "Ġpowers": 5553,
      "Ġends": 5554,
      "ĠPut": 5555,
      "essions": 5556,
      "Ġupgr": 5557,
      "Ġec": 5558,
      "Ġargued": 5559,
      "Ġcultural": 5560,
      "ita": 5561,
      "ĠBet": 5562,
      "Ġdream": 5563,
      "ĠRem": 5564,
      "Ġremaining": 5565,
      "MA": 5566,
      "Ġfilms": 5567,
      "UT": 5568,
      "Ġpulled": 5569,
      "Ġthank": 5570,
      "Ġappreci": 5571,
      "Ġconsidering": 5572,
      "Since": 5573,
      "Ġnut": 5574,
      "ĠBBC": 5575,
      "Ġhopes": 5576,
      "ĠDaily": 5577,
      "Ġast": 5578,
      "vey": 5579,
      "Ġuniversity": 5580,
      "ĠStan": 5581,
      "ĠTHE": 5582,
      "cean": 5583,
      "Ġhyp": 5584,
      "Ġfrustr": 5585,
      "ĠProt": 5586,
      "care": 5587,
      "ĠPlease": 5588,
      "Ġretail": 5589,
      "CL": 5590,
      "Ġagent": 5591,
      "Ġvisual": 5592,
      "ownt": 5593,
      "Ġrandom": 5594,
      "Ġreact": 5595,
      "Ġseat": 5596,
      "Ġafternoon": 5597,
      "Ġdiscl": 5598,
      "ompl": 5599,
      "Ġdistance": 5600,
      "Ġfacing": 5601,
      "Ġconstruct": 5602,
      "Ġsupporting": 5603,
      "Ġsignificantly": 5604,
      "ashion": 5605,
      "reland": 5606,
      "Ġdisappoint": 5607,
      "Ġmatters": 5608,
      "Ġarchitect": 5609,
      "Ġath": 5610,
      "Ġdenied": 5611,
      "43": 5612,
      "ensions": 5613,
      "ÑĤ": 5614,
      "rawn": 5615,
      "Ġnar": 5616,
      "unction": 5617,
      "Ġindeed": 5618,
      "ĠForce": 5619,
      "apter": 5620,
      "Ġbaby": 5621,
      "Ġgrew": 5622,
      "Ġthoughts": 5623,
      "Ġcompleted": 5624,
      "Ġconcentr": 5625,
      "ĠMur": 5626,
      "elly": 5627,
      "Ġsubs": 5628,
      "apping": 5629,
      "lyn": 5630,
      "Ġ500": 5631,
      "Ġsurprising": 5632,
      "ĠPenn": 5633,
      "ĠHaw": 5634,
      "Ġcoord": 5635,
      "oken": 5636,
      "razil": 5637,
      "Ġsigns": 5638,
      "Ġapproved": 5639,
      "Ġemergency": 5640,
      "aniel": 5641,
      "Ġforget": 5642,
      "lines": 5643,
      "Ġmethods": 5644,
      "Ġsatisf": 5645,
      "Ġdim": 5646,
      "oma": 5647,
      "idel": 5648,
      "Ġtrouble": 5649,
      "ĠMos": 5650,
      "Ġclot": 5651,
      "Ġaircraft": 5652,
      "Ġcombined": 5653,
      "],": 5654,
      "aled": 5655,
      "ĠLabour": 5656,
      "Ġconsumers": 5657,
      "gment": 5658,
      "Ġemp": 5659,
      "Ġopposed": 5660,
      "Ġvulner": 5661,
      "host": 5662,
      "oral": 5663,
      "Ġidentify": 5664,
      "Ġzone": 5665,
      "Ġ\\": 5666,
      "Ġsem": 5667,
      "endment": 5668,
      "Ġpurchase": 5669,
      "Ġreference": 5670,
      "Ġevening": 5671,
      "Ġglass": 5672,
      "Ġdetermined": 5673,
      "Ġsac": 5674,
      "Ġyards": 5675,
      "Ġreporting": 5676,
      "Ġvoting": 5677,
      "Ġbodies": 5678,
      "cel": 5679,
      "olt": 5680,
      "tion": 5681,
      "ulations": 5682,
      "Ġopportunities": 5683,
      "\":": 5684,
      "Ġapprox": 5685,
      "ĠMatt": 5686,
      "ĠOlymp": 5687,
      "Ġupdates": 5688,
      "zer": 5689,
      "aling": 5690,
      "ii": 5691,
      "Ġyouth": 5692,
      "Ġ2001": 5693,
      "Ġtreated": 5694,
      "Ġsubm": 5695,
      "Ġdismiss": 5696,
      "Ġourselves": 5697,
      "ĠIN": 5698,
      "ĠCru": 5699,
      "Ġinstruct": 5700,
      "Pe": 5701,
      "usiness": 5702,
      "Over": 5703,
      "anged": 5704,
      "Ġmotiv": 5705,
      "mond": 5706,
      "Ġresponded": 5707,
      "Ġcreation": 5708,
      "isters": 5709,
      "Ġrenew": 5710,
      "ansas": 5711,
      "Ġflood": 5712,
      "Ġbelong": 5713,
      "ĠSum": 5714,
      "PD": 5715,
      "Ġexperiences": 5716,
      "42": 5717,
      "can": 5718,
      "Ġwrites": 5719,
      "Ġwood": 5720,
      "Ġproced": 5721,
      "Ġconfident": 5722,
      "Ġreporters": 5723,
      "Us": 5724,
      "ĠAT": 5725,
      "rant": 5726,
      "Ġbrows": 5727,
      "ĠPhot": 5728,
      "Ġexplos": 5729,
      "ĠSteve": 5730,
      "Ġlit": 5731,
      "top": 5732,
      "hered": 5733,
      "ivered": 5734,
      "Ġdifferences": 5735,
      "Ġexpansion": 5736,
      "Ġturning": 5737,
      "ache": 5738,
      "Ġvideos": 5739,
      "Ġmal": 5740,
      "Ġbasically": 5741,
      "Ñģ": 5742,
      "Ġongoing": 5743,
      "Ġunable": 5744,
      "Ġtrig": 5745,
      "istered": 5746,
      "ĠNAS": 5747,
      "Ġdiscrim": 5748,
      "Ġcontrast": 5749,
      "Ġdefault": 5750,
      "Ġswitch": 5751,
      "Ġbuildings": 5752,
      "ributed": 5753,
      "oves": 5754,
      "ĠRad": 5755,
      "hy": 5756,
      "Ġlisten": 5757,
      "Ġaid": 5758,
      "obe": 5759,
      "Ġaccompl": 5760,
      "ĠSant": 5761,
      "Ġ1980": 5762,
      "Ġpackage": 5763,
      "Ġsuit": 5764,
      "Ġstruggle": 5765,
      "Ġinjured": 5766,
      "Ġ2003": 5767,
      "Ġdelay": 5768,
      "Ġordered": 5769,
      "Ġdeclared": 5770,
      "pet": 5771,
      "Ġvan": 5772,
      "Ġnumerous": 5773,
      "Ġattempts": 5774,
      "Ġcrimes": 5775,
      "uous": 5776,
      "ĠSaud": 5777,
      "ĠDirector": 5778,
      "onna": 5779,
      "ĠRoad": 5780,
      "Ġstatements": 5781,
      "Ġspring": 5782,
      "Ġlots": 5783,
      "Ġtechnical": 5784,
      "Ġpanel": 5785,
      "respond": 5786,
      "upp": 5787,
      "Ĥ¬": 5788,
      "Ġrent": 5789,
      "Ġburn": 5790,
      "Ġdiet": 5791,
      "ĠIsland": 5792,
      "Ġeditor": 5793,
      "Ġfish": 5794,
      "PR": 5795,
      "Ġhol": 5796,
      "ĠScience": 5797,
      "ounded": 5798,
      "Ġcollabor": 5799,
      "ogue": 5800,
      "Ġentertain": 5801,
      "ĠToday": 5802,
      "Cont": 5803,
      "abilities": 5804,
      "ilit": 5805,
      "aped": 5806,
      "ternal": 5807,
      "Ġseriously": 5808,
      "Ġmode": 5809,
      "ĠYet": 5810,
      "ĠShow": 5811,
      "ĠPhoto": 5812,
      "Ġmovies": 5813,
      "Ġcalcul": 5814,
      "edd": 5815,
      "oking": 5816,
      "aza": 5817,
      "Ġloved": 5818,
      "ĠMem": 5819,
      "Another": 5820,
      "hab": 5821,
      "ĠRon": 5822,
      "ĠPac": 5823,
      "Ġpractices": 5824,
      "Ġpassing": 5825,
      "Ġadvance": 5826,
      "imal": 5827,
      "ilty": 5828,
      "employ": 5829,
      "Ġsuffered": 5830,
      "mm": 5831,
      "ĠTal": 5832,
      "ĠGrand": 5833,
      "Ġcraft": 5834,
      "Ġdial": 5835,
      "ellow": 5836,
      "Ġproud": 5837,
      "Ġliberal": 5838,
      "ĠWilliam": 5839,
      "Ġcircumst": 5840,
      "ĠIreland": 5841,
      "Ġdatab": 5842,
      "pass": 5843,
      "Ġtransition": 5844,
      "Ġbroadcast": 5845,
      "Sp": 5846,
      "Ġpatient": 5847,
      "Ġinstitutions": 5848,
      "Ġmarried": 5849,
      "Ġelement": 5850,
      "Ġcraz": 5851,
      "ishes": 5852,
      "arl": 5853,
      "uthors": 5854,
      "Ġprompt": 5855,
      "Ġcentre": 5856,
      "Ġgather": 5857,
      "Ġconfidence": 5858,
      "Ġcapable": 5859,
      "His": 5860,
      "Ġquiet": 5861,
      "illy": 5862,
      "ĠFar": 5863,
      "Ġartist": 5864,
      "Ġpictures": 5865,
      "Ġbatt": 5866,
      "Ġabandon": 5867,
      "ĠAfghanistan": 5868,
      "eration": 5869,
      "erry": 5870,
      "Ġarmed": 5871,
      "Ġcoast": 5872,
      "Ġadmitted": 5873,
      "Ġconnected": 5874,
      "xual": 5875,
      "Ġatmosp": 5876,
      ",'": 5877,
      "IM": 5878,
      "Ġpublicly": 5879,
      "ĠMichigan": 5880,
      "Ġexplo": 5881,
      "Ġadvice": 5882,
      "illance": 5883,
      "Ġdiss": 5884,
      "Ġhttps": 5885,
      "Ġagents": 5886,
      "ket": 5887,
      "Ġcopyright": 5888,
      "Ġsevere": 5889,
      "resents": 5890,
      "ĠMedia": 5891,
      "uations": 5892,
      "ĠChristmas": 5893,
      "astern": 5894,
      "Ġstands": 5895,
      "05": 5896,
      "Ġapps": 5897,
      "Ġpicked": 5898,
      "Ġgra": 5899,
      "Ġperspective": 5900,
      "ampion": 5901,
      "ĠiPh": 5902,
      "inals": 5903,
      "char": 5904,
      "ĠWars": 5905,
      "Ġconfirm": 5906,
      "ĠColumb": 5907,
      "Ġtradition": 5908,
      "Ġforg": 5909,
      "Ġreaction": 5910,
      "Ġquarterback": 5911,
      "Ġsubstant": 5912,
      "ĠUkraine": 5913,
      "nergy": 5914,
      "Oh": 5915,
      "ador": 5916,
      "Ġcrack": 5917,
      "esters": 5918,
      "Ġtun": 5919,
      "ĠRel": 5920,
      "ĠPakistan": 5921,
      "Ġweather": 5922,
      "unte": 5923,
      "ionally": 5924,
      "Ġwithd": 5925,
      "abin": 5926,
      "Ġphilosoph": 5927,
      "ĠHuman": 5928,
      "Ġexplains": 5929,
      "Ġindustrial": 5930,
      "ato": 5931,
      "Ġeffectively": 5932,
      "Ġsecretary": 5933,
      "eds": 5934,
      "Ġfilled": 5935,
      "ĠWood": 5936,
      "41": 5937,
      "Ġtemperature": 5938,
      "law": 5939,
      "ena": 5940,
      "Ġshouldn": 5941,
      "osite": 5942,
      "free": 5943,
      "Ġske": 5944,
      "dule": 5945,
      "called": 5946,
      "acter": 5947,
      "Ġmand": 5948,
      "Ġincor": 5949,
      "etroit": 5950,
      "Ġnewspaper": 5951,
      "ĠProject": 5952,
      "Ġreportedly": 5953,
      "Ġcaption": 5954,
      "LS": 5955,
      "TV": 5956,
      "Ġguns": 5957,
      "orry": 5958,
      "adow": 5959,
      "ĠBrazil": 5960,
      "Ġleaves": 5961,
      "Ġfraud": 5962,
      "word": 5963,
      "Am": 5964,
      "Ġdelivered": 5965,
      "ĠSwed": 5966,
      "ffee": 5967,
      "formation": 5968,
      "Rep": 5969,
      "ĠSpace": 5970,
      "Ġwalking": 5971,
      "Ġlawyer": 5972,
      "Ġplane": 5973,
      "ĠBack": 5974,
      "Can": 5975,
      "Ġsets": 5976,
      "OD": 5977,
      "Ð½": 5978,
      "Ġmessages": 5979,
      "rid": 5980,
      "ĠPower": 5981,
      "Ġexamples": 5982,
      "Ġradical": 5983,
      "Ġneither": 5984,
      "Ġedge": 5985,
      "Ġdebut": 5986,
      "Ġresolution": 5987,
      "Ġscheduled": 5988,
      "Ġtree": 5989,
      "ala": 5990,
      "Ġlie": 5991,
      "Ġvalid": 5992,
      "Ġapplied": 5993,
      "During": 5994,
      "uls": 5995,
      "Ġphen": 5996,
      "Ġemphas": 5997,
      "ooth": 5998,
      "Ġcooper": 5999,
      "aints": 6000,
      "Ġfaces": 6001,
      "Ġexcell": 6002,
      "Ġcontains": 6003,
      "ĠScot": 6004,
      "Ġviolent": 6005,
      "Ġdesire": 6006,
      "plom": 6007,
      "Ġprin": 6008,
      "Ġpitch": 6009,
      "oviet": 6010,
      "Many": 6011,
      "Ġdoctor": 6012,
      "Ġlegit": 6013,
      "arters": 6014,
      "Ġemails": 6015,
      "Ġgiant": 6016,
      "ĠGen": 6017,
      "TH": 6018,
      "kay": 6019,
      "Ġcloud": 6020,
      "Ġincreases": 6021,
      "Ġmagazine": 6022,
      "Ġadvert": 6023,
      "cohol": 6024,
      "ĠSee": 6025,
      "Ġmissed": 6026,
      "ĠLake": 6027,
      "Ġgovernor": 6028,
      "Ġappropriate": 6029,
      "ĠAndrew": 6030,
      "Ġenemy": 6031,
      "ht": 6032,
      "enture": 6033,
      "atell": 6034,
      "Ġargue": 6035,
      "Ġactivists": 6036,
      "Ġnearby": 6037,
      "Res": 6038,
      "Ġinterpret": 6039,
      "Other": 6040,
      "Ġthinks": 6041,
      "ĠTra": 6042,
      "Ġsubsequ": 6043,
      "Ġlinked": 6044,
      "Ġfly": 6045,
      "Ġcauses": 6046,
      "Ġsad": 6047,
      "orse": 6048,
      "ĠSky": 6049,
      "ĠFollow": 6050,
      "Ġdeclined": 6051,
      "Ġinitially": 6052,
      "Ġperman": 6053,
      "ĠColor": 6054,
      "Ġflag": 6055,
      "Ġrealize": 6056,
      "essor": 6057,
      "Ġsought": 6058,
      "ĠVict": 6059,
      "ĠGar": 6060,
      "evin": 6061,
      "Ġterrorist": 6062,
      "Ġcann": 6063,
      "ĠCharl": 6064,
      "Although": 6065,
      "ĠFer": 6066,
      "ideo": 6067,
      "ucks": 6068,
      "Se": 6069,
      "American": 6070,
      "abled": 6071,
      "active": 6072,
      "ĠOhio": 6073,
      "rich": 6074,
      "ĠNov": 6075,
      "ĠGames": 6076,
      "Ġeval": 6077,
      "Ġfaced": 6078,
      "Ġdivision": 6079,
      "long": 6080,
      "date": 6081,
      "Ġisland": 6082,
      "whel": 6083,
      "Ġexplan": 6084,
      "II": 6085,
      "De": 6086,
      "ĠWal": 6087,
      "ĠSystem": 6088,
      "ao": 6089,
      "Ġannouncement": 6090,
      "Ġfort": 6091,
      "hips": 6092,
      "Ġsurprised": 6093,
      "estival": 6094,
      "Ġsuffering": 6095,
      "umber": 6096,
      "IF": 6097,
      "Ġdynam": 6098,
      "ĠHel": 6099,
      "ĠRead": 6100,
      "ua": 6101,
      "ĠLin": 6102,
      "Follow": 6103,
      "edy": 6104,
      "68": 6105,
      "Yes": 6106,
      "ĠSqu": 6107,
      "IR": 6108,
      "Ġclient": 6109,
      "ĠKorean": 6110,
      "enda": 6111,
      "ERS": 6112,
      "Ġhell": 6113,
      "Ġsquare": 6114,
      "ĠTurkey": 6115,
      "Ġexistence": 6116,
      "Ġsession": 6117,
      "Ġsuc": 6118,
      "ĠIll": 6119,
      "Ġoutput": 6120,
      "Ġessentially": 6121,
      "Ġlabel": 6122,
      "Ġguilty": 6123,
      "ĠMount": 6124,
      "Ġcurrency": 6125,
      "Ġfindings": 6126,
      "Ġconsumer": 6127,
      "Ġmetal": 6128,
      "Ġdecre": 6129,
      "Ġdistribution": 6130,
      "Ġsongs": 6131,
      "icing": 6132,
      "Ġshots": 6133,
      "itors": 6134,
      "Ġresident": 6135,
      "Ġfairly": 6136,
      "Ġaf": 6137,
      "Ġsam": 6138,
      "born": 6139,
      "Ġtalent": 6140,
      "ĠMuslims": 6141,
      "stood": 6142,
      "ĠWork": 6143,
      "ourney": 6144,
      "Ġwarm": 6145,
      "Ġdiscussed": 6146,
      "ĠBarack": 6147,
      "Ġprohib": 6148,
      "ĠRE": 6149,
      "Ġjoint": 6150,
      "Ġwarned": 6151,
      "Ġrepresents": 6152,
      "ĠJackson": 6153,
      "Ġalt": 6154,
      "Ġreaders": 6155,
      "ller": 6156,
      "ĠKim": 6157,
      "Ġfranch": 6158,
      "Ġmir": 6159,
      "Ġrail": 6160,
      "angers": 6161,
      "mates": 6162,
      "rip": 6163,
      "usal": 6164,
      "ician": 6165,
      "orders": 6166,
      "Ġshop": 6167,
      "Ġinvestors": 6168,
      "ĠTechn": 6169,
      "ĠWalk": 6170,
      "Ġtotally": 6171,
      "Ġlisted": 6172,
      "Then": 6173,
      "Ġbare": 6174,
      "Ġfacts": 6175,
      "Ġperformed": 6176,
      "bur": 6177,
      "Ġpure": 6178,
      "ĠPrem": 6179,
      "Ob": 6180,
      "Ġfunctions": 6181,
      "hetic": 6182,
      "Ġinput": 6183,
      "Ġremark": 6184,
      "Ġing": 6185,
      "Ġroughly": 6186,
      "ican": 6187,
      "Ġboss": 6188,
      "esh": 6189,
      "ĠAff": 6190,
      "Ġentered": 6191,
      "ĠBat": 6192,
      "ĠSupp": 6193,
      "Ġroute": 6194,
      "asure": 6195,
      "Qu": 6196,
      "Ġwear": 6197,
      "Ġobjects": 6198,
      "TA": 6199,
      "Ġstorm": 6200,
      "agers": 6201,
      "ĠHen": 6202,
      "Ġmyster": 6203,
      "Ġpool": 6204,
      "Ġlawsuit": 6205,
      "ez": 6206,
      "Ã³": 6207,
      "ĠSign": 6208,
      "Ġyesterday": 6209,
      "Ġdeaths": 6210,
      "Ġmoves": 6211,
      "gent": 6212,
      "iat": 6213,
      "iest": 6214,
      "Ġrein": 6215,
      "ĠHy": 6216,
      "Ġdrivers": 6217,
      "Ġpra": 6218,
      "Ġnations": 6219,
      "oked": 6220,
      "Ġarticles": 6221,
      "Ġmaterials": 6222,
      "ĠCNN": 6223,
      "Ġtech": 6224,
      "=\"": 6225,
      "Ġbond": 6226,
      "Ġhardware": 6227,
      "Ġsav": 6228,
      "Ġmagn": 6229,
      "dis": 6230,
      "west": 6231,
      "ÑĢ": 6232,
      "athan": 6233,
      "Ġyounger": 6234,
      "Ġmanufacture": 6235,
      "ĠCard": 6236,
      "ĠGM": 6237,
      "Ġclasses": 6238,
      "Ġinjuries": 6239,
      "Ġessential": 6240,
      "Ġdemocracy": 6241,
      "Ġconsequences": 6242,
      "esc": 6243,
      "Spe": 6244,
      "ĠIts": 6245,
      "Ġmoral": 6246,
      "Ġrain": 6247,
      "Ġaccepted": 6248,
      "Ġsplit": 6249,
      "Ġfill": 6250,
      "Ġbuying": 6251,
      "Ġlibrary": 6252,
      "Ġwarning": 6253,
      "def": 6254,
      "Ġstorage": 6255,
      "ĠDev": 6256,
      "Ġadds": 6257,
      "Ġeverybody": 6258,
      "Ġ33": 6259,
      "Ġrising": 6260,
      "Ġpled": 6261,
      "Ġbegins": 6262,
      "Ġresc": 6263,
      "Ġfollows": 6264,
      "anish": 6265,
      "Ġempt": 6266,
      "Ġcampus": 6267,
      "Ġheavily": 6268,
      "ĠBoy": 6269,
      "Ġanywhere": 6270,
      "Ġcommunication": 6271,
      "Ġbull": 6272,
      "Ġexpression": 6273,
      "Ġintention": 6274,
      "Ġheads": 6275,
      "Tube": 6276,
      "Ġlaugh": 6277,
      "Ġchart": 6278,
      "Ġcolleagues": 6279,
      "Ġcombination": 6280,
      "wer": 6281,
      "Most": 6282,
      "Ġskill": 6283,
      "ĠDevelop": 6284,
      "Ġcorrespond": 6285,
      "http": 6286,
      "ĠAv": 6287,
      "ĠRights": 6288,
      "Ġtiny": 6289,
      "Ġnecessarily": 6290,
      "Ġliqu": 6291,
      "Ġspons": 6292,
      "Ġsucceed": 6293,
      "erate": 6294,
      "Ġnetworks": 6295,
      "icer": 6296,
      "ĠDou": 6297,
      "88": 6298,
      "ĠOnly": 6299,
      "Ġ37": 6300,
      "Ġ300": 6301,
      "Ġcreative": 6302,
      "Ġreplaced": 6303,
      "ĠStr": 6304,
      "Ġadvanced": 6305,
      "Ġstood": 6306,
      "Ġsees": 6307,
      "comm": 6308,
      "Ġenh": 6309,
      "Ġunlikely": 6310,
      "Ġ//": 6311,
      "Ġcheap": 6312,
      "ĠSeattle": 6313,
      "ĠEnter": 6314,
      "ĠExp": 6315,
      "Ġride": 6316,
      "ĠDetroit": 6317,
      "Ġreturns": 6318,
      "Ġgrown": 6319,
      "Ġrelevant": 6320,
      "Ġexercise": 6321,
      "Man": 6322,
      "lv": 6323,
      "water": 6324,
      "Ġteachers": 6325,
      "ĠClub": 6326,
      "ĠSociety": 6327,
      "Ġrestaurant": 6328,
      "rum": 6329,
      "ĠSoviet": 6330,
      "En": 6331,
      "Ġmarketing": 6332,
      "Ġtournament": 6333,
      "ĠDC": 6334,
      "Ġevolution": 6335,
      "Ġextent": 6336,
      "Ġboys": 6337,
      "Ġmine": 6338,
      "otic": 6339,
      "Ġimproved": 6340,
      "Ġce": 6341,
      "Ġmeat": 6342,
      "Ġhoping": 6343,
      "Ġnative": 6344,
      "ĠAnn": 6345,
      "Ġfeatured": 6346,
      "ĠLife": 6347,
      "ĠiPhone": 6348,
      "xy": 6349,
      "ĠWik": 6350,
      "erences": 6351,
      "TM": 6352,
      "icious": 6353,
      "Donald": 6354,
      "ĠBoard": 6355,
      "igure": 6356,
      "Ġshif": 6357,
      "ĠJul": 6358,
      "ĠRev": 6359,
      "Ġtargets": 6360,
      "Ġ36": 6361,
      "Ġblow": 6362,
      "luding": 6363,
      "Ġbutton": 6364,
      "Ġscored": 6365,
      "ĠAnother": 6366,
      "greg": 6367,
      "Ġdoctors": 6368,
      "Ġimportance": 6369,
      "ĠISIS": 6370,
      "Pol": 6371,
      "Ġentry": 6372,
      "zona": 6373,
      "ĠWhe": 6374,
      "ĠHol": 6375,
      "ometimes": 6376,
      "ĠID": 6377,
      "Ġrow": 6378,
      "Ġconfront": 6379,
      "Ġthreats": 6380,
      "Ġsurveillance": 6381,
      "gia": 6382,
      "Ġsick": 6383,
      "fortunately": 6384,
      "esome": 6385,
      "Ġtom": 6386,
      "ĠBob": 6387,
      "Ġbrings": 6388,
      "Ġstrange": 6389,
      "Ġnav": 6390,
      "Ġsomewhat": 6391,
      "iques": 6392,
      "Ġstores": 6393,
      "ĠEr": 6394,
      "Ġholds": 6395,
      "Ġdiplom": 6396,
      "ĠSaudi": 6397,
      "Ġbon": 6398,
      "style": 6399,
      "ĠDiv": 6400,
      "Ġimmediate": 6401,
      "Ġallegations": 6402,
      "Ġbike": 6403,
      "ĠCIA": 6404,
      "irty": 6405,
      "Ġcausing": 6406,
      "ĠWild": 6407,
      "Ġsharing": 6408,
      "Ġcustomer": 6409,
      "lar": 6410,
      "boy": 6411,
      "ĠLong": 6412,
      "nam": 6413,
      "olve": 6414,
      "Ġserving": 6415,
      "Com": 6416,
      "cers": 6417,
      "acle": 6418,
      "cipl": 6419,
      "Ġtrick": 6420,
      "ollywood": 6421,
      "print": 6422,
      "ĠMaybe": 6423,
      "Ġstring": 6424,
      "alty": 6425,
      "Ġoffense": 6426,
      "Ġmanage": 6427,
      "See": 6428,
      "kel": 6429,
      "arden": 6430,
      "Ġ2002": 6431,
      "ocratic": 6432,
      "ĠDavis": 6433,
      "Ġurban": 6434,
      "Ġrum": 6435,
      "Ġauthors": 6436,
      "Ġpromise": 6437,
      "anges": 6438,
      "Ġbehavi": 6439,
      "Ġconsistent": 6440,
      "Ġcere": 6441,
      "Like": 6442,
      "Ġplot": 6443,
      "Ġwake": 6444,
      "Ġcommitment": 6445,
      "OC": 6446,
      "Ġrally": 6447,
      "Ġchain": 6448,
      "opy": 6449,
      "Ġflo": 6450,
      "Ġclassic": 6451,
      "Ġvice": 6452,
      "Ġcert": 6453,
      "ĠWeek": 6454,
      "Ġdownt": 6455,
      "ĠEach": 6456,
      "Ġcycle": 6457,
      "ette": 6458,
      "apse": 6459,
      "stone": 6460,
      "alle": 6461,
      "ĠAut": 6462,
      "ĠBlue": 6463,
      "Ġnarr": 6464,
      "efully": 6465,
      "Ġfewer": 6466,
      "ÃŃ": 6467,
      "Ġcircumstances": 6468,
      "Ġsyn": 6469,
      "Ġprotests": 6470,
      "ĠMen": 6471,
      "Ġsquad": 6472,
      "Ġallegedly": 6473,
      "Ġpushed": 6474,
      "cho": 6475,
      "Ġflu": 6476,
      "Ġfacility": 6477,
      "Ġbright": 6478,
      "ĠDie": 6479,
      "Per": 6480,
      "57": 6481,
      "Ġmotor": 6482,
      "ugh": 6483,
      "ouston": 6484,
      "Ġdefined": 6485,
      "Ġlinks": 6486,
      "ĠRod": 6487,
      "ĠYear": 6488,
      "sembly": 6489,
      "Add": 6490,
      "ĠSar": 6491,
      "Ġfavour": 6492,
      "Ġshel": 6493,
      "Ġwinter": 6494,
      "ĠWatch": 6495,
      "ĠHist": 6496,
      "gs": 6497,
      "Ġregulations": 6498,
      "ko": 6499,
      "utch": 6500,
      "ulous": 6501,
      "ĠAsia": 6502,
      "Ġbreaking": 6503,
      "Ġdetailed": 6504,
      "Ġrepeatedly": 6505,
      "Ġversions": 6506,
      "Ġadults": 6507,
      "Ġgrab": 6508,
      "Ġmechanism": 6509,
      "ologist": 6510,
      "Ġowned": 6511,
      "Ġhall": 6512,
      "ĠSecond": 6513,
      "Ġvolunte": 6514,
      "Ġgang": 6515,
      "ĠRomney": 6516,
      "Ġwalked": 6517,
      "hus": 6518,
      "Ġterrorism": 6519,
      "ĠCharles": 6520,
      "Ġplayoff": 6521,
      "game": 6522,
      "andal": 6523,
      "Ġsym": 6524,
      "certain": 6525,
      "TS": 6526,
      "bel": 6527,
      "Ġisol": 6528,
      "ĠDi": 6529,
      "Ġintent": 6530,
      "Ġembr": 6531,
      "Ġdomin": 6532,
      "Ġsymbol": 6533,
      "Ġcontest": 6534,
      "rison": 6535,
      "Two": 6536,
      "avor": 6537,
      "Ġacknowled": 6538,
      "alian": 6539,
      "54": 6540,
      "Ġselection": 6541,
      "Ġusual": 6542,
      "Ġassets": 6543,
      "allas": 6544,
      "Ġanalyst": 6545,
      "Ġhousehold": 6546,
      "ĠFil": 6547,
      "Ġcrazy": 6548,
      "Or": 6549,
      "Ġoverwhel": 6550,
      "Ġalongside": 6551,
      "Ġclosely": 6552,
      "Ġattempted": 6553,
      "uated": 6554,
      "ĠLib": 6555,
      "obb": 6556,
      "ĠElect": 6557,
      "Ġmanner": 6558,
      "ĠEll": 6559,
      "Ġcolon": 6560,
      "Ġmotion": 6561,
      "Ġadapt": 6562,
      "Ġwaste": 6563,
      "Ġrot": 6564,
      "friend": 6565,
      "Ġbird": 6566,
      "Ġacting": 6567,
      "Ġcarrying": 6568,
      "Ġreferred": 6569,
      "Ġharder": 6570,
      "Ġkinds": 6571,
      "Ġsurrounding": 6572,
      "Ġdedicated": 6573,
      "Ġunus": 6574,
      "Ġphenomen": 6575,
      "ceived": 6576,
      "ĠAgain": 6577,
      "Despite": 6578,
      "aa": 6579,
      "Ġbag": 6580,
      "ĠCatholic": 6581,
      "iner": 6582,
      "Ġslowly": 6583,
      "Ġfashion": 6584,
      "Ġacts": 6585,
      "Ġcontroversial": 6586,
      "wan": 6587,
      "Ġabortion": 6588,
      "Ġuniverse": 6589,
      "inations": 6590,
      "Ġancient": 6591,
      "Ġparliament": 6592,
      "Ġmoments": 6593,
      "ĠImage": 6594,
      "arn": 6595,
      "agan": 6596,
      "Ġopposite": 6597,
      "Ġfrequently": 6598,
      "Ġproperties": 6599,
      "Ġdescribe": 6600,
      "Ġpushing": 6601,
      "iro": 6602,
      "ĠTit": 6603,
      "59": 6604,
      ">>": 6605,
      "Ġhistorical": 6606,
      "ORE": 6607,
      "Ġformed": 6608,
      "ĠEnergy": 6609,
      "Ġparticipants": 6610,
      "Ġsustain": 6611,
      "Ġsample": 6612,
      "ora": 6613,
      "Ġtargeted": 6614,
      "Ġfundamental": 6615,
      "chers": 6616,
      "name": 6617,
      "Ġanx": 6618,
      "Ġhur": 6619,
      "ĠMot": 6620,
      "Ġsentence": 6621,
      "Ġfuck": 6622,
      "Ġdesk": 6623,
      "Ġrequests": 6624,
      "Ġschedule": 6625,
      "Ġflat": 6626,
      "CA": 6627,
      "Int": 6628,
      "Ġsister": 6629,
      "azi": 6630,
      "iciency": 6631,
      "ĠFord": 6632,
      "Ġegg": 6633,
      "ĠPalestinian": 6634,
      "Ġeating": 6635,
      "Ġ1970": 6636,
      "Ġcolumn": 6637,
      "ĠBrook": 6638,
      "Ġefficient": 6639,
      "Ġartists": 6640,
      "Ġreceiving": 6641,
      "Ġstream": 6642,
      "Ġstruck": 6643,
      "chen": 6644,
      "Ġhat": 6645,
      "ĠItaly": 6646,
      "Ġstudio": 6647,
      "ixt": 6648,
      "ati": 6649,
      "Ġconscious": 6650,
      "Ġexcellent": 6651,
      "ayers": 6652,
      "Ø§": 6653,
      "nic": 6654,
      "you": 6655,
      "Ġdu": 6656,
      "Ġcategory": 6657,
      "ĠTop": 6658,
      ".\"[": 6659,
      "Ġchairman": 6660,
      "iger": 6661,
      "Ġcongress": 6662,
      "Ġrequirements": 6663,
      "Ġorders": 6664,
      "otal": 6665,
      "Ġreput": 6666,
      "Ġpassion": 6667,
      "iveness": 6668,
      "People": 6669,
      "foot": 6670,
      "twitter": 6671,
      "Ġwins": 6672,
      "uable": 6673,
      "Ġsnow": 6674,
      "ĠBell": 6675,
      "Ġproperly": 6676,
      "Ġ38": 6677,
      "ĠWilson": 6678,
      "Ġopponents": 6679,
      "Ġearned": 6680,
      "ellect": 6681,
      "Ġunemploy": 6682,
      "ĠEconom": 6683,
      "ocket": 6684,
      "Ġrape": 6685,
      "Ġliterally": 6686,
      "bar": 6687,
      "Ġsand": 6688,
      "aylor": 6689,
      "uy": 6690,
      "ĠJr": 6691,
      "ensus": 6692,
      "Ġschol": 6693,
      "Ġinspired": 6694,
      "Ġlies": 6695,
      "ĠWin": 6696,
      "Ġathlet": 6697,
      "Ġkit": 6698,
      "Ġpip": 6699,
      "Ġregional": 6700,
      "ĠJesus": 6701,
      "sters": 6702,
      "ĠCle": 6703,
      "ockey": 6704,
      "amily": 6705,
      "ĠJews": 6706,
      "FP": 6707,
      "Ġupcoming": 6708,
      "Ġdealing": 6709,
      "Ġzero": 6710,
      "ĠYouTube": 6711,
      "enger": 6712,
      "Ġcomfortable": 6713,
      "Ġguide": 6714,
      "iami": 6715,
      "Ġdatabase": 6716,
      "Ġapproval": 6717,
      "ĠRight": 6718,
      "fire": 6719,
      "rence": 6720,
      "Ġknowing": 6721,
      "Ġalcohol": 6722,
      "Ġsubsid": 6723,
      "ĠYoung": 6724,
      "77": 6725,
      "Ġaside": 6726,
      "Ġblame": 6727,
      "vin": 6728,
      "ulture": 6729,
      "Ġsoul": 6730,
      "Ġtransp": 6731,
      "Ġcompetitive": 6732,
      "ĠOk": 6733,
      "Ġfighters": 6734,
      "Ġwave": 6735,
      "Ġforth": 6736,
      "ĠMs": 6737,
      "Ġhotel": 6738,
      "Ġapproximately": 6739,
      "lock": 6740,
      "ĠStephen": 6741,
      "Ġrealized": 6742,
      "ĠMiller": 6743,
      "Ġsigning": 6744,
      "Ġpal": 6745,
      "ĠÎ": 6746,
      "ĠLand": 6747,
      "Ġmouth": 6748,
      "Ġwatched": 6749,
      "Ġuncle": 6750,
      "Ġemotional": 6751,
      "Ġterritory": 6752,
      "pan": 6753,
      "Ġgod": 6754,
      "Ġring": 6755,
      "Ġinstru": 6756,
      "ciples": 6757,
      "aug": 6758,
      "Ġtermin": 6759,
      "awa": 6760,
      "Ġpromised": 6761,
      "Ġsho": 6762,
      "ĠArizona": 6763,
      "duc": 6764,
      "Ġcourts": 6765,
      "Ġlocations": 6766,
      "ĠPolit": 6767,
      "Ġreward": 6768,
      "Ġprotected": 6769,
      "Ġlock": 6770,
      "ĠGra": 6771,
      "Ġking": 6772,
      "Ġremote": 6773,
      "Ġsimpl": 6774,
      "ingu": 6775,
      "ĠLord": 6776,
      "Ġchannel": 6777,
      "ĠSports": 6778,
      "ĠRam": 6779,
      "ighter": 6780,
      "Ġ48": 6781,
      "ographic": 6782,
      "ĠTO": 6783,
      "Ġnomine": 6784,
      "chain": 6785,
      "ĠHome": 6786,
      "Ġnorthern": 6787,
      "Ġlatter": 6788,
      "onsin": 6789,
      "Ġmerely": 6790,
      "Ġsuddenly": 6791,
      "08": 6792,
      "asks": 6793,
      "Ġnoticed": 6794,
      "Ġmainstream": 6795,
      "56": 6796,
      "Ġnewslet": 6797,
      "isconsin": 6798,
      "inem": 6799,
      "Ġupdated": 6800,
      "Ġagenda": 6801,
      "Ġinvolving": 6802,
      "aze": 6803,
      "Ġtopic": 6804,
      "Ġfemin": 6805,
      "lder": 6806,
      "Ġexplore": 6807,
      "Ġteacher": 6808,
      "Ġjourney": 6809,
      "Ġrisks": 6810,
      "Ġprecise": 6811,
      "Ġ49": 6812,
      "ĠCy": 6813,
      "Ġexhib": 6814,
      "ordan": 6815,
      "ĠRog": 6816,
      "ĠAgency": 6817,
      "Ġdiscover": 6818,
      "Ġpaint": 6819,
      "Ġimmigrants": 6820,
      "Ġfasc": 6821,
      "ĠJava": 6822,
      "Ġretire": 6823,
      "Ġfixed": 6824,
      "Ġobserved": 6825,
      "Ġdeeply": 6826,
      "Ġsouthern": 6827,
      "oration": 6828,
      "ĠFour": 6829,
      "Ġimpressive": 6830,
      "PU": 6831,
      "ĠWay": 6832,
      "Ġresistance": 6833,
      "ĠLu": 6834,
      "ĠCat": 6835,
      "Ġsuicide": 6836,
      "asts": 6837,
      "Ġwid": 6838,
      "ether": 6839,
      "Ġdeck": 6840,
      "Ġwelcome": 6841,
      "lies": 6842,
      "Ġtheme": 6843,
      "Ġhits": 6844,
      "Ġdecline": 6845,
      "Ġtypical": 6846,
      "ĠValley": 6847,
      "ĠDefense": 6848,
      "Ġeast": 6849,
      "ĠDNA": 6850,
      "rome": 6851,
      "Ġworried": 6852,
      "Ġconstant": 6853,
      "Ġobtained": 6854,
      "utral": 6855,
      "Ġextended": 6856,
      "Ġmatches": 6857,
      "ĠNBA": 6858,
      "ĠVan": 6859,
      "Ġphase": 6860,
      "ĠEric": 6861,
      "Ġsatell": 6862,
      "Ġcrash": 6863,
      "Ġgap": 6864,
      "Ġjournalists": 6865,
      "izz": 6866,
      "burg": 6867,
      "Ġcommunications": 6868,
      "Ġcomparison": 6869,
      "Tile": 6870,
      "Ġmaximum": 6871,
      "07": 6872,
      "anes": 6873,
      "NC": 6874,
      "Ġrecognize": 6875,
      "98": 6876,
      "Ã¶": 6877,
      "Ġfolks": 6878,
      "Ġsomehow": 6879,
      "Ġtort": 6880,
      "Ġsending": 6881,
      "Ġcoffee": 6882,
      "Ġtested": 6883,
      "Ġextract": 6884,
      "vard": 6885,
      "ĠPan": 6886,
      "Ġunderstood": 6887,
      "Ġselected": 6888,
      "Ġalive": 6889,
      "Ġposts": 6890,
      "ĠJersey": 6891,
      "anchester": 6892,
      "pool": 6893,
      "Ġwire": 6894,
      "Ġanyway": 6895,
      "po": 6896,
      "ums": 6897,
      "Ġchose": 6898,
      "++": 6899,
      "Ġbunch": 6900,
      "arry": 6901,
      "ĠSpanish": 6902,
      "Ġarguments": 6903,
      "sole": 6904,
      "Ġconver": 6905,
      "rors": 6906,
      "ĠMax": 6907,
      "ĠBudd": 6908,
      "igation": 6909,
      "ĠHouston": 6910,
      "ĠNations": 6911,
      "Ġgotten": 6912,
      "Ġsole": 6913,
      "Ġpregn": 6914,
      "ĠDaniel": 6915,
      "regon": 6916,
      "iments": 6917,
      "orted": 6918,
      "Ġallies": 6919,
      "Ġmedic": 6920,
      "ĠBru": 6921,
      "LA": 6922,
      "isan": 6923,
      "Ġdress": 6924,
      "Ġassume": 6925,
      "GBT": 6926,
      "May": 6927,
      "Ġwage": 6928,
      "Ġped": 6929,
      "Ġemissions": 6930,
      "Ġimper": 6931,
      "ĠBrad": 6932,
      "Ġlikes": 6933,
      "ĠLove": 6934,
      "Ġstrongly": 6935,
      "Ġbat": 6936,
      "ĠWat": 6937,
      "unning": 6938,
      "Ġ34": 6939,
      "ĠGi": 6940,
      "Ġaspects": 6941,
      "ĠStand": 6942,
      "list": 6943,
      "veary": 6944,
      "Ġattacked": 6945,
      "Alveary": 6946,
      "Ġhonor": 6947,
      "TileAlveary": 6948,
      "woman": 6949,
      "ĠNY": 6950,
      "ĠKevin": 6951,
      "Ġunw": 6952,
      "Ġfranchise": 6953,
      "rive": 6954,
      "Ġruled": 6955,
      "Ġamounts": 6956,
      "ĠMa": 6957,
      "adel": 6958,
      "va": 6959,
      "Ġconstit": 6960,
      "anny": 6961,
      "Ġtrees": 6962,
      "han": 6963,
      "Ġanonym": 6964,
      "ĠCub": 6965,
      "Ġexciting": 6966,
      "Ġatmosphere": 6967,
      "Ġoblig": 6968,
      "bal": 6969,
      "Ġchoices": 6970,
      "ĠNetwork": 6971,
      "Ġdefeat": 6972,
      "azz": 6973,
      "Ġcritics": 6974,
      "era": 6975,
      "Ġpover": 6976,
      "Ġdestroyed": 6977,
      "ÙĦ": 6978,
      "Ġstronger": 6979,
      "Ġdiagn": 6980,
      "Ġlimits": 6981,
      "Ġanswers": 6982,
      "Ġputs": 6983,
      "Ġbattery": 6984,
      "itar": 6985,
      "ĠCast": 6986,
      "Ġ75": 6987,
      "Ġstretch": 6988,
      "Ġenemies": 6989,
      "sm": 6990,
      "ĠSteven": 6991,
      "rary": 6992,
      "aser": 6993,
      "ĠAdam": 6994,
      "Ġthread": 6995,
      "Ġfees": 6996,
      "Ġemployment": 6997,
      "Ġdogs": 6998,
      "ĠAdministr": 6999,
      "Ġending": 7000,
      "Ġbitcoin": 7001,
      "Ġpoverty": 7002,
      "04": 7003,
      "Ġicon": 7004,
      "Ġdry": 7005,
      "Ġnarrow": 7006,
      "Ġdefinition": 7007,
      "Ġescape": 7008,
      "Ġmistake": 7009,
      "omin": 7010,
      "Ġwinner": 7011,
      "Ġillustr": 7012,
      "nell": 7013,
      "Ġregions": 7014,
      "mes": 7015,
      "ship": 7016,
      "Ġmurd": 7017,
      "Ġvolume": 7018,
      "Ġvillage": 7019,
      "Ġwal": 7020,
      "Ġdrawn": 7021,
      "celer": 7022,
      "Ġlicense": 7023,
      "Ġdepth": 7024,
      "Ġempty": 7025,
      "Ġrub": 7026,
      "Ġfinds": 7027,
      "Ġclaiming": 7028,
      "Ġrejected": 7029,
      "Ġretain": 7030,
      "Ġheight": 7031,
      "ĠPy": 7032,
      "Ġbasket": 7033,
      "Ġemployee": 7034,
      "ĠColorado": 7035,
      "Fr": 7036,
      "tes": 7037,
      "!!!!!!!!!!!!!!!!": 7038,
      "ĠDark": 7039,
      "ĠReal": 7040,
      "post": 7041,
      "Ġdeleg": 7042,
      "Ġunknown": 7043,
      "ĠViet": 7044,
      "Ġrelationships": 7045,
      "Ġpurposes": 7046,
      "ĠWater": 7047,
      "uilding": 7048,
      "dro": 7049,
      "Ġwest": 7050,
      "Ġpic": 7051,
      "Ġchampion": 7052,
      "Ġdisag": 7053,
      "State": 7054,
      "Ġprofit": 7055,
      "Any": 7056,
      "Ġinqu": 7057,
      "Ġopponent": 7058,
      "Ġfacilities": 7059,
      "Police": 7060,
      "ĠAR": 7061,
      "ĠBest": 7062,
      "gor": 7063,
      "Ġpurs": 7064,
      "ĠDown": 7065,
      "Ġsupports": 7066,
      "acc": 7067,
      "Ġpromote": 7068,
      "06": 7069,
      "ensity": 7070,
      "Ġcutting": 7071,
      "raid": 7072,
      "Ġsky": 7073,
      "Ġscheme": 7074,
      "owered": 7075,
      "Rel": 7076,
      "Ġprotesters": 7077,
      "Ġfalling": 7078,
      "ĠHollywood": 7079,
      "icken": 7080,
      "weight": 7081,
      "Ġgoods": 7082,
      "Ġbid": 7083,
      "ĠCruz": 7084,
      "ĠWisconsin": 7085,
      "gender": 7086,
      "oric": 7087,
      "owed": 7088,
      "ĠDun": 7089,
      "vy": 7090,
      "Ġflex": 7091,
      "aire": 7092,
      "ĠThank": 7093,
      "Ġexposed": 7094,
      "Ġprimarily": 7095,
      "Ġdollar": 7096,
      "ĠMic": 7097,
      "ems": 7098,
      "Ġru": 7099,
      "Ġcontrolled": 7100,
      "Ġcontributed": 7101,
      "ĠNASA": 7102,
      "ĠPR": 7103,
      "redit": 7104,
      "ĠPutin": 7105,
      "ocation": 7106,
      "Ġdesper": 7107,
      "Ġreasonable": 7108,
      "osis": 7109,
      "Ġdeals": 7110,
      "Ġcaptured": 7111,
      "Ġplastic": 7112,
      "Ġdriven": 7113,
      "DS": 7114,
      "Ġflying": 7115,
      "ĠCivil": 7116,
      "iform": 7117,
      "ĠPS": 7118,
      "58": 7119,
      "Ġbear": 7120,
      "iscal": 7121,
      "Ġticket": 7122,
      "ĠFort": 7123,
      "Ġequival": 7124,
      "Ġhouses": 7125,
      "Mar": 7126,
      "elling": 7127,
      "Ġties": 7128,
      "ĠOld": 7129,
      "Ġsomewhere": 7130,
      "02": 7131,
      "ĠBusiness": 7132,
      "Ġcontem": 7133,
      "ĠMiami": 7134,
      "ĠDallas": 7135,
      "Ġtall": 7136,
      "ima": 7137,
      "ĠJosh": 7138,
      "Ġclar": 7139,
      "Ġsignal": 7140,
      "ĠIrish": 7141,
      "Ġletters": 7142,
      "ĠIT": 7143,
      "acking": 7144,
      "mod": 7145,
      "Ġregistered": 7146,
      "Ġconstantly": 7147,
      "Ġdistinct": 7148,
      "Ġencoun": 7149,
      "Ġconven": 7150,
      "ĠVol": 7151,
      "Ġdirected": 7152,
      "Ġdemands": 7153,
      "Ġengage": 7154,
      "Ġrefugees": 7155,
      "',": 7156,
      "Ġanymore": 7157,
      "inson": 7158,
      "axy": 7159,
      "rehens": 7160,
      "Ġprovince": 7161,
      "ĠArch": 7162,
      "Ġdeveloper": 7163,
      "itarian": 7164,
      "Ġoutcome": 7165,
      "Ġpersonally": 7166,
      "ĠScotland": 7167,
      "ĠDar": 7168,
      "ĠSC": 7169,
      "ĠCam": 7170,
      "ĠKn": 7171,
      "Ġofficially": 7172,
      "67": 7173,
      "Ġupper": 7174,
      "Ġmixed": 7175,
      "Ġfeedback": 7176,
      "Ġtrading": 7177,
      "Ġtherap": 7178,
      "âĢ²": 7179,
      "ĠDam": 7180,
      "Ġtruck": 7181,
      "Ġsituations": 7182,
      "Ġenthus": 7183,
      "ĠIP": 7184,
      "keep": 7185,
      "Ġmeetings": 7186,
      "ĠCamer": 7187,
      "Ġnewly": 7188,
      "Once": 7189,
      "mont": 7190,
      "ĠLew": 7191,
      "ogan": 7192,
      "phy": 7193,
      "Ġthreatened": 7194,
      "Ġiron": 7195,
      "ni": 7196,
      "Ġven": 7197,
      "Ġinstalled": 7198,
      "Ġgenerate": 7199,
      "Ġloan": 7200,
      "ĠCarl": 7201,
      "Ġcondem": 7202,
      "Ġsweet": 7203,
      "otes": 7204,
      "Ġrival": 7205,
      "Ġdrag": 7206,
      "Ġelectricity": 7207,
      "ĠChampionship": 7208,
      "Ġvacc": 7209,
      "Ġregularly": 7210,
      "Ġencourage": 7211,
      "earing": 7212,
      "97": 7213,
      "Ġconfig": 7214,
      "Ġincredibly": 7215,
      "oster": 7216,
      "Ġprofile": 7217,
      "Ġapartment": 7218,
      "Ġparking": 7219,
      "gery": 7220,
      "Ġfifth": 7221,
      "Ġcup": 7222,
      "FF": 7223,
      "ĠBowl": 7224,
      "Ġintellect": 7225,
      "Ġnarrative": 7226,
      "ĠBrian": 7227,
      "Ġextensive": 7228,
      "ilarly": 7229,
      "cript": 7230,
      "Ġcomprom": 7231,
      "ĠVictor": 7232,
      "ĠSP": 7233,
      "dr": 7234,
      "ĠConf": 7235,
      "alo": 7236,
      "Ġparam": 7237,
      "Ġangry": 7238,
      "rete": 7239,
      "Ġfake": 7240,
      "Ġproof": 7241,
      "Ġcomic": 7242,
      "Ġideal": 7243,
      "Today": 7244,
      "Ġboot": 7245,
      "âĢĻ.": 7246,
      "Ġnobody": 7247,
      "Ġengaged": 7248,
      "ĠSpecial": 7249,
      "Ġchosen": 7250,
      "Ġdecent": 7251,
      "Ġreturning": 7252,
      "Ġconsumption": 7253,
      "Ġestimates": 7254,
      "rett": 7255,
      "ĠJoseph": 7256,
      "Ġble": 7257,
      "Ġcontrols": 7258,
      "ĠSouthern": 7259,
      "Ġincredible": 7260,
      "amin": 7261,
      "oil": 7262,
      "pected": 7263,
      "Ġterrible": 7264,
      "Ġdrinking": 7265,
      "ĠAttorney": 7266,
      "%.": 7267,
      "owa": 7268,
      "Ġshares": 7269,
      "Ġagric": 7270,
      "Ġmayor": 7271,
      "Ġconcluded": 7272,
      "Ġsolutions": 7273,
      "Ð¾Ð": 7274,
      "etary": 7275,
      "Ġevil": 7276,
      "Ġpossession": 7277,
      "Ġvirtual": 7278,
      "300": 7279,
      "Ġsomebody": 7280,
      "Ġwestern": 7281,
      "Ġweird": 7282,
      "nesota": 7283,
      "----------------": 7284,
      "zens": 7285,
      "ĠAcadem": 7286,
      "ĠOregon": 7287,
      "Ġkil": 7288,
      "Ġresulting": 7289,
      "Ġfields": 7290,
      "ĠNight": 7291,
      "Ġexists": 7292,
      "Ġrecon": 7293,
      "ĠCD": 7294,
      "Ġ($": 7295,
      "Ġwriters": 7296,
      "Ġnegotiations": 7297,
      "Ġconclusion": 7298,
      "ura": 7299,
      "Ġstim": 7300,
      "ĠFC": 7301,
      "ĠLabor": 7302,
      "Ġchances": 7303,
      "Ġcomponents": 7304,
      "Ġraising": 7305,
      "Ġclubs": 7306,
      "Ġpolls": 7307,
      "Ġphr": 7308,
      "Ġinfect": 7309,
      "ĠAh": 7310,
      "Ġautomatically": 7311,
      "Ġelsewhere": 7312,
      "idelines": 7313,
      "))": 7314,
      "ĠBalt": 7315,
      "Ġhabit": 7316,
      "Ġfounder": 7317,
      "Ġtechnologies": 7318,
      "ĠAuthor": 7319,
      "ĠSea": 7320,
      "Ġpayments": 7321,
      "ĠOrgan": 7322,
      "star": 7323,
      "Ġprote": 7324,
      "ĠKurd": 7325,
      "Ġbench": 7326,
      "Ġgrant": 7327,
      "asters": 7328,
      "Ġrig": 7329,
      "Ġinformed": 7330,
      "Ġracial": 7331,
      "Ġteaching": 7332,
      "Ġkeeps": 7333,
      "Ġbrowser": 7334,
      "ĠWomen": 7335,
      "Ġunp": 7336,
      "obile": 7337,
      "prise": 7338,
      "Dr": 7339,
      "Ġtaught": 7340,
      "Ġperfectly": 7341,
      "ĠDespite": 7342,
      "Ġtaste": 7343,
      "oming": 7344,
      "ĠNBC": 7345,
      "Ġincl": 7346,
      "ules": 7347,
      "Ġestate": 7348,
      "Ġcomplaint": 7349,
      "Ġcrucial": 7350,
      "uan": 7351,
      "uine": 7352,
      "emen": 7353,
      "Ġdozen": 7354,
      "Ġmyth": 7355,
      "Ġtitles": 7356,
      "Ġcollected": 7357,
      "Ġharass": 7358,
      "Ġworldwide": 7359,
      "Because": 7360,
      "Ġtank": 7361,
      "ĠThough": 7362,
      "ker": 7363,
      "eda": 7364,
      "Ġcontinuing": 7365,
      "Ġcrypt": 7366,
      "abis": 7367,
      "ĠEnd": 7368,
      "ads": 7369,
      "ĠRet": 7370,
      "Ġmanip": 7371,
      "Ġcounty": 7372,
      "Ġreporter": 7373,
      "86": 7374,
      "Ġformat": 7375,
      "ĠHot": 7376,
      "Ġwithdraw": 7377,
      "Ġtied": 7378,
      "Ġtrib": 7379,
      "Ġstead": 7380,
      "ogen": 7381,
      "Also": 7382,
      "ls": 7383,
      "ĠKir": 7384,
      "Ġsight": 7385,
      "Ġpin": 7386,
      "Ġestablish": 7387,
      "Ġroutine": 7388,
      "Ġyield": 7389,
      "Ġactor": 7390,
      "Ġ42": 7391,
      "ĠConstitution": 7392,
      "Ġpilot": 7393,
      "ĠThanks": 7394,
      "Ġattended": 7395,
      "Ġgonna": 7396,
      "ĠManchester": 7397,
      "ĠWhere": 7398,
      "Ġregardless": 7399,
      "Ġaccurate": 7400,
      "Ġstuck": 7401,
      "ĠLGBT": 7402,
      "Ġdegrees": 7403,
      "tle": 7404,
      "Ġrecovery": 7405,
      "ĠZeal": 7406,
      "Ġsuccessfully": 7407,
      "ãĢ": 7408,
      "ĠJordan": 7409,
      "Ġfunny": 7410,
      "Ġinev": 7411,
      "ĠBas": 7412,
      "enders": 7413,
      "ĠItalian": 7414,
      "rep": 7415,
      "ĠDead": 7416,
      "ĠâĢĻ": 7417,
      "Ġimplementation": 7418,
      "bn": 7419,
      "Ã¼": 7420,
      "Ġextrem": 7421,
      "aun": 7422,
      "bell": 7423,
      "ĠDisney": 7424,
      "Ġpayment": 7425,
      "ĠGeorgia": 7426,
      "ifications": 7427,
      "Ġaggressive": 7428,
      "essed": 7429,
      "UR": 7430,
      "ĠMars": 7431,
      "intend": 7432,
      "Ġpenalty": 7433,
      "ĠHas": 7434,
      "Ġ1999": 7435,
      "Ġbills": 7436,
      "Ġcomplicated": 7437,
      "Ġcycl": 7438,
      "03": 7439,
      "ĠInvest": 7440,
      "%)": 7441,
      "sea": 7442,
      "Ġroot": 7443,
      "Ġtechniques": 7444,
      "apes": 7445,
      "sex": 7446,
      "John": 7447,
      "Ġhadn": 7448,
      "rypt": 7449,
      "Ġmonit": 7450,
      "iel": 7451,
      "agram": 7452,
      "CE": 7453,
      "fast": 7454,
      "Ġgro": 7455,
      "ĠâĢ¢": 7456,
      "Ġsanctions": 7457,
      "VER": 7458,
      "ĠHun": 7459,
      "Ġcompens": 7460,
      "Ġstadium": 7461,
      "ĠInf": 7462,
      "Ġsympt": 7463,
      "Sec": 7464,
      "ĠForeign": 7465,
      "Ġexplanation": 7466,
      "ria": 7467,
      "ĠView": 7468,
      "Ġgranted": 7469,
      "Ġvisible": 7470,
      "CS": 7471,
      "Pr": 7472,
      "idency": 7473,
      "Ġassistant": 7474,
      "ĠMoore": 7475,
      "Ġfold": 7476,
      "Ġminority": 7477,
      "52": 7478,
      "Ġorganized": 7479,
      "ĠSpain": 7480,
      "ĠCompany": 7481,
      "aron": 7482,
      "Ġproved": 7483,
      "there": 7484,
      "09": 7485,
      "Ġcited": 7486,
      "quarters": 7487,
      "ĠAsian": 7488,
      "Ġcorruption": 7489,
      "Ġveget": 7490,
      "ĠCare": 7491,
      "Ġexcess": 7492,
      "ĠSk": 7493,
      "Ġrepresented": 7494,
      "ĠPacific": 7495,
      "Ġju": 7496,
      "inder": 7497,
      "iana": 7498,
      "Ġcompete": 7499,
      "Ġthin": 7500,
      "Ġseats": 7501,
      "Inst": 7502,
      "ĠProgram": 7503,
      "ĠFund": 7504,
      "Ġdefence": 7505,
      "ĠColumbia": 7506,
      "Ġcoalition": 7507,
      "ĠGreek": 7508,
      "ĠChild": 7509,
      "Ġmainly": 7510,
      "Ġpace": 7511,
      "ĠTony": 7512,
      "ĠMoh": 7513,
      "Ġvisited": 7514,
      "Ġshit": 7515,
      "Ġlawmakers": 7516,
      "Ed": 7517,
      "acked": 7518,
      "Ġtaxp": 7519,
      "Ġmarked": 7520,
      "Ġsolve": 7521,
      "ked": 7522,
      "Ġcapture": 7523,
      "Ġscenes": 7524,
      "ĠVR": 7525,
      "Ġaccomp": 7526,
      "Ġoperate": 7527,
      "Ġportion": 7528,
      "pes": 7529,
      "inity": 7530,
      "ilipp": 7531,
      "Ġassistance": 7532,
      "Ġinspir": 7533,
      "Ġsufficient": 7534,
      "she": 7535,
      "ĠTaylor": 7536,
      "ĠCome": 7537,
      "ĠOper": 7538,
      "Ġ?": 7539,
      "ĠMarc": 7540,
      "lla": 7541,
      "ĠColl": 7542,
      "everal": 7543,
      "Ġinnoc": 7544,
      "Ġfir": 7545,
      "ĠCross": 7546,
      "Ġacademic": 7547,
      "Ġreputation": 7548,
      "Ġrus": 7549,
      "pread": 7550,
      "Ġads": 7551,
      "Ġuncertain": 7552,
      "Ġoverse": 7553,
      "front": 7554,
      "ĠNation": 7555,
      "Ġdisaster": 7556,
      "Ġentit": 7557,
      "Ġclients": 7558,
      "ĠBefore": 7559,
      "ali": 7560,
      "ĠBry": 7561,
      "Ġgall": 7562,
      "Ġprominent": 7563,
      "Ġtracks": 7564,
      "Ġgaming": 7565,
      "Ġcameras": 7566,
      "Ġroster": 7567,
      "gets": 7568,
      "Ġenjoyed": 7569,
      "Ġaimed": 7570,
      "erm": 7571,
      "Ġloud": 7572,
      "idespread": 7573,
      "Ġ150": 7574,
      "Ġ39": 7575,
      "sylv": 7576,
      "Ġmagic": 7577,
      "Ġlawyers": 7578,
      "MS": 7579,
      "ĠUt": 7580,
      "ĠLook": 7581,
      "Ġsaved": 7582,
      "Ġelite": 7583,
      "ĠMcCain": 7584,
      "uts": 7585,
      "rage": 7586,
      "ibilities": 7587,
      "Ġlosses": 7588,
      "ĠKingdom": 7589,
      "Ġfought": 7590,
      "Ġprinciples": 7591,
      "Ġpermanent": 7592,
      "ĠPremier": 7593,
      "bro": 7594,
      "ĠPolicy": 7595,
      "Ġthousand": 7596,
      "ĠId": 7597,
      "Ġplug": 7598,
      "Ġadopted": 7599,
      "ĠKent": 7600,
      "Ġ44": 7601,
      "Ġemerged": 7602,
      "icate": 7603,
      "ĠLinux": 7604,
      "ĠAli": 7605,
      "Ġborrow": 7606,
      "Ġenable": 7607,
      "ĠMinnesota": 7608,
      "Ġdowntown": 7609,
      "anna": 7610,
      "Ġafraid": 7611,
      "adelph": 7612,
      "Ne": 7613,
      "orne": 7614,
      "lls": 7615,
      "ĠZealand": 7616,
      "69": 7617,
      "NE": 7618,
      "Ġtur": 7619,
      "ĠFair": 7620,
      "ĠMedicine": 7621,
      "ifies": 7622,
      "Ġblind": 7623,
      "onic": 7624,
      "Ġstrict": 7625,
      "Ġapolog": 7626,
      "Ġawesome": 7627,
      "istent": 7628,
      "Ġtor": 7629,
      "Ġvaluable": 7630,
      "Ġlaid": 7631,
      "ĠSeries": 7632,
      "imore": 7633,
      "upid": 7634,
      "ras": 7635,
      "Ġduty": 7636,
      "ĠGall": 7637,
      "ĠEduc": 7638,
      "Ġconspir": 7639,
      "Ġprocesses": 7640,
      "Ġbaseball": 7641,
      "this": 7642,
      "aturally": 7643,
      "itals": 7644,
      "Ġintense": 7645,
      "inking": 7646,
      "Ġpatterns": 7647,
      "ĠEmp": 7648,
      "ĠSenator": 7649,
      "Ġcounsel": 7650,
      "Ġrecip": 7651,
      "ĠParliament": 7652,
      "imm": 7653,
      "Ġindex": 7654,
      "ĠTake": 7655,
      "Ġenorm": 7656,
      "Ġ1998": 7657,
      "Ġdescribes": 7658,
      "ĠKelly": 7659,
      "Ġsurvive": 7660,
      "Ġtroub": 7661,
      "lers": 7662,
      "ĠServices": 7663,
      "writ": 7664,
      "Ġ400": 7665,
      "Ġanticip": 7666,
      "ĠLatin": 7667,
      "ja": 7668,
      "ĠAvenue": 7669,
      "Ġrelief": 7670,
      "cow": 7671,
      "fr": 7672,
      "Ġresulted": 7673,
      "Ġgenuine": 7674,
      "elect": 7675,
      "ĠClass": 7676,
      "Ġcrop": 7677,
      "Ġdict": 7678,
      "Ġrecording": 7679,
      "Ġwarming": 7680,
      "gun": 7681,
      "Ġmachines": 7682,
      "Ġbusy": 7683,
      "Ġrarely": 7684,
      "Ġequivalent": 7685,
      "oz": 7686,
      "Ġunusual": 7687,
      "ĠEp": 7688,
      "Ġmail": 7689,
      "Ġhidden": 7690,
      "Ġrating": 7691,
      "ĠNext": 7692,
      "ĠOak": 7693,
      "Ġformal": 7694,
      "ĠContin": 7695,
      "Ġmedium": 7696,
      "ĠStill": 7697,
      "orough": 7698,
      "Me": 7699,
      "ĠAlbert": 7700,
      "</": 7701,
      "ĠJac": 7702,
      "Ġblocks": 7703,
      "Ġexception": 7704,
      "bec": 7705,
      "Ġpod": 7706,
      "Ġstrikes": 7707,
      "adelphia": 7708,
      "viously": 7709,
      "Ġthick": 7710,
      "ĠCur": 7711,
      "ĠMah": 7712,
      "Ġshortly": 7713,
      "sylvania": 7714,
      "from": 7715,
      "ĠMarket": 7716,
      "Ġmel": 7717,
      "Ġpersonnel": 7718,
      "gorith": 7719,
      "een": 7720,
      "ĠReport": 7721,
      "month": 7722,
      "Ġsup": 7723,
      "cription": 7724,
      "ĠTw": 7725,
      "raph": 7726,
      "Getty": 7727,
      "reams": 7728,
      "imp": 7729,
      "ĠFre": 7730,
      "Ġbehalf": 7731,
      "Ġaudio": 7732,
      "Ġtox": 7733,
      "lah": 7734,
      "Ġmo": 7735,
      "abama": 7736,
      "Ġdiscipl": 7737,
      "Ġdepending": 7738,
      "51": 7739,
      "ĠNavy": 7740,
      "herent": 7741,
      "ĠCapt": 7742,
      "RS": 7743,
      "ĠScient": 7744,
      "Ġadvis": 7745,
      "Ġexpectations": 7746,
      "Ġcorporations": 7747,
      "amber": 7748,
      "Ġsharp": 7749,
      "Ġspin": 7750,
      "making": 7751,
      "Ġdistr": 7752,
      "ĠEastern": 7753,
      "ĠDiego": 7754,
      "uce": 7755,
      "ĠNorthern": 7756,
      "ĠRay": 7757,
      "ĠFood": 7758,
      "Ġextension": 7759,
      "uma": 7760,
      "kish": 7761,
      "Ġcomputers": 7762,
      "ounced": 7763,
      "Ġentering": 7764,
      "ureau": 7765,
      "Ġpropag": 7766,
      "ĠCoast": 7767,
      "Ġ1960": 7768,
      "Ġparticipate": 7769,
      "Mean": 7770,
      "Ġfault": 7771,
      "ĠTurn": 7772,
      "ĠLA": 7773,
      "Ġexplicit": 7774,
      "otted": 7775,
      "Ġnominee": 7776,
      "Ġbes": 7777,
      "etts": 7778,
      "Ġneighb": 7779,
      "Ġphilosophy": 7780,
      "Ġstable": 7781,
      "Ġstations": 7782,
      "ĠESP": 7783,
      "Ġexposure": 7784,
      "Ġprogramming": 7785,
      "Ġshock": 7786,
      "Ġwonderful": 7787,
      "Ġveteran": 7788,
      "MP": 7789,
      "Off": 7790,
      "Ġhired": 7791,
      "Ġfounded": 7792,
      "athy": 7793,
      "Ġdestruction": 7794,
      "Ġeverywhere": 7795,
      "Ġproducer": 7796,
      "Ġeuro": 7797,
      "text": 7798,
      "Ġhistoric": 7799,
      "ystem": 7800,
      "olen": 7801,
      "asion": 7802,
      "ĠOS": 7803,
      "inding": 7804,
      "away": 7805,
      "Ġfinance": 7806,
      "Ġcreates": 7807,
      "HA": 7808,
      "Ġwidespread": 7809,
      "Ġliked": 7810,
      "53": 7811,
      "87": 7812,
      "Er": 7813,
      "thew": 7814,
      "ouch": 7815,
      "ĠMu": 7816,
      "ĠMajor": 7817,
      "Ġcyber": 7818,
      "ĠIns": 7819,
      "interest": 7820,
      "ĠIowa": 7821,
      "ĠFred": 7822,
      "Ġships": 7823,
      "ml": 7824,
      "Ġworker": 7825,
      "Ġdrawing": 7826,
      "Ġdinner": 7827,
      "Ġacceler": 7828,
      "Ġdiscrimination": 7829,
      "ĠHard": 7830,
      "umer": 7831,
      "Ġmanufacturing": 7832,
      "ĠOtt": 7833,
      "Ġrecru": 7834,
      "Ġcaptain": 7835,
      "Ġpermission": 7836,
      "car": 7837,
      "ĠOF": 7838,
      "Ġprivile": 7839,
      "Ġprofession": 7840,
      "Ġvulnerable": 7841,
      "LC": 7842,
      "Ġcable": 7843,
      "ĠFull": 7844,
      "Ġjournalist": 7845,
      "igen": 7846,
      "agger": 7847,
      "ĠJason": 7848,
      "Ġ64": 7849,
      "ĠRick": 7850,
      "Ġspark": 7851,
      "Ġridic": 7852,
      "hent": 7853,
      "Ġaffili": 7854,
      "Ġsacr": 7855,
      "Ġengineering": 7856,
      "Ġbath": 7857,
      "ĠNHL": 7858,
      "Ġarrange": 7859,
      "Col": 7860,
      "Ġcontracts": 7861,
      "Ġcollapse": 7862,
      "izon": 7863,
      "Ġbom": 7864,
      "Ġroles": 7865,
      "Ġconvicted": 7866,
      "Ġrely": 7867,
      "ĠAnth": 7868,
      "olis": 7869,
      "olves": 7870,
      "Ġarray": 7871,
      "Ġfeelings": 7872,
      "Ġtoler": 7873,
      "Ġprogressive": 7874,
      "oured": 7875,
      "Ġreduction": 7876,
      "Ġscenario": 7877,
      "Mc": 7878,
      "Ġobst": 7879,
      "\".[": 7880,
      "Rec": 7881,
      "ĠOl": 7882,
      "ĠAdministration": 7883,
      "ATO": 7884,
      "Ġminds": 7885,
      "athered": 7886,
      "Ġbrut": 7887,
      "ologists": 7888,
      "da": 7889,
      "mann": 7890,
      "ĠAsh": 7891,
      "Ġrestrictions": 7892,
      "ĠCentre": 7893,
      "ĠFoot": 7894,
      "ĠNote": 7895,
      "Ġchampionship": 7896,
      "Ġuniform": 7897,
      "Ġwebsites": 7898,
      "ĠDevelopment": 7899,
      "ĠOs": 7900,
      "ogether": 7901,
      "Ġheaded": 7902,
      "Ġpasses": 7903,
      "Ġstruggling": 7904,
      "antic": 7905,
      "who": 7906,
      "scape": 7907,
      "ĠHenry": 7908,
      "Ġbail": 7909,
      "ĠPennsylvania": 7910,
      "arlier": 7911,
      "Ġhang": 7912,
      "ĠMS": 7913,
      "ĠHom": 7914,
      "Ġdoors": 7915,
      "omething": 7916,
      "rient": 7917,
      "Ġprinciple": 7918,
      "ĠAp": 7919,
      "Star": 7920,
      "Ġachieved": 7921,
      "ĠRose": 7922,
      "ĠLive": 7923,
      "Ġgenetic": 7924,
      "alling": 7925,
      "Ġfoundation": 7926,
      "ĠLittle": 7927,
      "then": 7928,
      "ashes": 7929,
      "ĠNick": 7930,
      "Ġlayer": 7931,
      "Ġasks": 7932,
      "Ġcampaigns": 7933,
      "Ġnormally": 7934,
      "Ġscores": 7935,
      "ilton": 7936,
      "Ġcomponent": 7937,
      "Ġgenerated": 7938,
      "Ġrecognized": 7939,
      "ĠConservative": 7940,
      "enth": 7941,
      "cles": 7942,
      "oen": 7943,
      "enny": 7944,
      "Ġsin": 7945,
      "Ġspr": 7946,
      "Ġmilk": 7947,
      "Ġlights": 7948,
      "Ġdeliber": 7949,
      "opher": 7950,
      "teen": 7951,
      "Ġrecognition": 7952,
      "ĠThree": 7953,
      "world": 7954,
      "ĠGreg": 7955,
      "ĠTele": 7956,
      "ĠMedical": 7957,
      "engers": 7958,
      "usive": 7959,
      "Ġsensitive": 7960,
      "Before": 7961,
      "Ġfee": 7962,
      "Ġdeserv": 7963,
      "dney": 7964,
      "portion": 7965,
      "Ġgrass": 7966,
      "Ġcarefully": 7967,
      "Ġelev": 7968,
      "abinet": 7969,
      "Ġphones": 7970,
      "mate": 7971,
      "Ġaver": 7972,
      "Ġbanned": 7973,
      "profit": 7974,
      "Ġanger": 7975,
      "Ġ55": 7976,
      "Ġrapidly": 7977,
      "Ġbrew": 7978,
      "Ġelectronic": 7979,
      "ATE": 7980,
      "ĠThus": 7981,
      "Ġtickets": 7982,
      "85": 7983,
      "har": 7984,
      "ĠTenn": 7985,
      "ĠSnow": 7986,
      "ĠMid": 7987,
      "Ġ65": 7988,
      "ĠPhilipp": 7989,
      "Meanwhile": 7990,
      "Ġfiscal": 7991,
      "Ġhole": 7992,
      "Ġneutral": 7993,
      "ĠKat": 7994,
      "ĠPhiladelphia": 7995,
      "Ġunemployment": 7996,
      "ca": 7997,
      "etime": 7998,
      "Ġrif": 7999,
      "Ġ43": 8000,
      "Ġphotograph": 8001,
      "found": 8002,
      "Ġdozens": 8003,
      "ĠBrother": 8004,
      "isp": 8005,
      "ĠSn": 8006,
      "Ġcontaining": 8007,
      "Ġproducing": 8008,
      "Ġren": 8009,
      "core": 8010,
      "heast": 8011,
      "ĠAlabama": 8012,
      "Ġeastern": 8013,
      "Ġbegun": 8014,
      "ester": 8015,
      "Ġho": 8016,
      "ĠPen": 8017,
      "ulating": 8018,
      "ĠReuters": 8019,
      "page": 8020,
      "Ġpump": 8021,
      "Ġsmoke": 8022,
      "Ġindicate": 8023,
      "96": 8024,
      "Ġexceed": 8025,
      "Ġhumanity": 8026,
      "Ġtail": 8027,
      "Ġincent": 8028,
      "Ġassociation": 8029,
      "Ref": 8030,
      "usse": 8031,
      "Ġtip": 8032,
      "Ġpriority": 8033,
      "Ġplate": 8034,
      "ye": 8035,
      "ĠPay": 8036,
      "ĠLight": 8037,
      "Ġflaw": 8038,
      "EA": 8039,
      "ser": 8040,
      "Ġbeliefs": 8041,
      "ĠTem": 8042,
      "ĠVeg": 8043,
      "Ġsynt": 8044,
      "ĠAL": 8045,
      "ĠUFC": 8046,
      "Ġflash": 8047,
      "ĠTest": 8048,
      "Ġuncom": 8049,
      "Ġtackle": 8050,
      "Ġexclusive": 8051,
      "Ġsurgery": 8052,
      "Ġstructures": 8053,
      "riers": 8054,
      "ĠRoyal": 8055,
      "Ġbridge": 8056,
      "ĠHell": 8057,
      "osm": 8058,
      "Ġepisodes": 8059,
      "Ġpounds": 8060,
      "Ġgained": 8061,
      "ami": 8062,
      "Ġrose": 8063,
      "Ġbranch": 8064,
      "Ġforever": 8065,
      "aka": 8066,
      "ĠRoman": 8067,
      "lahoma": 8068,
      "Ġlists": 8069,
      "ĠStone": 8070,
      "achus": 8071,
      "Ġterrorists": 8072,
      "Ġadvertising": 8073,
      "aching": 8074,
      "Ġbacked": 8075,
      "Ġlistening": 8076,
      "Ġsteel": 8077,
      "Ġratio": 8078,
      "ĠAcademy": 8079,
      "Ġfirms": 8080,
      "aning": 8081,
      "Ġhide": 8082,
      "osexual": 8083,
      "Ġscoring": 8084,
      "Ġconstitutional": 8085,
      "ĠWalker": 8086,
      "umin": 8087,
      "eland": 8088,
      "Ġsoil": 8089,
      "Ġsuggesting": 8090,
      "Ġdeeper": 8091,
      "âĢĻ,": 8092,
      "ĠNob": 8093,
      "Ġrecover": 8094,
      "Ġutil": 8095,
      "Ġcorn": 8096,
      "ĠAI": 8097,
      "weet": 8098,
      "Ġpractical": 8099,
      "ĠGlobal": 8100,
      "BO": 8101,
      "Ġalgorith": 8102,
      "rical": 8103,
      "jo": 8104,
      "Ġfootage": 8105,
      "Ġsettlement": 8106,
      "ĠReview": 8107,
      "Ġbra": 8108,
      "uties": 8109,
      "ĠMir": 8110,
      "ĠBull": 8111,
      "Ġperpet": 8112,
      "ĠPerhaps": 8113,
      "ĠRuby": 8114,
      "icket": 8115,
      "Ġmovements": 8116,
      "Ġdevast": 8117,
      "Ġinterviews": 8118,
      "Ġhitting": 8119,
      "aska": 8120,
      "Ġracist": 8121,
      "serv": 8122,
      "wr": 8123,
      "abil": 8124,
      "ĠBaltimore": 8125,
      "ĠDig": 8126,
      "abs": 8127,
      "senal": 8128,
      "ĠSaf": 8129,
      "Ġprocessing": 8130,
      "Ġliquid": 8131,
      "Ġprepare": 8132,
      "FA": 8133,
      "ĠStadium": 8134,
      "Ġtag": 8135,
      "ouver": 8136,
      "Ġreaching": 8137,
      "plete": 8138,
      "isa": 8139,
      "Ġchallenging": 8140,
      "Ġwalls": 8141,
      "iti": 8142,
      "ipal": 8143,
      "Ġrobot": 8144,
      "Ġfears": 8145,
      "achusetts": 8146,
      "Ġburd": 8147,
      "Ġhook": 8148,
      "Ġreducing": 8149,
      "Ġ47": 8150,
      "Ġcasual": 8151,
      "Ġgear": 8152,
      "owing": 8153,
      "Ġcontribute": 8154,
      "ĠMayor": 8155,
      "Co": 8156,
      "ington": 8157,
      "ione": 8158,
      "ĠRand": 8159,
      "Ġairport": 8160,
      "Ġbarely": 8161,
      "Ġunex": 8162,
      "rolled": 8163,
      "Ġ46": 8164,
      "Ġunclear": 8165,
      "Ġfinger": 8166,
      "ĠBattle": 8167,
      "Ġ41": 8168,
      "Ġlegend": 8169,
      "Ġestablishment": 8170,
      "Ġsettle": 8171,
      "ĠRa": 8172,
      "angel": 8173,
      "Ġfriendly": 8174,
      "including": 8175,
      "ĠData": 8176,
      "Ġcivilians": 8177,
      "Ġoverwhelming": 8178,
      "Ġproven": 8179,
      "Ġnotion": 8180,
      "Dav": 8181,
      "Ġconvin": 8182,
      "worth": 8183,
      "ifest": 8184,
      "ĠAbout": 8185,
      "Ġinvolvement": 8186,
      "PG": 8187,
      "Ġsmooth": 8188,
      "Ġelig": 8189,
      "pat": 8190,
      "osa": 8191,
      "Those": 8192,
      "Ġì": 8193,
      "Ġporn": 8194,
      "inois": 8195,
      "fall": 8196,
      "Ġalien": 8197,
      "Ġcha": 8198,
      "Ġupset": 8199,
      "Ġ1996": 8200,
      "Ã¢": 8201,
      "ĠHoward": 8202,
      "ĠMusic": 8203,
      "Ġinterface": 8204,
      "ĠKey": 8205,
      "ĠJudge": 8206,
      "ancouver": 8207,
      "Ġinvestigate": 8208,
      "BM": 8209,
      "Ġpapers": 8210,
      "lan": 8211,
      "Ġocean": 8212,
      "unior": 8213,
      "Ġhandful": 8214,
      "appy": 8215,
      "________________": 8216,
      "GO": 8217,
      "ĠHD": 8218,
      "udes": 8219,
      "Ġindicated": 8220,
      "Te": 8221,
      "ĠHon": 8222,
      "âĢĶâĢĶâĢĶâĢĶâĢĶâĢĶâĢĶâĢĶ": 8223,
      "mal": 8224,
      "ĠSir": 8225,
      "Ġincorpor": 8226,
      "ĠField": 8227,
      "burgh": 8228,
      "power": 8229,
      "Ġanybody": 8230,
      "ĠArm": 8231,
      "Ġpurchased": 8232,
      "Ġmining": 8233,
      "lessly": 8234,
      "aver": 8235,
      "fare": 8236,
      "ĠNC": 8237,
      "Ġregistr": 8238,
      "Ġintellectual": 8239,
      "ĠAllen": 8240,
      "Ġwelf": 8241,
      "Ġjury": 8242,
      "Ġversus": 8243,
      "Ġstatistics": 8244,
      "Ġfarmers": 8245,
      "Ġbasketball": 8246,
      "ĠLuc": 8247,
      "Ġrepresentative": 8248,
      "PP": 8249,
      "eman": 8250,
      "ĠAS": 8251,
      "Ġroads": 8252,
      "ĠCirc": 8253,
      "Ġwheel": 8254,
      "Ġcontained": 8255,
      "Ġinvited": 8256,
      "Ġretired": 8257,
      "Ġcitizen": 8258,
      "ĠESPN": 8259,
      "Ġplatforms": 8260,
      "President": 8261,
      "Ġfiction": 8262,
      "ĠOK": 8263,
      "Ġ->": 8264,
      "Ġdepos": 8265,
      "Ġgrounds": 8266,
      "rous": 8267,
      "Ġattacking": 8268,
      "Ġaffairs": 8269,
      "Ġviewers": 8270,
      "Ġrespectively": 8271,
      "400": 8272,
      "Ġsugar": 8273,
      "Ġremem": 8274,
      "dem": 8275,
      "Ġfoss": 8276,
      "Ġequally": 8277,
      "Ġneighbour": 8278,
      "GE": 8279,
      "Ġdeputy": 8280,
      "ĠHarry": 8281,
      "Ġwing": 8282,
      "Ġthrown": 8283,
      "Ġentr": 8284,
      "Ġtransm": 8285,
      "ependent": 8286,
      "Under": 8287,
      "Ġtasks": 8288,
      "Ġvary": 8289,
      "ĠGaza": 8290,
      "Ġinteract": 8291,
      "Ġcoc": 8292,
      "ĠHo": 8293,
      "Ġconnections": 8294,
      "Ġwelfare": 8295,
      "tc": 8296,
      "Ġinvent": 8297,
      "Ġdescription": 8298,
      "ĠEducation": 8299,
      "ĠDid": 8300,
      "Ġloyal": 8301,
      "Ġsubjects": 8302,
      "Ġcollective": 8303,
      "ĠHind": 8304,
      "arrass": 8305,
      "Ġrural": 8306,
      "Ġreviews": 8307,
      "Ġillness": 8308,
      "Ġreferring": 8309,
      "79": 8310,
      "ĠHit": 8311,
      "ubb": 8312,
      "Ġedition": 8313,
      "ĠPrince": 8314,
      "Ġhanded": 8315,
      "Who": 8316,
      "::": 8317,
      "ĠRoy": 8318,
      "Ġstupid": 8319,
      "Ġexternal": 8320,
      "Ġcomprehens": 8321,
      "Ġterr": 8322,
      "Ġownership": 8323,
      "ĠCommunity": 8324,
      "Ġjoy": 8325,
      "Ġremarks": 8326,
      "annels": 8327,
      "Ġdelivery": 8328,
      "ĠAle": 8329,
      "Ġvital": 8330,
      "Che": 8331,
      "ĠNic": 8332,
      "Ġbrown": 8333,
      "iverpool": 8334,
      "Ġindependence": 8335,
      "ÂĴ": 8336,
      "aying": 8337,
      "ira": 8338,
      "umes": 8339,
      "Ġtestim": 8340,
      "wered": 8341,
      "Ġtransgender": 8342,
      "Ġimprovements": 8343,
      "ĠKansas": 8344,
      "Ġtechnique": 8345,
      "Ġ1997": 8346,
      "hour": 8347,
      "log": 8348,
      "Ġfab": 8349,
      "Ġlegs": 8350,
      "Ġlobby": 8351,
      "Ġhardly": 8352,
      "ĠiP": 8353,
      "ĠAmendment": 8354,
      "Ġbrothers": 8355,
      "Ġexpanded": 8356,
      "esy": 8357,
      "Ġ%": 8358,
      "ecut": 8359,
      "Ġpublication": 8360,
      "RI": 8361,
      "ĠLo": 8362,
      "ĠShare": 8363,
      "ĠConference": 8364,
      "Ġsuffer": 8365,
      "Ġignore": 8366,
      "ĠFurther": 8367,
      "irlf": 8368,
      "ĠLyn": 8369,
      "Ġdefine": 8370,
      "ĠPrice": 8371,
      "Ġestimate": 8372,
      "Ġdomain": 8373,
      "agh": 8374,
      "Ġjoining": 8375,
      "Ġastron": 8376,
      "Ġriver": 8377,
      "Ġactors": 8378,
      "Ġprosec": 8379,
      "Ġusage": 8380,
      "ĠMinistry": 8381,
      "Ġgam": 8382,
      "acon": 8383,
      "adi": 8384,
      "ĠRoss": 8385,
      "Ġdepends": 8386,
      "Ġfailing": 8387,
      "ĠMassachusetts": 8388,
      "ĠRadio": 8389,
      "Ġaccus": 8390,
      "iculture": 8391,
      "ĠLewis": 8392,
      "irlfriend": 8393,
      "Ġwars": 8394,
      "Ġsatellite": 8395,
      "Will": 8396,
      "Ġsoph": 8397,
      "Ġserves": 8398,
      "ĠIraqi": 8399,
      "Ġneuro": 8400,
      "ĠGreece": 8401,
      "iversary": 8402,
      "Ġconvinced": 8403,
      "ĠGov": 8404,
      "News": 8405,
      "ĠMoscow": 8406,
      "76": 8407,
      "tering": 8408,
      "Ġconversations": 8409,
      "ĠMexican": 8410,
      "Ġcannabis": 8411,
      "Ġchat": 8412,
      "Ġlicens": 8413,
      "Ġreferend": 8414,
      "uer": 8415,
      "ĠMcG": 8416,
      "Ġlanguages": 8417,
      "ĠTown": 8418,
      "ĠNSA": 8419,
      "ultural": 8420,
      "PC": 8421,
      "Ġclimb": 8422,
      "cover": 8423,
      "Look": 8424,
      "Ġgathered": 8425,
      "Ġspiritual": 8426,
      "ĠGuardian": 8427,
      "Ġgift": 8428,
      "Ġregister": 8429,
      "Ġsamples": 8430,
      "unes": 8431,
      "Ġovert": 8432,
      "Ġdiscussions": 8433,
      "Ġsuspected": 8434,
      "Ġenormous": 8435,
      "ĠFreedom": 8436,
      "Ġfro": 8437,
      "quest": 8438,
      "Ġstayed": 8439,
      "About": 8440,
      "Ġluck": 8441,
      "ĠHor": 8442,
      "ĠSydney": 8443,
      "Ġshr": 8444,
      "Ġcovers": 8445,
      "Ġreader": 8446,
      "rets": 8447,
      "Ġinvestigating": 8448,
      "Ð»": 8449,
      "ĠAtlanta": 8450,
      "aus": 8451,
      "ĠChair": 8452,
      "Ġadmit": 8453,
      "Ġlegitimate": 8454,
      "ĠSus": 8455,
      "Ġfrag": 8456,
      "Ġcareful": 8457,
      "ĠOklahoma": 8458,
      "Ġreven": 8459,
      "ĠSuch": 8460,
      "Ġfeaturing": 8461,
      "ĠCore": 8462,
      "Ġsteal": 8463,
      "Ġparalle": 8464,
      "ĠQueen": 8465,
      "ĠTai": 8466,
      "Ġraw": 8467,
      "usted": 8468,
      "Ġattached": 8469,
      "Ġreprodu": 8470,
      "Ġdepression": 8471,
      "ikes": 8472,
      "UL": 8473,
      "ĠCow": 8474,
      "ĠRen": 8475,
      "Ġingred": 8476,
      "Ass": 8477,
      "PM": 8478,
      "Ġbread": 8479,
      "Ġamid": 8480,
      "icity": 8481,
      "Ġdiscovery": 8482,
      "Ġultimate": 8483,
      "Ġstrategic": 8484,
      "ĠCost": 8485,
      "Ġinvolves": 8486,
      "Ġactivist": 8487,
      "Script": 8488,
      "Ġdisagree": 8489,
      "Ġstake": 8490,
      "Ġimplemented": 8491,
      "Ġethnic": 8492,
      "EE": 8493,
      "eters": 8494,
      "ĠHay": 8495,
      "Ġneck": 8496,
      "Ġpoly": 8497,
      "Ġinflation": 8498,
      "Ġfantastic": 8499,
      "Ġfallen": 8500,
      "oding": 8501,
      "Ġpeak": 8502,
      "Ġholiday": 8503,
      "Note": 8504,
      "ĠCO": 8505,
      "ĠNever": 8506,
      "Ġscandal": 8507,
      "Ġawareness": 8508,
      "Ġfed": 8509,
      "Ġthrew": 8510,
      "claim": 8511,
      "Ġbarrel": 8512,
      "ĠTour": 8513,
      "Ġdeficit": 8514,
      "Ġregulation": 8515,
      "Ġrecommended": 8516,
      "HS": 8517,
      "iture": 8518,
      "Ġbrill": 8519,
      "Ġwarrant": 8520,
      "ĠPlus": 8521,
      "Ġtemporary": 8522,
      "ais": 8523,
      "Ġinvestigators": 8524,
      "Ġabandoned": 8525,
      "dri": 8526,
      "Ġdiversity": 8527,
      "Ġscholars": 8528,
      "Ġsymptoms": 8529,
      "Ġwages": 8530,
      "ĠPent": 8531,
      "kes": 8532,
      "oln": 8533,
      "Ġsubstantial": 8534,
      "ĠBra": 8535,
      "ĠLy": 8536,
      "Ġextend": 8537,
      "Ġfactory": 8538,
      "gener": 8539,
      "Ġcust": 8540,
      "ĠSS": 8541,
      "ĠAction": 8542,
      "ĠPatrick": 8543,
      "Ġbehaviour": 8544,
      "Ġsorry": 8545,
      "Ġpreced": 8546,
      "Ġmortg": 8547,
      "Ġscreens": 8548,
      "Ġextraord": 8549,
      "Ġresource": 8550,
      "Ġcontributions": 8551,
      "Ġsuspended": 8552,
      "ĠEs": 8553,
      "Ġpopulations": 8554,
      ".-": 8555,
      "Back": 8556,
      "Ġsettings": 8557,
      "Ġvirtually": 8558,
      "Ġinitiative": 8559,
      "mary": 8560,
      "Ġjur": 8561,
      "ĠArk": 8562,
      "ijing": 8563,
      "Ġcovering": 8564,
      "ĠBelg": 8565,
      "Ġwww": 8566,
      "ĠAD": 8567,
      "ĠForm": 8568,
      "Ġoffices": 8569,
      "ĠAustin": 8570,
      "Ġanxiety": 8571,
      "Ġpersonality": 8572,
      "Ġham": 8573,
      "Ġcontroversy": 8574,
      "Ġtweeted": 8575,
      "otype": 8576,
      "Ġdynamic": 8577,
      "ĠSquare": 8578,
      "ĠDivision": 8579,
      "74": 8580,
      "Ġranks": 8581,
      "ĠRef": 8582,
      "Ġpassengers": 8583,
      "Ġpremium": 8584,
      "ĠBang": 8585,
      "Ġattempting": 8586,
      "72": 8587,
      "ba": 8588,
      "ĠVancouver": 8589,
      "ĠBlake": 8590,
      "ĠAdv": 8591,
      "Ġsilver": 8592,
      "ĠLind": 8593,
      "ĠUlt": 8594,
      "ective": 8595,
      "ĠDeath": 8596,
      "Ġpetition": 8597,
      "Ġinquir": 8598,
      "ources": 8599,
      "ĠBernie": 8600,
      "Ġdramatic": 8601,
      "cut": 8602,
      "cific": 8603,
      "Ġ_": 8604,
      "Ġfulf": 8605,
      "Ġfruit": 8606,
      "Ġprofits": 8607,
      "********": 8608,
      "Ġtomorrow": 8609,
      "case": 8610,
      "Ġnerv": 8611,
      "Ġentertainment": 8612,
      "ĠIllinois": 8613,
      "\")": 8614,
      "Ġbacter": 8615,
      "Ġnoting": 8616,
      "Ġincidents": 8617,
      "Ġopinions": 8618,
      "UN": 8619,
      "Related": 8620,
      "ila": 8621,
      "Ġpromises": 8622,
      "%,": 8623,
      "Sm": 8624,
      "Ġstolen": 8625,
      "Ġaddressed": 8626,
      "ĠIII": 8627,
      "Ġmountain": 8628,
      "uten": 8629,
      "Ġefficiency": 8630,
      "Ġguest": 8631,
      "Ġtone": 8632,
      "isk": 8633,
      "ĠNATO": 8634,
      "Ġtwenty": 8635,
      "itionally": 8636,
      "Ġabsence": 8637,
      "Ġimprovement": 8638,
      "Ġinject": 8639,
      "sels": 8640,
      "Ġfantasy": 8641,
      "ammed": 8642,
      "isting": 8643,
      "ĠInformation": 8644,
      "ĠBeach": 8645,
      "Ġframework": 8646,
      "icking": 8647,
      "lete": 8648,
      "hot": 8649,
      "yer": 8650,
      "ĠCall": 8651,
      "pload": 8652,
      "Ġadvocates": 8653,
      "Ġstone": 8654,
      "Ġ2019": 8655,
      "Where": 8656,
      "ĠMuseum": 8657,
      "abeth": 8658,
      "Sen": 8659,
      "inch": 8660,
      "reate": 8661,
      "ĠABC": 8662,
      "Ġpreserv": 8663,
      "Ġcomplaints": 8664,
      "Ġtransportation": 8665,
      "eding": 8666,
      "Ġinner": 8667,
      "Ġscope": 8668,
      "Ġdistributed": 8669,
      "xit": 8670,
      "Ġprotecting": 8671,
      "ĠHarvard": 8672,
      "ĠAnton": 8673,
      "leveland": 8674,
      "Ġjoke": 8675,
      "Ġloans": 8676,
      "BN": 8677,
      "Ġsalt": 8678,
      "Ġmenu": 8679,
      "Ġpersons": 8680,
      "Ġles": 8681,
      "Ġconce": 8682,
      "Ġhorror": 8683,
      "say": 8684,
      "Ġvoter": 8685,
      "ĠPoint": 8686,
      "Ġchapter": 8687,
      "Ġdemocratic": 8688,
      "Ġencouraged": 8689,
      "lad": 8690,
      "Ġbars": 8691,
      "Ġovers": 8692,
      "Ġimproving": 8693,
      "Ġtrigger": 8694,
      "ĠCameron": 8695,
      "Ġseemingly": 8696,
      "Ġcommonly": 8697,
      "âĢĭ": 8698,
      "Ġrevel": 8699,
      "Ġheading": 8700,
      "ĠâĤ¬": 8701,
      "Ġguarantee": 8702,
      "Ġhypot": 8703,
      "Ġraces": 8704,
      "Ġappreciate": 8705,
      "Ġskept": 8706,
      "89": 8707,
      "Part": 8708,
      "Ġdance": 8709,
      "Ġ52": 8710,
      "Ġbreaks": 8711,
      "Ġresign": 8712,
      "ĠWhich": 8713,
      "orge": 8714,
      "Ġgains": 8715,
      "Ġyellow": 8716,
      "ĠBron": 8717,
      "Ġdispl": 8718,
      "Ġtemperatures": 8719,
      "yard": 8720,
      "Ġattitude": 8721,
      "Ġmedicine": 8722,
      "Ġembarrass": 8723,
      "Ġranked": 8724,
      "Ġreplacement": 8725,
      "Ġappointed": 8726,
      "'.": 8727,
      "Her": 8728,
      "ĠProfessor": 8729,
      "Ġreferendum": 8730,
      "ho": 8731,
      "ĠArabia": 8732,
      "ĠCooper": 8733,
      "Ġhomeless": 8734,
      "aeda": 8735,
      "low": 8736,
      "ĠOnt": 8737,
      "Ġpresum": 8738,
      "type": 8739,
      "Ġlowest": 8740,
      "Ġlucky": 8741,
      "Ġheadquarters": 8742,
      "Ġviewed": 8743,
      "Please": 8744,
      "Ġrender": 8745,
      "Ġdivided": 8746,
      "ivals": 8747,
      "Ġmembership": 8748,
      "Ġmidfield": 8749,
      "ĠCheck": 8750,
      "ĠSpring": 8751,
      "amsung": 8752,
      "Ġconservatives": 8753,
      "Ġpartnership": 8754,
      "Ġclothes": 8755,
      "mat": 8756,
      "Ġlocked": 8757,
      "Ġcoaches": 8758,
      "Ġtrained": 8759,
      "Ġvisitors": 8760,
      "Ġthrowing": 8761,
      "Ġdad": 8762,
      "geon": 8763,
      "Ġspaces": 8764,
      "Ġportray": 8765,
      "Ġsurvival": 8766,
      "usalem": 8767,
      "ĠVegas": 8768,
      "Ġli": 8769,
      "olph": 8770,
      "Ġnoise": 8771,
      "Ġtries": 8772,
      "ĠTech": 8773,
      "ĠWithout": 8774,
      "Ġarrive": 8775,
      "Ġwrest": 8776,
      "iden": 8777,
      "obs": 8778,
      "ĠJam": 8779,
      "Ġje": 8780,
      "RC": 8781,
      "aware": 8782,
      "Ġlogic": 8783,
      "ĠAnthony": 8784,
      "cr": 8785,
      "ĠTri": 8786,
      "Ġtransit": 8787,
      "Ġlands": 8788,
      "Ġrational": 8789,
      "WS": 8790,
      "Ġtheat": 8791,
      "Ġdrew": 8792,
      "ĠCH": 8793,
      "unicip": 8794,
      "eping": 8795,
      "Ġintervention": 8796,
      "Ġconsistently": 8797,
      "Ġgrav": 8798,
      "Ġrhet": 8799,
      "ĠDesign": 8800,
      "Ġhint": 8801,
      "iban": 8802,
      "Ġtrem": 8803,
      "Ġdump": 8804,
      "ĠTurkish": 8805,
      "Comp": 8806,
      "des": 8807,
      "ĠAssad": 8808,
      "Your": 8809,
      "ĠAward": 8810,
      "ĠBuff": 8811,
      "Ġsmile": 8812,
      "ĠHistory": 8813,
      "ĠAND": 8814,
      "ĠAud": 8815,
      "Ġunc": 8816,
      "Ġdivor": 8817,
      "ĠMean": 8818,
      "Ġjudges": 8819,
      "ĠIranian": 8820,
      "ixed": 8821,
      "Ġproposals": 8822,
      "oval": 8823,
      "ĠMake": 8824,
      "ĠMoon": 8825,
      "aga": 8826,
      "Ġmonitor": 8827,
      "ĠIndeed": 8828,
      "Ġexch": 8829,
      "Ġalias": 8830,
      "Ġclosing": 8831,
      "Ġreplied": 8832,
      "Ġrequested": 8833,
      "TT": 8834,
      "maker": 8835,
      "ĠBa": 8836,
      "ĠConnect": 8837,
      "ĠJustin": 8838,
      "ĠNev": 8839,
      "Ġrom": 8840,
      "ĠEmpire": 8841,
      "Ġstages": 8842,
      "ĠJay": 8843,
      "Ġspoken": 8844,
      "Ġ1992": 8845,
      "Ġguitar": 8846,
      "73": 8847,
      "ĠStat": 8848,
      "62": 8849,
      "Ġlying": 8850,
      "ĠBall": 8851,
      "Ġshout": 8852,
      "Ġtrave": 8853,
      "ika": 8854,
      "Ġmarks": 8855,
      "Ġconcrete": 8856,
      "Ġdisrupt": 8857,
      "Ġshopping": 8858,
      "iences": 8859,
      "ifer": 8860,
      "Ġmissile": 8861,
      "dit": 8862,
      "Ġspeaks": 8863,
      "erted": 8864,
      "TER": 8865,
      "Ġgrid": 8866,
      "Ġresponses": 8867,
      "comes": 8868,
      "Ġ1994": 8869,
      "Ġspokesperson": 8870,
      "igg": 8871,
      "Ġgrade": 8872,
      "walk": 8873,
      "ĠBon": 8874,
      "ĠBrew": 8875,
      "ogs": 8876,
      "Ġinsisted": 8877,
      "ĠMatthew": 8878,
      "ĠPot": 8879,
      "onder": 8880,
      "Ġmonthly": 8881,
      "ĠTechnology": 8882,
      "RL": 8883,
      "ĠSat": 8884,
      "ĠBad": 8885,
      "Ġdrone": 8886,
      "ĠSweden": 8887,
      "Both": 8888,
      "âĸ": 8889,
      "ĠEth": 8890,
      "Ġcriticized": 8891,
      "Ġacknowledged": 8892,
      "Ġracism": 8893,
      "door": 8894,
      "pie": 8895,
      "ĠIce": 8896,
      "ĠMarvel": 8897,
      "ropri": 8898,
      "Ġauto": 8899,
      "alia": 8900,
      "ĠAC": 8901,
      "ormon": 8902,
      "ĠMaryland": 8903,
      "java": 8904,
      "ĠFamily": 8905,
      "Ġchannels": 8906,
      "Ġfunded": 8907,
      "Ġperforming": 8908,
      "Ġstored": 8909,
      "Ġentitled": 8910,
      "vi": 8911,
      "igare": 8912,
      "Ġignored": 8913,
      "ĠOlympic": 8914,
      "Ġrescue": 8915,
      "Ġupgrade": 8916,
      "Ġconspiracy": 8917,
      "ĠCorpor": 8918,
      "Ġfighter": 8919,
      "61": 8920,
      "uh": 8921,
      "itage": 8922,
      "ĠChristians": 8923,
      "Ġsubsequent": 8924,
      "!)": 8925,
      "Ġgal": 8926,
      "amac": 8927,
      "ĠUnfortunately": 8928,
      "nedy": 8929,
      "ĠiOS": 8930,
      "ĠKar": 8931,
      "Ġpref": 8932,
      "Ġhandling": 8933,
      "bi": 8934,
      "ĠSometimes": 8935,
      "ĠSanta": 8936,
      "don": 8937,
      "ĠPitt": 8938,
      "ĠEnvironment": 8939,
      "Ġshoulder": 8940,
      "Ġmistakes": 8941,
      "Ġlunch": 8942,
      "ĠAcc": 8943,
      "ĠRevolution": 8944,
      "Ste": 8945,
      "izabeth": 8946,
      "Ġflags": 8947,
      "Ġtap": 8948,
      "Ġcogn": 8949,
      "Ġouts": 8950,
      "Ġlegacy": 8951,
      "Ġ1995": 8952,
      "Ġauthent": 8953,
      "Ġmonitoring": 8954,
      "Ġokay": 8955,
      "stract": 8956,
      "iler": 8957,
      "ĠUr": 8958,
      "ĠBroad": 8959,
      "rooms": 8960,
      "Ġstudied": 8961,
      "ĠBeijing": 8962,
      "ĠDutch": 8963,
      "ultane": 8964,
      "Ġmathem": 8965,
      "Ġboat": 8966,
      "bridge": 8967,
      "Ġsalary": 8968,
      "ĠCBS": 8969,
      "agic": 8970,
      "ĠHospital": 8971,
      "Ġproviders": 8972,
      "ught": 8973,
      "Ġliterature": 8974,
      "ref": 8975,
      "Ġtea": 8976,
      "Ġ51": 8977,
      "Ġapproached": 8978,
      "helsea": 8979,
      "Ġpursue": 8980,
      "Ġdiverse": 8981,
      "ĠAz": 8982,
      "oded": 8983,
      "ported": 8984,
      "Ġchest": 8985,
      "ĠFront": 8986,
      "ĠDoes": 8987,
      "Ġbeauty": 8988,
      "ui": 8989,
      "Ġorigin": 8990,
      "Ġcopies": 8991,
      "Ġballot": 8992,
      "Ġurged": 8993,
      "Ġwealthy": 8994,
      "Ġassessment": 8995,
      "sect": 8996,
      "63": 8997,
      "Ġhealthcare": 8998,
      "ĠEngine": 8999,
      "ĠVietnam": 9000,
      "ĠCleveland": 9001,
      "ĠMarsh": 9002,
      "odox": 9003,
      "Ġtargeting": 9004,
      "ĠDet": 9005,
      "Ġbuff": 9006,
      "Ġinvestigations": 9007,
      "ommod": 9008,
      "iano": 9009,
      "Ġsavings": 9010,
      "Ġtestimony": 9011,
      "repre": 9012,
      "ĠUse": 9013,
      "ĠHead": 9014,
      "Ġcomedy": 9015,
      "backs": 9016,
      "omes": 9017,
      "Ġcolors": 9018,
      "Ġmarg": 9019,
      "ĠJerusalem": 9020,
      "ĠBruce": 9021,
      "isons": 9022,
      "ieties": 9023,
      "ĠCaption": 9024,
      "mad": 9025,
      "Ġmarch": 9026,
      "Ġinequ": 9027,
      "incoln": 9028,
      "trans": 9029,
      "acket": 9030,
      "theless": 9031,
      "zed": 9032,
      "Ġconsole": 9033,
      "Ġdrama": 9034,
      "Ġvariable": 9035,
      "icism": 9036,
      "Ġthorough": 9037,
      "Ġplain": 9038,
      "assador": 9039,
      "Ġsupplies": 9040,
      "phones": 9041,
      "ĠSony": 9042,
      "ĠMaster": 9043,
      "Ġ(âĢľ": 9044,
      "ĠLiverpool": 9045,
      "Ġclock": 9046,
      "Ġprepar": 9047,
      "Ġsenator": 9048,
      "ailed": 9049,
      "Ġassign": 9050,
      "Ġdemonstrated": 9051,
      "Ġtactics": 9052,
      "Ġdismissed": 9053,
      "ĠWolf": 9054,
      "Ġcompe": 9055,
      "Ġexit": 9056,
      "Ġrook": 9057,
      "Ġinnovation": 9058,
      "Ġwine": 9059,
      "ubble": 9060,
      "Ġages": 9061,
      "ĠVis": 9062,
      "Ġcenters": 9063,
      "Ġcongressional": 9064,
      "ĠWW": 9065,
      "ĠExt": 9066,
      "Ġsurf": 9067,
      "Ġreads": 9068,
      "Ġequality": 9069,
      "ĠBuddh": 9070,
      "reprene": 9071,
      "ĠAnderson": 9072,
      "const": 9073,
      "Ġrepresenting": 9074,
      "Post": 9075,
      "iy": 9076,
      "Ġfalls": 9077,
      "ded": 9078,
      "Ġcro": 9079,
      "Ġdiscount": 9080,
      "Ġcelebrate": 9081,
      "ĠGolden": 9082,
      "intendo": 9083,
      "ĠPD": 9084,
      "ĠGT": 9085,
      "ĠBatman": 9086,
      "ĠXbox": 9087,
      "Error": 9088,
      "inf": 9089,
      "throp": 9090,
      "ela": 9091,
      "issue": 9092,
      "amacare": 9093,
      "zing": 9094,
      "Ġtape": 9095,
      "Ġweekly": 9096,
      "Ġordinary": 9097,
      "Ġuniversal": 9098,
      "Are": 9099,
      "through": 9100,
      "ntil": 9101,
      "Ġpolitically": 9102,
      "Ġblocked": 9103,
      "Hz": 9104,
      "uted": 9105,
      "ĠStart": 9106,
      "Ġconventional": 9107,
      "ppers": 9108,
      "ounce": 9109,
      "Ġlanding": 9110,
      "Ġawarded": 9111,
      "Ġphrase": 9112,
      "Sub": 9113,
      "mo": 9114,
      "uj": 9115,
      "ctr": 9116,
      "ĠFootball": 9117,
      "esty": 9118,
      "ĠKong": 9119,
      "Ġarchitecture": 9120,
      "Ġdrove": 9121,
      "ĠHawai": 9122,
      "ecutive": 9123,
      "mers": 9124,
      "ĠDave": 9125,
      "Ġwaves": 9126,
      "Ġhockey": 9127,
      "minute": 9128,
      "Ġprisoners": 9129,
      "hop": 9130,
      "ĠPo": 9131,
      "Ġviolation": 9132,
      "Ġabsor": 9133,
      "ped": 9134,
      "only": 9135,
      "Ġgirlfriend": 9136,
      "Ġguidelines": 9137,
      "Ġdeny": 9138,
      "Ġpipeline": 9139,
      "uction": 9140,
      "ĠCustom": 9141,
      "ĠIndiana": 9142,
      "SC": 9143,
      "emed": 9144,
      "Ġvisiting": 9145,
      "flix": 9146,
      "Ġtonight": 9147,
      "itary": 9148,
      "Ġpatch": 9149,
      "ĠLine": 9150,
      "Ġhorse": 9151,
      "ĠIntelligence": 9152,
      "Ġmoon": 9153,
      "ixon": 9154,
      "Ġhoped": 9155,
      "GA": 9156,
      "high": 9157,
      "arms": 9158,
      "Ġnaturally": 9159,
      "Ġappearances": 9160,
      "ĠPatri": 9161,
      "Ġsubmitted": 9162,
      "ĠPhotos": 9163,
      "ordon": 9164,
      "Ġprogramme": 9165,
      "ĪĴ": 9166,
      "Ġunions": 9167,
      "Ġblast": 9168,
      "OK": 9169,
      "Ġhung": 9170,
      "Though": 9171,
      "Ġwarn": 9172,
      "Ġdisturb": 9173,
      "ĠControl": 9174,
      "Sim": 9175,
      "Ġpuzz": 9176,
      "Ġtow": 9177,
      "ĠLas": 9178,
      "Ġunpre": 9179,
      "ipedia": 9180,
      "Ġhyper": 9181,
      "Ġwaters": 9182,
      "oenix": 9183,
      "800": 9184,
      "Ùİ": 9185,
      "Ġramp": 9186,
      "Ġabroad": 9187,
      "atar": 9188,
      "Russ": 9189,
      "ĠVideo": 9190,
      "Ġactively": 9191,
      "Ġmaintained": 9192,
      "========": 9193,
      "Ġmad": 9194,
      "ĠâĢĿ": 9195,
      "Ġwhenever": 9196,
      "Ġquoted": 9197,
      "enez": 9198,
      "Ġmeasured": 9199,
      "Source": 9200,
      "essee": 9201,
      "Ġsty": 9202,
      "aval": 9203,
      "Ġbug": 9204,
      "Ġphenomenon": 9205,
      "acts": 9206,
      "izer": 9207,
      "mony": 9208,
      "ĠPack": 9209,
      "Ġaccommod": 9210,
      "Ġphotograp": 9211,
      "Ġnin": 9212,
      "Ġ2020": 9213,
      "race": 9214,
      "Ġpopularity": 9215,
      "Ġbowl": 9216,
      "Ġcounts": 9217,
      "Step": 9218,
      "Ġclassified": 9219,
      "Ġlets": 9220,
      "Ġarguing": 9221,
      "was": 9222,
      "irts": 9223,
      "Ġsymp": 9224,
      "AND": 9225,
      "Ġveterans": 9226,
      "Ġwider": 9227,
      "ĠTro": 9228,
      "Ġbutt": 9229,
      "Ġclim": 9230,
      "Ġproducers": 9231,
      "ĠPortland": 9232,
      "plate": 9233,
      "Ġpreparing": 9234,
      "ĠTaliban": 9235,
      "ses": 9236,
      "encing": 9237,
      "itol": 9238,
      "Ġweigh": 9239,
      "ĠNOT": 9240,
      "Ġpresidency": 9241,
      "Ġnomination": 9242,
      "Ġacquired": 9243,
      "Å£": 9244,
      "ĠAk": 9245,
      "EST": 9246,
[...]
