{
  "version": "1.0",
  "truncation": null,
  "padding": null,
  "added_tokens": [
    {
      "id": 0,
      "content": "<pad>",
      "single_word": false,
      "lstrip": false,
      "rstrip": false,
      "normalized": false,
      "special": true
    },
    {
      "id": 1,
      "content": "<bos>",
      "single_word": false,
      "lstrip": false,
      "rstrip": false,
      "normalized": false,
      "special": true
    },
    {
      "id": 2,
      "content": "<eos>",
      "single_word": false,
      "lstrip": false,
      "rstrip": false,
      "normalized": false,
      "special": true
    },
    {
      "id": 3,
      "content": "<unk>",
      "single_word": false,
      "lstrip": false,
      "rstrip": false,
      "normalized": false,
      "special": true
    }
  ],
  "normalizer": {
    "type": "NFKC"
  },
  "pre_tokenizer": {
    "type": "ByteLevel",
    "add_prefix_space": false,
    "trim_offsets": true,
    "use_regex": true
  },
  "post_processor": {
    "type": "TemplateProcessing",
    "single": [
      {
        "SpecialToken": {
          "id": "<bos>",
          "type_id": 0
        }
      },
      {
        "Sequence": {
          "id": "A",
          "type_id": 0
        }
      },
      {
        "SpecialToken": {
          "id": "<eos>",
          "type_id": 0
        }
      }
    ],
    "pair": [
      {
        "SpecialToken": {
          "id": "<bos>",
          "type_id": 0
        }
      },
      {
        "Sequence": {
          "id": "A",
          "type_id": 0
        }
      },
      {
        "SpecialToken": {
          "id": "<eos>",
          "type_id": 0
        }
      },
      {
        "Sequence": {
          "id": "B",
          "type_id": 0
        }
      },
      {
        "SpecialToken": {
          "id": "<eos>",
          "type_id": 0
        }
      }
    ],
    "special_tokens": {
      "<bos>": {
        "id": "<bos>",
        "ids": [
          1
        ],
        "tokens": [
          "<bos>"
        ]
      },
      "<eos>": {
        "id": "<eos>",
        "ids": [
          2
        ],
        "tokens": [
          "<eos>"
        ]
      }
    }
  },
  "decoder": {
    "type": "ByteLevel",
    "add_prefix_space": true,
    "trim_offsets": true,
    "use_regex": true
  },
  "model": {
    "type": "BPE",
    "dropout": null,
    "unk_token": "<unk>",
    "continuing_subword_prefix": null,
    "end_of_word_suffix": null,
    "fuse_unk": false,
    "byte_fallback": false,
    "ignore_merges": false,
    "vocab": {
      "<pad>": 0,
      "<bos>": 1,
      "<eos>": 2,
      "<unk>": 3,
      "!": 4,
      "\"": 5,
      "#": 6,
      "$": 7,
      "%": 8,
      "&": 9,
      "'": 10,
      "(": 11,
      ")": 12,
      "*": 13,
      "+": 14,
      ",": 15,
      "-": 16,
      ".": 17,
      "/": 18,
      "0": 19,
      "1": 20,
      "2": 21,
      "3": 22,
      "4": 23,
      "5": 24,
      "6": 25,
      "7": 26,
      "8": 27,
      "9": 28,
      ":": 29,
      ";": 30,
      "<": 31,
      "=": 32,
      ">": 33,
      "?": 34,
      "@": 35,
      "A": 36,
      "B": 37,
      "C": 38,
      "D": 39,
      "E": 40,
      "F": 41,
      "G": 42,
      "H": 43,
      "I": 44,
      "J": 45,
      "K": 46,
      "L": 47,
      "M": 48,
      "N": 49,
      "O": 50,
      "P": 51,
      "Q": 52,
      "R": 53,
      "S": 54,
      "T": 55,
      "U": 56,
      "V": 57,
      "W": 58,
      "X": 59,
      "Y": 60,
      "Z": 61,
      "[": 62,
      "\\": 63,
      "]": 64,
      "^": 65,
      "_": 66,
      "`": 67,
      "a": 68,
      "b": 69,
      "c": 70,
      "d": 71,
      "e": 72,
      "f": 73,
      "g": 74,
      "h": 75,
      "i": 76,
      "j": 77,
      "k": 78,
      "l": 79,
      "m": 80,
      "n": 81,
      "o": 82,
      "p": 83,
      "q": 84,
      "r": 85,
      "s": 86,
      "t": 87,
      "u": 88,
      "v": 89,
      "w": 90,
      "x": 91,
      "y": 92,
      "z": 93,
      "{": 94,
      "|": 95,
      "}": 96,
      "~": 97,
      "¡": 98,
      "¢": 99,
      "£": 100,
      "¤": 101,
      "¥": 102,
      "¦": 103,
      "§": 104,
      "¨": 105,
      "©": 106,
      "ª": 107,
      "«": 108,
      "¬": 109,
      "®": 110,
      "¯": 111,
      "°": 112,
      "±": 113,
      "²": 114,
      "³": 115,
      "´": 116,
      "µ": 117,
      "¶": 118,
      "·": 119,
      "¸": 120,
      "¹": 121,
      "º": 122,
      "»": 123,
      "¼": 124,
      "½": 125,
      "¾": 126,
      "¿": 127,
      "À": 128,
      "Á": 129,
      "Â": 130,
      "Ã": 131,
      "Ä": 132,
      "Å": 133,
      "Æ": 134,
      "Ç": 135,
      "È": 136,
      "É": 137,
      "Ê": 138,
      "Ë": 139,
      "Ì": 140,
      "Í": 141,
      "Î": 142,
      "Ï": 143,
      "Ð": 144,
      "Ñ": 145,
      "Ò": 146,
      "Ó": 147,
      "Ô": 148,
      "Õ": 149,
      "Ö": 150,
      "×": 151,
      "Ø": 152,
      "Ù": 153,
      "Ú": 154,
      "Û": 155,
      "Ü": 156,
      "Ý": 157,
      "Þ": 158,
      "ß": 159,
      "à": 160,
      "á": 161,
      "â": 162,
      "ã": 163,
      "ä": 164,
      "å": 165,
      "æ": 166,
      "ç": 167,
      "è": 168,
      "é": 169,
      "ê": 170,
      "ë": 171,
      "ì": 172,
      "í": 173,
      "î": 174,
      "ï": 175,
      "ð": 176,
      "ñ": 177,
      "ò": 178,
      "ó": 179,
      "ô": 180,
      "õ": 181,
      "ö": 182,
      "÷": 183,
      "ø": 184,
      "ù": 185,
      "ú": 186,
      "û": 187,
      "ü": 188,
      "ý": 189,
      "þ": 190,
      "ÿ": 191,
      "Ā": 192,
      "ā": 193,
      "Ă": 194,
      "ă": 195,
      "Ą": 196,
      "ą": 197,
      "Ć": 198,
      "ć": 199,
      "Ĉ": 200,
      "ĉ": 201,
      "Ċ": 202,
      "ċ": 203,
      "Č": 204,
      "č": 205,
      "Ď": 206,
      "ď": 207,
      "Đ": 208,
      "đ": 209,
      "Ē": 210,
      "ē": 211,
      "Ĕ": 212,
      "ĕ": 213,
      "Ė": 214,
      "ė": 215,
      "Ę": 216,
      "ę": 217,
      "Ě": 218,
      "ě": 219,
      "Ĝ": 220,
      "ĝ": 221,
      "Ğ": 222,
      "ğ": 223,
      "Ġ": 224,
      "ġ": 225,
      "Ģ": 226,
      "ģ": 227,
      "Ĥ": 228,
      "ĥ": 229,
      "Ħ": 230,
      "ħ": 231,
      "Ĩ": 232,
      "ĩ": 233,
      "Ī": 234,
      "ī": 235,
      "Ĭ": 236,
      "ĭ": 237,
      "Į": 238,
      "į": 239,
      "İ": 240,
      "ı": 241,
      "Ĳ": 242,
      "ĳ": 243,
      "Ĵ": 244,
      "ĵ": 245,
      "Ķ": 246,
      "ķ": 247,
      "ĸ": 248,
      "Ĺ": 249,
      "ĺ": 250,
      "Ļ": 251,
      "ļ": 252,
      "Ľ": 253,
      "ľ": 254,
      "Ŀ": 255,
      "ŀ": 256,
      "Ł": 257,
      "ł": 258,
      "Ń": 259,
      "Ġt": 260,
      "Ġa": 261,
      "he": 262,
      "in": 263,
      "re": 264,
      "Ġthe": 265,
      "on": 266,
      "er": 267,
      "Ġs": 268,
      "Ġw": 269,
      "at": 270,
      "Ġo": 271,
      "en": 272,
      "Ġc": 273,
      "it": 274,
      "is": 275,
      "an": 276,
      "or": 277,
      "Ġb": 278,
      "ed": 279,
      "es": 280,
      "Ġf": 281,
      "ing": 282,
      "Ġp": 283,
      "ou": 284,
      "Ġan": 285,
      "al": 286,
      "Ġto": 287,
      "ar": 288,
      "Ġin": 289,
      "Ġm": 290,
      "Ġof": 291,
      "Ġd": 292,
      "Ġh": 293,
      "ic": 294,
      "Ġand": 295,
      "as": 296,
      "âĢ": 297,
      "Ġth": 298,
      "le": 299,
      "ion": 300,
      "om": 301,
      "ll": 302,
      "ent": 303,
      "Ġn": 304,
      "Ġl": 305,
      "Ġre": 306,
      "st": 307,
      "ve": 308,
      "Ġe": 309,
      "ly": 310,
      "ro": 311,
      "Ġbe": 312,
      "Ġg": 313,
      "id": 314,
      "ut": 315,
      "ac": 316,
      "ot": 317,
      "ĠT": 318,
      "Ġthat": 319,
      "ĠI": 320,
      "Ġon": 321,
      "ay": 322,
      "Ġis": 323,
      "im": 324,
      "ĠS": 325,
      "se": 326,
      "am": 327,
      "ad": 328,
      "ow": 329,
      "Ġfor": 330,
      "ig": 331,
      "et": 332,
      "âĢĻ": 333,
      "ver": 334,
      "ĠA": 335,
      "ct": 336,
      "ld": 337,
      "ur": 338,
      "ĠC": 339,
      "Ġst": 340,
      "Ġu": 341,
      "Ġit": 342,
      "Ġy": 343,
      "Ġhe": 344,
      "ation": 345,
      "ir": 346,
      "ith": 347,
      "Ġwh": 348,
      "ĠM": 349,
      "ce": 350,
      "ol": 351,
      "Ġwe": 352,
      "ter": 353,
      "il": 354,
      "Ġas": 355,
      "Ġwith": 356,
      "ĠB": 357,
      "ch": 358,
      "ill": 359,
      "nd": 360,
      "Ġwas": 361,
      "ĠP": 362,
      "ers": 363,
      "Ġcon": 364,
      "ke": 365,
      "Ġyou": 366,
      "ĠâĢ": 367,
      "Ġde": 368,
      "if": 369,
      "ate": 370,
      "Ġr": 371,
      "her": 372,
      "Ġat": 373,
      "Ġha": 374,
      "ge": 375,
      "ĠH": 376,
      "Ġpro": 377,
      "ĠW": 378,
      "Ġse": 379,
      "ore": 380,
      "pp": 381,
      "ul": 382,
      "ist": 383,
      "ment": 384,
      "Ġare": 385,
      "ri": 386,
      "Ġ1": 387,
      "Ġcom": 388,
      "ĠD": 389,
      "and": 390,
      "est": 391,
      "Ġ(": 392,
      "Ġ2": 393,
      "us": 394,
      "ort": 395,
      "ain": 396,
      "ĠR": 397,
      "op": 398,
      "ĠThe": 399,
      "rom": 400,
      "igh": 401,
      "ew": 402,
      "Ġex": 403,
      "od": 404,
      "ab": 405,
      "ĠF": 406,
      "un": 407,
      "um": 408,
      "âĢĿ": 409,
      "Ġnot": 410,
      "res": 411,
      "ess": 412,
      "ity": 413,
      "em": 414,
      "ĠN": 415,
      "ould": 416,
      "Ġhave": 417,
      "art": 418,
      "Ġv": 419,
      "Ġby": 420,
      "ant": 421,
      "Ġor": 422,
      "os": 423,
      "ive": 424,
      "ĠG": 425,
      "'s": 426,
      "Ġfrom": 427,
      "Ġal": 428,
      "oc": 429,
      "th": 430,
      "Ġsu": 431,
      "el": 432,
      "nt": 433,
      "Ġthis": 434,
      "ĠL": 435,
      "qu": 436,
      "Ġsh": 437,
      "ies": 438,
      "ust": 439,
      "pe": 440,
      "ĠE": 441,
      "Ġab": 442,
      "ight": 443,
      "Ġsa": 444,
      "end": 445,
      "Ġle": 446,
      "out": 447,
      "The": 448,
      "00": 449,
      "ear": 450,
      "ra": 451,
      "Ġch": 452,
      "red": 453,
      "ally": 454,
      "ĠâĢľ": 455,
      "all": 456,
      "Ġhas": 457,
      "ack": 458,
      "ĠJ": 459,
      "Ġgo": 460,
      "ost": 461,
      "Ġpl": 462,
      "iv": 463,
      "ard": 464,
      "ĠO": 465,
      "gh": 466,
      "ud": 467,
      "ome": 468,
      "Ġhis": 469,
      "Ġj": 470,
      "ast": 471,
      "Ġdo": 472,
      "ak": 473,
      "rou": 474,
      "our": 475,
      "Ġwor": 476,
      "Ġthey": 477,
      "Ġsaid": 478,
      "Ġbut": 479,
      "ĠU": 480,
      "ok": 481,
      "Ġcan": 482,
      "Ġwill": 483,
      "Ġwhe": 484,
      "ap": 485,
      "Ġk": 486,
      "ich": 487,
      "ag": 488,
      "Ġall": 489,
      "Ġwho": 490,
      "Ġ\"": 491,
      "ide": 492,
      "Ġint": 493,
      "ial": 494,
      "ff": 495,
      "ans": 496,
      "ther": 497,
      "Ġtr": 498,
      "Ġne": 499,
      "ie": 500,
      "pl": 501,
      "Ġout": 502,
      "ect": 503,
      "ong": 504,
      "ure": 505,
      "Ġtheir": 506,
      "ice": 507,
      "ame": 508,
      "Ġmore": 509,
      "ous": 510,
      "pt": 511,
      "ions": 512,
      "act": 513,
      "one": 514,
      "ike": 515,
      "Ġme": 516,
      "age": 517,
      "Ġad": 518,
      "Ġup": 519,
      "Ġabout": 520,
      "ine": 521,
      "ated": 522,
      "ber": 523,
      "og": 524,
      "ime": 525,
      "Ġwere": 526,
      "Ġso": 527,
      "Ġus": 528,
      "Ġone": 529,
      "ep": 530,
      "Ġhad": 531,
      "Ġwould": 532,
      "Ġim": 533,
      "ub": 534,
      "Ġ20": 535,
      "ue": 536,
      "ĠK": 537,
      "Ġcont": 538,
      "cc": 539,
      "are": 540,
      "Ġcomp": 541,
      "iz": 542,
      "ake": 543,
      "ind": 544,
      "ia": 545,
      "Ġcl": 546,
      "Ġwhich": 547,
      "Ġoff": 548,
      "ĠSt": 549,
      "very": 550,
      "Ġag": 551,
      "Ġbeen": 552,
      "Ġte": 553,
      "ign": 554,
      "Ġun": 555,
      "Ġen": 556,
      "per": 557,
      "au": 558,
      "ĠTh": 559,
      "so": 560,
      "ere": 561,
      "ace": 562,
      "ary": 563,
      "Ġev": 564,
      "Ġinc": 565,
      "ook": 566,
      "Ġyear": 567,
      "Ġlike": 568,
      "able": 569,
      "ose": 570,
      "ays": 571,
      "ip": 572,
      "Ġper": 573,
      "port": 574,
      "Ġman": 575,
      "Ġpe": 576,
      "Ġres": 577,
      "ite": 578,
      "ry": 579,
      "ire": 580,
      "Ġother": 581,
      "ord": 582,
      "Ġ201": 583,
      "ence": 584,
      "ical": 585,
      "ib": 586,
      "mer": 587,
      "ations": 588,
      "..": 589,
      "Ġthere": 590,
      "Ġsp": 591,
      "Ġover": 592,
      "ĠIn": 593,
      "ks": 594,
      "Ġnew": 595,
      "Ġsome": 596,
      "ass": 597,
      "Ġthan": 598,
      "ount": 599,
      "ople": 600,
      "ough": 601,
      "ult": 602,
      "ress": 603,
      "Ġar": 604,
      "int": 605,
      "Ġdis": 606,
      "Ġalso": 607,
      "ance": 608,
      "ile": 609,
      "Ġbec": 610,
      "own": 611,
      "Ġpart": 612,
      "--": 613,
      "ond": 614,
      "Ġapp": 615,
      "ru": 616,
      "orm": 617,
      "fter": 618,
      "Ġthem": 619,
      "Ġwhat": 620,
      "Ġsc": 621,
      "ĠCh": 622,
      "Ġwhen": 623,
      "Ġqu": 624,
      "ree": 625,
      "av": 626,
      "Ġany": 627,
      "Ġpeople": 628,
      "ĠY": 629,
      "ail": 630,
      "Ġtime": 631,
      "Ġyour": 632,
      "ens": 633,
      "Ġjust": 634,
      "ĠIt": 635,
      "ase": 636,
      "Ġkn": 637,
      ".âĢĿ": 638,
      "du": 639,
      "lic": 640,
      "Ġits": 641,
      "ach": 642,
      "Ġif": 643,
      "Ġrec": 644,
      "Ġwork": 645,
      "ian": 646,
      "ob": 647,
      "Ġher": 648,
      "Ġmy": 649,
      "Ġ3": 650,
      "irst": 651,
      "Ġget": 652,
      "ction": 653,
      "Ġinto": 654,
      "vel": 655,
      "reat": 656,
      "Ġtw": 657,
      "ound": 658,
      "ory": 659,
      "ĠV": 660,
      "Ġour": 661,
      "Ġno": 662,
      "ition": 663,
      "ors": 664,
      "ings": 665,
      "Ġco": 666,
      "ink": 667,
      "Ġpre": 668,
      "ates": 669,
      "ident": 670,
      "Ġpol": 671,
      "ick": 672,
      "ark": 673,
      "ious": 674,
      "ause": 675,
      "te": 676,
      ",âĢĿ": 677,
      "aw": 678,
      "hing": 679,
      "vers": 680,
      "Ġplay": 681,
      "Ġafter": 682,
      "ade": 683,
      "Ġ19": 684,
      "Ġro": 685,
      "ang": 686,
      "ell": 687,
      "Ġshe": 688,
      "Ġcould": 689,
      "amp": 690,
      "Ġacc": 691,
      "ons": 692,
      "Ġfirst": 693,
      "ove": 694,
      "ĠHe": 695,
      "nder": 696,
      "wn": 697,
      "Ġpo": 698,
      "Ġhow": 699,
      "erv": 700,
      "'t": 701,
      "ict": 702,
      "ild": 703,
      "Ġhim": 704,
      "ne": 705,
      "hed": 706,
      "âĢľ": 707,
      "Ġpr": 708,
      "ov": 709,
      "Ġatt": 710,
      "Ġtwo": 711,
      ".\"": 712,
      "Ġonly": 713,
      "rit": 714,
      "Ġbet": 715,
      "Ġspe": 716,
      "Ġact": 717,
      "ish": 718,
      "iff": 719,
      "form": 720,
      "ft": 721,
      "Ġcomm": 722,
      "Ġdec": 723,
      "Ġmost": 724,
      "Ġcons": 725,
      "Ġbl": 726,
      "ning": 727,
      "ces": 728,
      "Ġdid": 729,
      "Ġam": 730,
      "ood": 731,
      "ual": 732,
      "Ġback": 733,
      "round": 734,
      "we": 735,
      "Ġdes": 736,
      "oy": 737,
      "Ġ4": 738,
      "Ġ$": 739,
      "ec": 740,
      "man": 741,
      "Ġfe": 742,
      "ater": 743,
      "Ġunder": 744,
      "Ġwant": 745,
      "lud": 746,
      "rough": 747,
      "day": 748,
      "ise": 749,
      "ublic": 750,
      "Ġind": 751,
      "iss": 752,
      "ents": 753,
      "Ġbecause": 754,
      "Ġinv": 755,
      "Ġeven": 756,
      "ced": 757,
      "ĠâĢĵ": 758,
      "Ġneed": 759,
      "sel": 760,
      "Ġem": 761,
      "Ġagain": 762,
      "Ġinter": 763,
      "ck": 764,
      "Ġknow": 765,
      "Ġyears": 766,
      ",\"": 767,
      "ĠâĢĶ": 768,
      "ĠUn": 769,
      "uch": 770,
      "Ġadd": 771,
      "ting": 772,
      "old": 773,
      "Ġsec": 774,
      "Ġnow": 775,
      "ull": 776,
      "ph": 777,
      "pect": 778,
      "ments": 779,
      "Ġmake": 780,
      "Ġsee": 781,
      "Ġsupp": 782,
      "fore": 783,
      "Ġevery": 784,
      "urn": 785,
      "Ġthese": 786,
      "ock": 787,
      "ject": 788,
      "In": 789,
      "ational": 790,
      "Th": 791,
      "Ġrel": 792,
      "oss": 793,
      "Ġdiff": 794,
      "Ġwhere": 795,
      "vern": 796,
      "Ġ5": 797,
      "ath": 798,
      "xt": 799,
      "oll": 800,
      "Ġ-": 801,
      "ĠWe": 802,
      "row": 803,
      "âĢĶ": 804,
      "ily": 805,
      "Ġway": 806,
      "lect": 807,
      "Ġdon": 808,
      ").": 809,
      "Ġbeing": 810,
      "les": 811,
      "Ġlook": 812,
      "Ġdef": 813,
      "Ġthink": 814,
      "Ġthen": 815,
      "Ġinclud": 816,
      "iew": 817,
      "ied": 818,
      "ative": 819,
      "ating": 820,
      "ased": 821,
      "meric": 822,
      "rib": 823,
      "ited": 824,
      "ont": 825,
      "ower": 826,
      "Ġbu": 827,
      "Ġmay": 828,
      "Ġmany": 829,
      "arg": 830,
      "Ġright": 831,
      "Ġthose": 832,
      "ason": 833,
      "Ġmuch": 834,
      "Ġpres": 835,
      "ĠBut": 836,
      "ities": 837,
      "ty": 838,
      "Ġrem": 839,
      "Ġreg": 840,
      "Ġimp": 841,
      "aking": 842,
      "Ġstate": 843,
      "ss": 844,
      "Ġcall": 845,
      "ĠThis": 846,
      "Ġshould": 847,
      "ts": 848,
      "Ġlast": 849,
      "als": 850,
      "ĠAnd": 851,
      "Ġvery": 852,
      "Ġsay": 853,
      "ange": 854,
      "uring": 855,
      "Ġreport": 856,
      "Ġsy": 857,
      "Ġwell": 858,
      "Ġend": 859,
      "Ġthrough": 860,
      "Ġshow": 861,
      "Ġcount": 862,
      "Ġfl": 863,
      "ics": 864,
      "ĠTr": 865,
      "ven": 866,
      "hen": 867,
      "Ġuse": 868,
      "ump": 869,
      "olog": 870,
      "oth": 871,
      "Ġdoes": 872,
      "Ġbel": 873,
      "ĠAmeric": 874,
      "ĠWh": 875,
      "other": 876,
      "Ġ200": 877,
      "ible": 878,
      "Ġph": 879,
      "ism": 880,
      "ific": 881,
      "tle": 882,
      "und": 883,
      "ren": 884,
      "ĠNew": 885,
      "Ġsm": 886,
      "Ġlong": 887,
      "ince": 888,
      "Ġgovern": 889,
      "oun": 890,
      "Ġown": 891,
      "ues": 892,
      "Ġbr": 893,
      "Ġdown": 894,
      "Ġstart": 895,
      "Ġbefore": 896,
      "ward": 897,
      "Ġmon": 898,
      "Ġteam": 899,
      "ener": 900,
      "omet": 901,
      "Ġstud": 902,
      "Ġsuch": 903,
      "Ġass": 904,
      "Ġ[": 905,
      "Ġprodu": 906,
      "ility": 907,
      "ram": 908,
      "Ġgoing": 909,
      "Ġke": 910,
      "ters": 911,
      "Ġeff": 912,
      "ists": 913,
      "ually": 914,
      "),": 915,
      "ble": 916,
      "ek": 917,
      "ife": 918,
      "It": 919,
      "ork": 920,
      "Ġhel": 921,
      "Ġgood": 922,
      "...": 923,
      "ert": 924,
      "ax": 925,
      "li": 926,
      "Ġworld": 927,
      "up": 928,
      "Ġsur": 929,
      "ys": 930,
      "roup": 931,
      "Ġset": 932,
      "000": 933,
      "ful": 934,
      "Ġmade": 935,
      "com": 936,
      "illion": 937,
      "Ġac": 938,
      "ular": 939,
      "Ġfin": 940,
      "ween": 941,
      "ner": 942,
      "Ġsub": 943,
      "Ġsays": 944,
      "erson": 945,
      "Ġpoint": 946,
      "air": 947,
      "Ġoffic": 948,
      "Ġsim": 949,
      "Ġent": 950,
      "imes": 951,
      "Ġgu": 952,
      "stem": 953,
      "cy": 954,
      "Ġhelp": 955,
      "ix": 956,
      "Ġdiffere": 957,
      "Ġob": 958,
      "Ġprov": 959,
      "ution": 960,
      "cess": 961,
      "Ġbetween": 962,
      "Ġstill": 963,
      "Ġmin": 964,
      "ĠRe": 965,
      "tern": 966,
      "ars": 967,
      "Ġ6": 968,
      "Ġcol": 969,
      "Ġinst": 970,
      "Ġconf": 971,
      "ci": 972,
      "gan": 973,
      "Ġcr": 974,
      "ever": 975,
      "its": 976,
      "arch": 977,
      ".[": 978,
      "Ġlaw": 979,
      "Ġstr": 980,
      "Ġagainst": 981,
      "land": 982,
      "Ġtake": 983,
      "ms": 984,
      "alk": 985,
      "Ġthough": 986,
      "self": 987,
      "cent": 988,
      "Ġnum": 989,
      "io": 990,
      "Ġwhile": 991,
      "Ġlead": 992,
      "Ġsame": 993,
      "Ġhigh": 994,
      "ank": 995,
      "gg": 996,
      "ef": 997,
      "ool": 998,
      "Ġgovernment": 999,
      "read": 1000,
      "Ġgame": 1001,
      "led": 1002,
      "Ġop": 1003,
      "ures": 1004,
      "Ġmem": 1005,
      "Ġexp": 1006,
      "atch": 1007,
      "We": 1008,
      "Ġed": 1009,
      "Ġmod": 1010,
      "any": 1011,
      "Ġaround": 1012,
      "Ġused": 1013,
      "Ġdisc": 1014,
      "Ġgroup": 1015,
      "ah": 1016,
      "way": 1017,
      "Ġtrans": 1018,
      "Ġfound": 1019,
      "Ġsign": 1020,
      "ollow": 1021,
      "Ġsomet": 1022,
      "ouse": 1023,
      "Ġreally": 1024,
      "ten": 1025,
      "velop": 1026,
      "uss": 1027,
      "Ġser": 1028,
      "ives": 1029,
      "ave": 1030,
      "Ġmed": 1031,
      "Ġhere": 1032,
      "ather": 1033,
      "Ġpublic": 1034,
      "Ġret": 1035,
      "Ġsystem": 1036,
      "con": 1037,
      "Ġwom": 1038,
      "Ġref": 1039,
      "Ġreal": 1040,
      "Ġins": 1041,
      "ving": 1042,
      "Ġext": 1043,
      "Ġspec": 1044,
      "Ġgr": 1045,
      "cept": 1046,
      "ĠAn": 1047,
      "ved": 1048,
      "ted": 1049,
      "hip": 1050,
      "Ġhapp": 1051,
      "Ġear": 1052,
      "ĠLe": 1053,
      "Ġsupport": 1054,
      "Ġfact": 1055,
      "Ġfam": 1056,
      "Ġter": 1057,
      "Ġrep": 1058,
      "Ġcap": 1059,
      "Ġthree": 1060,
      "Ġexper": 1061,
      "Ġhand": 1062,
      "az": 1063,
      "Ġ7": 1064,
      "get": 1065,
      "ins": 1066,
      "Ġ10": 1067,
      "ale": 1068,
      "ames": 1069,
      "Ġrun": 1070,
      "Ġaut": 1071,
      "irect": 1072,
      "hes": 1073,
      "ton": 1074,
      "ines": 1075,
      "pr": 1076,
      "Ġgreat": 1077,
      "Ġcour": 1078,
      "Ġsl": 1079,
      "ying": 1080,
      "ense": 1081,
      "alth": 1082,
      "Ġiss": 1083,
      "ĠAl": 1084,
      "Ġfind": 1085,
      "Ġread": 1086,
      "Ġboth": 1087,
      "Ġdet": 1088,
      "Ġday": 1089,
      "aj": 1090,
      "ĠYou": 1091,
      "ern": 1092,
      "Ġcar": 1093,
      "ered": 1094,
      "oot": 1095,
      "iet": 1096,
      "min": 1097,
      "Ġcur": 1098,
      "ĠThey": 1099,
      "ivers": 1100,
      "ĠCom": 1101,
      "Ġweek": 1102,
      "lear": 1103,
      "Ġduring": 1104,
      "Ġ8": 1105,
      "ĠSh": 1106,
      "ording": 1107,
      "ric": 1108,
      "Ġtold": 1109,
      "ex": 1110,
      "ared": 1111,
      "ĠAs": 1112,
      "ized": 1113,
      "ĠIs": 1114,
      "ically": 1115,
      "Ġlit": 1116,
      "orth": 1117,
      "oh": 1118,
      "ng": 1119,
      "Ġsince": 1120,
      "der": 1121,
      "Ġmonth": 1122,
      "Ġexpl": 1123,
      "Ġdevelop": 1124,
      "Ġpolit": 1125,
      "Ġlot": 1126,
      "Ġserv": 1127,
      "Ġbelie": 1128,
      "Ġfew": 1129,
      "Ġtoo": 1130,
      "ness": 1131,
      "Ġbig": 1132,
      "Ġwar": 1133,
      "Ġgener": 1134,
      "Ġrequ": 1135,
      "Ġcor": 1136,
      "ision": 1137,
      "Ġcontin": 1138,
      "ĠAr": 1139,
      "Ġcent": 1140,
      "akes": 1141,
      "arge": 1142,
      "----": 1143,
      "ves": 1144,
      "Ġ0": 1145,
      "the": 1146,
      "Ġinf": 1147,
      "med": 1148,
      "ices": 1149,
      "Ġprog": 1150,
      "Ġresp": 1151,
      "rent": 1152,
      "Ġput": 1153,
      "ages": 1154,
      "Ġleg": 1155,
      "ĠTrump": 1156,
      "Ġperson": 1157,
      "Ġfil": 1158,
      "Ġfollow": 1159,
      "ĠSe": 1160,
      "Ġsoc": 1161,
      "Ġrele": 1162,
      "Ġpower": 1163,
      "ĠCl": 1164,
      "Ġcre": 1165,
      "anc": 1166,
      "chool": 1167,
      "Ġfar": 1168,
      "iness": 1169,
      "Ġask": 1170,
      "Ġinvest": 1171,
      "Ġbo": 1172,
      "Ġ9": 1173,
      "ata": 1174,
      "Ġposs": 1175,
      "Wh": 1176,
      "Ġanother": 1177,
      "Ġdifferent": 1178,
      "ants": 1179,
      "ĠFor": 1180,
      "nce": 1181,
      "thing": 1182,
      "Ġopp": 1183,
      "ĠIf": 1184,
      "ute": 1185,
      "Ġbus": 1186,
      "bers": 1187,
      "ention": 1188,
      "Ġsomething": 1189,
      "ash": 1190,
      "Ġlife": 1191,
      "Ġprot": 1192,
      "ital": 1193,
      "Ġadv": 1194,
      "Ġcome": 1195,
      "Ġcommun": 1196,
      "Ġche": 1197,
      "Ġdist": 1198,
      "Ġquest": 1199,
      "Ġtra": 1200,
      "erest": 1201,
      "Ġdep": 1202,
      "ient": 1203,
      "ize": 1204,
      "Ġvot": 1205,
      "rat": 1206,
      "ience": 1207,
      "Ġ.": 1208,
      "ross": 1209,
      "Ġpercent": 1210,
      "20": 1211,
      "Ġthings": 1212,
      "ĠUS": 1213,
      "This": 1214,
      "gy": 1215,
      "view": 1216,
      "Ġmight": 1217,
      "Ġeach": 1218,
      "Ġimport": 1219,
      "ĠDe": 1220,
      "ĠFr": 1221,
      "Ġnext": 1222,
      "Ġloc": 1223,
      "ann": 1224,
      "Ġmark": 1225,
      "ĠThat": 1226,
      "ody": 1227,
      "Ġhead": 1228,
      "Ġseem": 1229,
      "Ġart": 1230,
      "Ġdem": 1231,
      "ret": 1232,
      "ple": 1233,
      "Ġtop": 1234,
      "Ġcomple": 1235,
      "Ġfun": 1236,
      "Ġsecond": 1237,
      "Ġdirect": 1238,
      "Ġconc": 1239,
      "Ġcamp": 1240,
      "Ġhome": 1241,
      "Ġopen": 1242,
      "uc": 1243,
      "conom": 1244,
      "less": 1245,
      "ired": 1246,
      "Ġcontro": 1247,
      "Ġresult": 1248,
      "ug": 1249,
      "Ġgot": 1250,
      "chn": 1251,
      "ik": 1252,
      "Ġnever": 1253,
      "ield": 1254,
      "Ġpri": 1255,
      "Ġ'": 1256,
      "Ġbest": 1257,
      "ration": 1258,
      "ets": 1259,
      "Ġchild": 1260,
      "ina": 1261,
      "Ġhard": 1262,
      "ral": 1263,
      "Ġfr": 1264,
      "Ġpass": 1265,
      "orn": 1266,
      "Ġfeel": 1267,
      "ĠâĢĺ": 1268,
      "Ġallow": 1269,
      "Ġincre": 1270,
      "osed": 1271,
      "uro": 1272,
      "Ġpolice": 1273,
      "Ġnumber": 1274,
      "ately": 1275,
      "Ġav": 1276,
      "Ġpost": 1277,
      "ĠRep": 1278,
      "Ġide": 1279,
      "Ġcountry": 1280,
      "aim": 1281,
      "Ġincluding": 1282,
      "Ġmet": 1283,
      "co": 1284,
      "ling": 1285,
      "ĠPro": 1286,
      "Ġmillion": 1287,
      "Ġappro": 1288,
      "Ġel": 1289,
      "ama": 1290,
      "Ġplace": 1291,
      "leg": 1292,
      "ably": 1293,
      "ier": 1294,
      "Ġless": 1295,
      "Ġcare": 1296,
      "Ġpartic": 1297,
      "Ġstand": 1298,
      "ering": 1299,
      "Ġmain": 1300,
      "Ġproble": 1301,
      "Ġwithout": 1302,
      "Ġbuild": 1303,
      "Ġinform": 1304,
      "ĠInd": 1305,
      "Ġmov": 1306,
      "tt": 1307,
      "Ġinterest": 1308,
      "ised": 1309,
      "Ġgl": 1310,
      "Ġbetter": 1311,
      "ology": 1312,
      "ency": 1313,
      "ished": 1314,
      "Ġpop": 1315,
      "ĠBl": 1316,
      "Ġrecent": 1317,
      "Ġlet": 1318,
      "Ġ--": 1319,
      "Ġann": 1320,
      "Ġcase": 1321,
      "ĠThere": 1322,
      "Ġcost": 1323,
      "Ġturn": 1324,
      "But": 1325,
      "ature": 1326,
      "Ġeffect": 1327,
      "vious": 1328,
      "Ġlittle": 1329,
      "Ġnews": 1330,
      "oney": 1331,
      "son": 1332,
      "riend": 1333,
      "ead": 1334,
      "ajor": 1335,
      "Ġcalled": 1336,
      "Ġbro": 1337,
      "Ġbeh": 1338,
      "Ġseason": 1339,
      "ains": 1340,
      "ained": 1341,
      "10": 1342,
      "Ġeconom": 1343,
      "Ġval": 1344,
      "ploy": 1345,
      "ined": 1346,
      "Ġwomen": 1347,
      "Ġcompany": 1348,
      "ract": 1349,
      "Ġdesign": 1350,
      "ĠOb": 1351,
      "inal": 1352,
      "line": 1353,
      "pped": 1354,
      "Ġprocess": 1355,
      "Ġpay": 1356,
      "Ġplan": 1357,
      "Ġfull": 1358,
      "Ġhum": 1359,
      "Ġrest": 1360,
      "Ġfour": 1361,
      "ided": 1362,
      "rem": 1363,
      "Ġdidn": 1364,
      "Ġmil": 1365,
      "ways": 1366,
      "iversity": 1367,
      "ption": 1368,
      "Ġtri": 1369,
      "Ġkeep": 1370,
      "Ġjob": 1371,
      "ruct": 1372,
      "Ġsmall": 1373,
      "Ġdri": 1374,
      "ertain": 1375,
      "ode": 1376,
      "Ġmove": 1377,
      "Ġsit": 1378,
      "Ġdata": 1379,
      "Ġbook": 1380,
      "Ġlist": 1381,
      "to": 1382,
      "Ġgiv": 1383,
      "used": 1384,
      "Ġschool": 1385,
      "Ġprom": 1386,
      "Ġproject": 1387,
      "ĠAmerican": 1388,
      "Ġchar": 1389,
      "Ġsol": 1390,
      "hor": 1391,
      "uck": 1392,
      "Ġusing": 1393,
      "ĠQ": 1394,
      "Ġleft": 1395,
      "'re": 1396,
      "ĠUnited": 1397,
      "ready": 1398,
      "Ġpos": 1399,
      "Ġmat": 1400,
      "Ġlevel": 1401,
      "Ġthing": 1402,
      "Ġbusiness": 1403,
      "ĠZ": 1404,
      "stand": 1405,
      "Ġprogram": 1406,
      "Ġtechn": 1407,
      "Ġofficial": 1408,
      "Ġrese": 1409,
      "Ġrece": 1410,
      "Ġform": 1411,
      "Ġwin": 1412,
      "Ġty": 1413,
      "Ġest": 1414,
      "Ġwrit": 1415,
      "Ġcurrent": 1416,
      "ases": 1417,
      "ior": 1418,
      "Ġlarge": 1419,
      "Ġimportant": 1420,
      "Ġbre": 1421,
      "Ġ|": 1422,
      "Ġattack": 1423,
      "ians": 1424,
      "Ġstory": 1425,
      "Ġeas": 1426,
      "ĠPh": 1427,
      "Ġclaim": 1428,
      "Ġhappen": 1429,
      "be": 1430,
      "mit": 1431,
      "Ġpresident": 1432,
      "ĠSo": 1433,
      "Ġtest": 1434,
      "Ġlater": 1435,
      "ĠHow": 1436,
      "Ġexpect": 1437,
      "Ġnear": 1438,
      "Ġmajor": 1439,
      "Ġalready": 1440,
      "Ġ18": 1441,
      "Ġwhy": 1442,
      "aign": 1443,
      "Ġchange": 1444,
      "ron": 1445,
      "Ġtax": 1446,
      "Ġvar": 1447,
      "Ġmoney": 1448,
      "ger": 1449,
      "ample": 1450,
      "Ġhealth": 1451,
      "Ġorgan": 1452,
      "Ġprof": 1453,
      "Ġvis": 1454,
      "Ġclass": 1455,
      "urs": 1456,
      "ural": 1457,
      "Ġable": 1458,
      "Ġconst": 1459,
      "Ġmen": 1460,
      "ator": 1461,
      "ĠShe": 1462,
      "cl": 1463,
      "outh": 1464,
      "ards": 1465,
      "Ġmust": 1466,
      "Ġunt": 1467,
      "acy": 1468,
      "He": 1469,
      "Ġtalk": 1470,
      "Ġgrow": 1471,
      "ĠMar": 1472,
      "rist": 1473,
      "Ġhop": 1474,
      "els": 1475,
      "Ġdoesn": 1476,
      "Ġ=": 1477,
      "Ġpast": 1478,
      "eral": 1479,
      "Ġenough": 1480,
      "Ġfree": 1481,
      "Ġpat": 1482,
      "ality": 1483,
      "Ġhist": 1484,
      "Ġoper": 1485,
      "gu": 1486,
      "Ġclear": 1487,
      "ney": 1488,
      "Ġsk": 1489,
      "Ġaway": 1490,
      "Ġfamily": 1491,
      "Ġinformation": 1492,
      "Ġalways": 1493,
      "here": 1494,
      "Ġaff": 1495,
      "ĠBe": 1496,
      "Ġmar": 1497,
      "As": 1498,
      "Ġleast": 1499,
      "Ġedit": 1500,
      "lection": 1501,
      "ĠAd": 1502,
      "ured": 1503,
      "ides": 1504,
      "aining": 1505,
      "Ġview": 1506,
      "reen": 1507,
      "ider": 1508,
      "ird": 1509,
      "ohn": 1510,
      "wit": 1511,
      "ending": 1512,
      "Ġword": 1513,
      "Ġcampaign": 1514,
      "ĠCan": 1515,
      "Ġ12": 1516,
      "Ġpolitical": 1517,
      "Ġworking": 1518,
      "Ġ15": 1519,
      "19": 1520,
      "Ġchang": 1521,
      "Ġold": 1522,
      "Ġes": 1523,
      "ified": 1524,
      "Ġmaking": 1525,
      "ware": 1526,
      "ury": 1527,
      "urity": 1528,
      "alf": 1529,
      "ization": 1530,
      "ĠEuro": 1531,
      "Ġline": 1532,
      "ley": 1533,
      "idence": 1534,
      "ox": 1535,
      "app": 1536,
      "ĠGo": 1537,
      "Ġkind": 1538,
      "Ġcame": 1539,
      "ries": 1540,
      "side": 1541,
      "Ġdeb": 1542,
      "Ġpar": 1543,
      "most": 1544,
      "Ġair": 1545,
      "Ġtimes": 1546,
      "Ġkill": 1547,
      "Ġfore": 1548,
      "Ġname": 1549,
      "crib": 1550,
      "Ġfriend": 1551,
      "12": 1552,
      "ived": 1553,
      "Ġdays": 1554,
      "Ġtell": 1555,
      "ories": 1556,
      "Ġdeal": 1557,
      "Ġintern": 1558,
      "arent": 1559,
      "ission": 1560,
      "Ġorder": 1561,
      "Ġaccording": 1562,
      "ĠRepublic": 1563,
      "Ġpolic": 1564,
      "Ġtook": 1565,
      "ising": 1566,
      "ane": 1567,
      "raph": 1568,
      "gin": 1569,
      "Ġsever": 1570,
      "St": 1571,
      "Ġsing": 1572,
      "Ġwon": 1573,
      "Ġuntil": 1574,
      "Ġrecord": 1575,
      "Ġdra": 1576,
      "Ġelect": 1577,
      "aps": 1578,
      "ream": 1579,
      "augh": 1580,
      "Ġvide": 1581,
      "ocrat": 1582,
      "ĠDem": 1583,
      "Ġactually": 1584,
      "for": 1585,
      "year": 1586,
      "ember": 1587,
      "ands": 1588,
      "ush": 1589,
      "Ġbecome": 1590,
      "ror": 1591,
      "Ġcity": 1592,
      "Ġmean": 1593,
      "arn": 1594,
      "bs": 1595,
      "Ġ&": 1596,
      "ĠObama": 1597,
      "ison": 1598,
      "resident": 1599,
      "Ġ199": 1600,
      "Ġoften": 1601,
      "uture": 1602,
      "ĠMay": 1603,
      "If": 1604,
      "Ġperform": 1605,
      "Ġfund": 1606,
      "Ġgive": 1607,
      "ĠSc": 1608,
      "by": 1609,
      "ĠCon": 1610,
      "Ġsocial": 1611,
      "Ġquestion": 1612,
      "lf": 1613,
      "Ġve": 1614,
      "Ġproduct": 1615,
      "Ġfac": 1616,
      "Ġbit": 1617,
      "icle": 1618,
      "ĠYork": 1619,
      "ional": 1620,
      "Ġlikely": 1621,
      "Ġocc": 1622,
      "Ġseveral": 1623,
      "ots": 1624,
      "There": 1625,
      "ccess": 1626,
      "aken": 1627,
      "Ġnight": 1628,
      "ĠSp": 1629,
      "artment": 1630,
      "ister": 1631,
      "ĠUniversity": 1632,
      "Ġcharac": 1633,
      "ĠStates": 1634,
      "une": 1635,
      "ee": 1636,
      "Ġever": 1637,
      "Ġappear": 1638,
      "ott": 1639,
      "Ġmarket": 1640,
      "enn": 1641,
      "ilar": 1642,
      "iety": 1643,
      "Ġexample": 1644,
      "ged": 1645,
      "ĠJohn": 1646,
      "Ġca": 1647,
      "ĠState": 1648,
      "Ġformer": 1649,
      "Ġdoing": 1650,
      "ĠCol": 1651,
      "ubl": 1652,
      "rop": 1653,
      "nect": 1654,
      "Ġseen": 1655,
      "Ġmedia": 1656,
      "Ġsure": 1657,
      "ER": 1658,
      "Ġevent": 1659,
      "Ġwhether": 1660,
      "Ġplayers": 1661,
      "ĠPl": 1662,
      "oad": 1663,
      "Ġhaving": 1664,
      "11": 1665,
      "Ġtoday": 1666,
      "ĠEurope": 1667,
      "ĠTe": 1668,
      "aring": 1669,
      "oci": 1670,
      "Ġra": 1671,
      "iol": 1672,
      "Ġcontrol": 1673,
      "Ġpossible": 1674,
      "Ġyoung": 1675,
      "Ġunderstand": 1676,
      "ony": 1677,
      "Ġindust": 1678,
      "Ġinvol": 1679,
      "sh": 1680,
      "urch": 1681,
      "Ġwr": 1682,
      "br": 1683,
      "Ġreturn": 1684,
      "iqu": 1685,
      "ĠAll": 1686,
      "iber": 1687,
      "verage": 1688,
      "ended": 1689,
      "Ġcrit": 1690,
      "ensive": 1691,
      "ĠSy": 1692,
      "oint": 1693,
      "Ġsex": 1694,
      "ortun": 1695,
      "50": 1696,
      "ourn": 1697,
      "Ġla": 1698,
      "vert": 1699,
      "ither": 1700,
      "ential": 1701,
      "Ġfuture": 1702,
      "Ġhig": 1703,
      "Ġprop": 1704,
      "ium": 1705,
      "imate": 1706,
      "ulation": 1707,
      "Ġcertain": 1708,
      "Ġwithin": 1709,
      "rew": 1710,
      "Ġfive": 1711,
      "inc": 1712,
      "Ġwent": 1713,
      "Ġbas": 1714,
      "Ġalong": 1715,
      "Ġhuman": 1716,
      "Ġmus": 1717,
      "eg": 1718,
      "Ġvers": 1719,
      "ederal": 1720,
      "ague": 1721,
      "work": 1722,
      "ched": 1723,
      "iver": 1724,
      "Ġshort": 1725,
      "ued": 1726,
      "Ġpot": 1727,
      "ivid": 1728,
      "ially": 1729,
      "Ġmonths": 1730,
      "Ġequ": 1731,
      "Ġearly": 1732,
      "Ġpress": 1733,
      "ĠHouse": 1734,
      "Ġonce": 1735,
      "ĠOr": 1736,
      "orld": 1737,
      "Ġinvestig": 1738,
      "Ġben": 1739,
      "idd": 1740,
      "Ġamong": 1741,
      "mber": 1742,
      "Ġwater": 1743,
      "Ġreported": 1744,
      "Ġnon": 1745,
      "Ġreason": 1746,
      "Ġauthor": 1747,
      "ĠNo": 1748,
      "empt": 1749,
      "Ġmembers": 1750,
      "Ġasked": 1751,
      "iting": 1752,
      "Ġdone": 1753,
      "Ġknown": 1754,
      "Ġactiv": 1755,
      "Ġfail": 1756,
      "Ġmilit": 1757,
      "ĠMc": 1758,
      "Ġ11": 1759,
      "ald": 1760,
      "ĠPresident": 1761,
      "Ġemploy": 1762,
      "Ġant": 1763,
      "Ġcourse": 1764,
      "Ġcho": 1765,
      "Ġsour": 1766,
      "Ġhour": 1767,
      "Ġacross": 1768,
      "And": 1769,
      "Ġsaf": 1770,
      "Ġgames": 1771,
      "Ġgiven": 1772,
      "use": 1773,
      "Ġmeet": 1774,
      "Ġmakes": 1775,
      "Ġmeans": 1776,
      "30": 1777,
      "Ġprob": 1778,
      "Ġpriv": 1779,
      "ailable": 1780,
      "Ġthought": 1781,
      "Ġproblem": 1782,
      "let": 1783,
      "rict": 1784,
      "iving": 1785,
      "Ġbelieve": 1786,
      "ĠOn": 1787,
      "ĠWhen": 1788,
      "not": 1789,
      "arm": 1790,
      "Ġz": 1791,
      "Ġdeath": 1792,
      "ggest": 1793,
      "Ġdev": 1794,
      ".,": 1795,
      "uff": 1796,
      "vent": 1797,
      "ĠDemocrat": 1798,
      "Ġorig": 1799,
      "ball": 1800,
      "ashing": 1801,
      "Ġissue": 1802,
      "Ġsuggest": 1803,
      "ring": 1804,
      "Ġident": 1805,
      "Ġannoun": 1806,
      "ĠMr": 1807,
      "ober": 1808,
      "Ġchildren": 1809,
      "Ġhold": 1810,
      "wh": 1811,
      "Ġothers": 1812,
      "ats": 1813,
      "erence": 1814,
      ".)": 1815,
      "ability": 1816,
      "ĠChrist": 1817,
      "Ġlight": 1818,
      "book": 1819,
      "ĠPr": 1820,
      "ĠCanad": 1821,
      "'ve": 1822,
      "Ġviol": 1823,
      "__": 1824,
      "âĢĵ": 1825,
      "Ġprotect": 1826,
      "Ġlim": 1827,
      "ĠRuss": 1828,
      "Ġside": 1829,
      "Ġdr": 1830,
      "osp": 1831,
      "Ġaccount": 1832,
      "itive": 1833,
      "Ġfight": 1834,
      "ored": 1835,
      "Ġlow": 1836,
      "Ġeng": 1837,
      "Ġlocal": 1838,
      "ĠCent": 1839,
      "Ġcommunity": 1840,
      "Ġparticular": 1841,
      "urther": 1842,
      "ster": 1843,
      "resent": 1844,
      "aff": 1845,
      "ĠBro": 1846,
      "Ġ2016": 1847,
      "Ġvideo": 1848,
      "yle": 1849,
      "Ġalmost": 1850,
      "play": 1851,
      "Ġnational": 1852,
      "Ġbased": 1853,
      "ĠApp": 1854,
      "Ġ2015": 1855,
      "Ġtot": 1856,
      "ĠAt": 1857,
      "Ġclose": 1858,
      "Ġstrong": 1859,
      "ĠX": 1860,
      "Ġ30": 1861,
      "Ġtoget": 1862,
      "Ġtogether": 1863,
      "Ġnet": 1864,
      "ev": 1865,
      "Ġ]": 1866,
      "eng": 1867,
      "rest": 1868,
      "Ġfilm": 1869,
      "Ġyet": 1870,
      "Ġcond": 1871,
      "reed": 1872,
      "Ġ,": 1873,
      "For": 1874,
      "Ġanything": 1875,
      "erman": 1876,
      "You": 1877,
      "ĠAmerica": 1878,
      "Ġsuccess": 1879,
      "Ġsent": 1880,
      "Ġpresent": 1881,
      "sy": 1882,
      "Ġ#": 1883,
      "ances": 1884,
      "ww": 1885,
      "uly": 1886,
      "ĠEx": 1887,
      "itions": 1888,
      "ĠCar": 1889,
      "ĠNorth": 1890,
      "Ġcut": 1891,
      "ĠBrit": 1892,
      "att": 1893,
      "Ġlove": 1894,
      "Ġavailable": 1895,
      "though": 1896,
      "Ġpract": 1897,
      "15": 1898,
      "Ġcomes": 1899,
      "ividual": 1900,
      "Ġhalf": 1901,
      "ĠChina": 1902,
      "Ġparty": 1903,
      "back": 1904,
      "por": 1905,
      "ĠAm": 1906,
      "AT": 1907,
      "Ġgetting": 1908,
      "Ġprevious": 1909,
      "Ġstarted": 1910,
      "iron": 1911,
      "utes": 1912,
      "ĠOne": 1913,
      "Ġeffort": 1914,
      "Ġmiss": 1915,
      "ĠCo": 1916,
      "ffic": 1917,
      "Ġener": 1918,
      "ief": 1919,
      "Ġanal": 1920,
      "Ġseries": 1921,
      "Ġ16": 1922,
      "Ġtrying": 1923,
      "Ġago": 1924,
      "Ġ2014": 1925,
      "Ġimm": 1926,
      "ĠWhat": 1927,
      "Ġsimilar": 1928,
      "Ġaccess": 1929,
      "rodu": 1930,
      "Ġhit": 1931,
      "Ġfollowing": 1932,
      "ones": 1933,
      "Ġexperience": 1934,
      "Ġarea": 1935,
      "Ġproper": 1936,
      "Ġidea": 1937,
      "olution": 1938,
      "Ġentire": 1939,
      "Ġris": 1940,
      "Ġbill": 1941,
      "Ġisn": 1942,
      "ĠMin": 1943,
      "minist": 1944,
      "ĠDon": 1945,
      "ana": 1946,
      "Ġadded": 1947,
      "rael": 1948,
      "selves": 1949,
      "Ġmom": 1950,
      "aster": 1951,
      "Ġi": 1952,
      "Ġsaying": 1953,
      "cing": 1954,
      "Ġtaken": 1955,
      "alif": 1956,
      "Ġdiscuss": 1957,
      "Ġfall": 1958,
      "ales": 1959,
      "ĠPol": 1960,
      "Ġsingle": 1961,
      "ĠSen": 1962,
      "Ġface": 1963,
      "Ġpubl": 1964,
      "Ġconnect": 1965,
      "unch": 1966,
      "Ġstudy": 1967,
      "Ġcompet": 1968,
      "Ġaddition": 1969,
      "Ġcourt": 1970,
      "Ġphot": 1971,
      "cher": 1972,
      "Ġindividual": 1973,
      "Ġfoc": 1974,
      "ament": 1975,
      "ler": 1976,
      "cially": 1977,
      "irc": 1978,
      "Ġrul": 1979,
      "ĠAust": 1980,
      "my": 1981,
      "ustom": 1982,
      "IN": 1983,
      "aper": 1984,
      "Ġlooking": 1985,
      "'m": 1986,
      "AS": 1987,
      "ĠComm": 1988,
      "ien": 1989,
      "Ġenergy": 1990,
      "go": 1991,
      "Ġbad": 1992,
      "Ġquick": 1993,
      "ĠWar": 1994,
      "Ġtry": 1995,
      "Ġ...": 1996,
      "eb": 1997,
      "par": 1998,
      "ators": 1999,
      "Ġthreat": 2000,
      "--------": 2001,
      "ĠDep": 2002,
      "ails": 2003,
      "ai": 2004,
      "Ġcreat": 2005,
      "ĠGr": 2006,
      "ashington": 2007,
      "of": 2008,
      "âĢĶâĢĶ": 2009,
      "Ġcomplete": 2010,
      "Ġmess": 2011,
      "Ġcompan": 2012,
      "Ġexist": 2013,
      "ination": 2014,
      "cer": 2015,
      "rote": 2016,
      "aces": 2017,
      "Ġrather": 2018,
      "ĠWorld": 2019,
      "Ġcommit": 2020,
      "Ġsecurity": 2021,
      "lement": 2022,
      "Ġlearn": 2023,
      "Ġfig": 2024,
      "ids": 2025,
      "Ġmind": 2026,
      "Ġsomeone": 2027,
      "Ġtrad": 2028,
      "atic": 2029,
      "Ġer": 2030,
      "Ġmilitary": 2031,
      "inton": 2032,
      "Ġimpro": 2033,
      "Ġtaking": 2034,
      "Ġspace": 2035,
      "witter": 2036,
      "Ġevidence": 2037,
      "ĠPart": 2038,
      "ene": 2039,
      "Ġlive": 2040,
      "60": 2041,
      "ĠHowever": 2042,
      "ĠBr": 2043,
      "//": 2044,
      "Ġfederal": 2045,
      "Ġinfl": 2046,
      "Ġdescrib": 2047,
      "ote": 2048,
      "ĠTo": 2049,
      "Ġvict": 2050,
      "Ġlab": 2051,
      "uation": 2052,
      "Ġbring": 2053,
      "Ġkey": 2054,
      "Ġspecial": 2055,
      "Ġsus": 2056,
      "ĠSec": 2057,
      "Ġconcern": 2058,
      "aid": 2059,
      "What": 2060,
      "On": 2061,
      "Ġwanted": 2062,
      "Ġbehind": 2063,
      "Ġhistory": 2064,
      "nes": 2065,
      "Ġmult": 2066,
      "ply": 2067,
      "14": 2068,
      "Ġsix": 2069,
      "Ġpret": 2070,
      "amed": 2071,
      "Ġ17": 2072,
      "Ġcomb": 2073,
      "ĠEng": 2074,
      "Ġresearch": 2075,
      "Ġargu": 2076,
      "Ġcou": 2077,
      "Ġjo": 2078,
      "**": 2079,
      "pping": 2080,
      "An": 2081,
      "Ġmor": 2082,
      "Ġself": 2083,
      "reet": 2084,
      "Ġwrote": 2085,
      "Ġfood": 2086,
      "ocu": 2087,
      "Ġ14": 2088,
      "Ġwhole": 2089,
      "Ġ13": 2090,
      "Ġblack": 2091,
      "ON": 2092,
      "ĠWashington": 2093,
      "OR": 2094,
      "iam": 2095,
      "Ġstep": 2096,
      "Ġland": 2097,
      "obal": 2098,
      "ĠIsrael": 2099,
      "dd": 2100,
      "ĠCity": 2101,
      "Ġprobably": 2102,
      "over": 2103,
      "When": 2104,
      "Ġplayer": 2105,
      "ault": 2106,
      "Ġrepl": 2107,
      "asing": 2108,
      "13": 2109,
      "Ġcharg": 2110,
      "Ġnothing": 2111,
      "Ġsum": 2112,
      "Ġwatch": 2113,
      "Ġstates": 2114,
      "Ġtem": 2115,
      "Ġconv": 2116,
      "arth": 2117,
      "Ġ2013": 2118,
      "Ġcompanies": 2119,
      "reme": 2120,
      "aut": 2121,
      "ĠMan": 2122,
      "Ġissues": 2123,
      "ĠDav": 2124,
      "Ġwa": 2125,
      "That": 2126,
      "Ġcult": 2127,
      "Ġattempt": 2128,
      "Ġfurther": 2129,
      "Ġbenef": 2130,
      "BC": 2131,
      "Ã©": 2132,
      "Ġfire": 2133,
      "Ġreleased": 2134,
      "elt": 2135,
      "Ġwhite": 2136,
      "Ġrad": 2137,
      "Ġelse": 2138,
      "eal": 2139,
      "now": 2140,
      "Ġredu": 2141,
      "Ġmeas": 2142,
      "Ġamount": 2143,
      "aul": 2144,
      "uge": 2145,
      "Ġtoward": 2146,
      "ĠIm": 2147,
      "ĠSouth": 2148,
      "Ġsignific": 2149,
      "Ġthird": 2150,
      "Ġcoming": 2151,
      "rug": 2152,
      "Ġrole": 2153,
      "Ġbegin": 2154,
      "ively": 2155,
      "pecially": 2156,
      "Ġseems": 2157,
      "ivil": 2158,
      "Ġhigher": 2159,
      "ps": 2160,
      "Ġfeat": 2161,
      "Ġbody": 2162,
      "Ġdue": 2163,
      "ĠAf": 2164,
      "IS": 2165,
      "Ġofficials": 2166,
      "ape": 2167,
      "Ġtrue": 2168,
      "Ġcharacter": 2169,
      "lier": 2170,
      "light": 2171,
      "Ġtarg": 2172,
      "Ġenc": 2173,
      "Ġdom": 2174,
      "Ġcompl": 2175,
      "Ġmatter": 2176,
      "attle": 2177,
      "Ġcountries": 2178,
      "Ġ198": 2179,
      "Ġpolicy": 2180,
      "Ġagree": 2181,
      "af": 2182,
      "ĠWith": 2183,
      "Ġrepresent": 2184,
      "ris": 2185,
      "Ġhowever": 2186,
      "Ġsw": 2187,
      "ĠMed": 2188,
      "ograph": 2189,
      "Ġwasn": 2190,
      "anks": 2191,
      "Ġmusic": 2192,
      "Ġroom": 2193,
      "Ġlarg": 2194,
      "raft": 2195,
      "Ġvalue": 2196,
      "ify": 2197,
      "Ġmanag": 2198,
      "sc": 2199,
      "ĠNational": 2200,
      "ĠGerman": 2201,
      "yn": 2202,
      "Ġpoints": 2203,
      "So": 2204,
      "off": 2205,
      "icult": 2206,
      "Ġdevelopment": 2207,
      "ĠAss": 2208,
      "Ġstri": 2209,
      "ĠHar": 2210,
      "Ġgroups": 2211,
      "ming": 2212,
      "Ġfront": 2213,
      "Ġtyp": 2214,
      "ĠJan": 2215,
      "Ġtre": 2216,
      "ery": 2217,
      "Ġbecame": 2218,
      "Ch": 2219,
      "Ġpick": 2220,
      "ĠInst": 2221,
      "Ġbreak": 2222,
      "18": 2223,
      "Ġfav": 2224,
      "Ġdou": 2225,
      "Ġstat": 2226,
      "Ġopt": 2227,
      "ogn": 2228,
      "Ġposition": 2229,
      "pro": 2230,
      "Ġdecision": 2231,
      "Ġfoot": 2232,
      "Ġbillion": 2233,
      "Ġfield": 2234,
      "Ġwoman": 2235,
      "isc": 2236,
      "ĠClinton": 2237,
      "Ġstatement": 2238,
      "Ġ\\": 2239,
      "Ġexec": 2240,
      "Ġservice": 2241,
      "Ġenv": 2242,
      "Ġitself": 2243,
      "Ġbuilding": 2244,
      "Ġneg": 2245,
      "Ġeither": 2246,
      "onse": 2247,
      "Ġey": 2248,
      "ĠHis": 2249,
      "Ġeverything": 2250,
      "AN": 2251,
      "ully": 2252,
      "Ġhouse": 2253,
      "mb": 2254,
      "reg": 2255,
      "Ġcand": 2256,
      "Ġinclude": 2257,
      "oid": 2258,
      "Ġ{": 2259,
      "Ġrelig": 2260,
      "ES": 2261,
      "like": 2262,
      "ried": 2263,
      "Ġchall": 2264,
      "Ġgeneral": 2265,
      "Ġabove": 2266,
      "lling": 2267,
      "Ġlegal": 2268,
      "Ġcop": 2269,
      "Ġsignificant": 2270,
      "Ġbar": 2271,
      "ently": 2272,
      "Ġrespons": 2273,
      "ches": 2274,
      "Ġoutside": 2275,
      "Ġneeded": 2276,
      "Ġindustry": 2277,
      "Ġ100": 2278,
      "ĠGe": 2279,
      "Ġstudents": 2280,
      "ilt": 2281,
      "ribut": 2282,
      "'ll": 2283,
      "Ġaction": 2284,
      "Ġmass": 2285,
      "Ġsuper": 2286,
      "ĠJust": 2287,
      "Ġoffice": 2288,
      "Ġ2012": 2289,
      "Ġphys": 2290,
      "lim": 2291,
      "Ġ2011": 2292,
      "Ġrelations": 2293,
      "AR": 2294,
      "sw": 2295,
      "Ġgun": 2296,
      "aced": 2297,
      "Ġcreate": 2298,
      "iday": 2299,
      "Ġrights": 2300,
      "ournal": 2301,
      "Ġcustom": 2302,
      "Ġaddress": 2303,
      "Ġgen": 2304,
      "Ġ2017": 2305,
      "ression": 2306,
      "Ġdifficult": 2307,
      "eks": 2308,
      "Ġtotal": 2309,
      "Ġbegan": 2310,
      "Ġinterview": 2311,
      "Ġadminist": 2312,
      "Ġeveryone": 2313,
      "ĠFl": 2314,
      "Ġsimply": 2315,
      "Ġleaders": 2316,
      "ĠMich": 2317,
      "Ġprofess": 2318,
      "iod": 2319,
      "ĠRes": 2320,
      "ccording": 2321,
      "ij": 2322,
      "abl": 2323,
      "ogle": 2324,
      "Ġversion": 2325,
      "pite": 2326,
      "Ġ/": 2327,
      "Ġgoal": 2328,
      "Ġpretty": 2329,
      "ham": 2330,
      "Ġground": 2331,
      "Ġsaw": 2332,
      "ibility": 2333,
      "ients": 2334,
      "Ġcoun": 2335,
      "sec": 2336,
      "ĠAfter": 2337,
      "ĠGu": 2338,
      "17": 2339,
      "ades": 2340,
      "Ġstop": 2341,
      "Ġforward": 2342,
      "Ġprovide": 2343,
      "ached": 2344,
      "Ġbelow": 2345,
      "oring": 2346,
      "Ġcommon": 2347,
      "Ġrelease": 2348,
      "Ġneeds": 2349,
      "Ġhope": 2350,
      "Ġ25": 2351,
      "Ġquite": 2352,
      "time": 2353,
      "Ġdocu": 2354,
      "omes": 2355,
      "Ġespecially": 2356,
      "irl": 2357,
      "Ġabs": 2358,
      "oon": 2359,
      "Ġspecific": 2360,
      "16": 2361,
      "eed": 2362,
      "ran": 2363,
      "ĠAug": 2364,
      "Ġhost": 2365,
      "ows": 2366,
      "Ġhours": 2367,
      "arter": 2368,
      "ĠBar": 2369,
      "Ġalleg": 2370,
      "Ġcontinue": 2371,
      "Ġthemselves": 2372,
      "Ġhimself": 2373,
      "ĠIntern": 2374,
      "Ġcapt": 2375,
      "Ġinit": 2376,
      "head": 2377,
      "ironment": 2378,
      "lam": 2379,
      "Ġage": 2380,
      "set": 2381,
      "ĠMy": 2382,
      "istic": 2383,
      "Ġblock": 2384,
      "ask": 2385,
      "ĠEd": 2386,
      "Ġce": 2387,
      "Ġfunction": 2388,
      "Ġanim": 2389,
      "Ġep": 2390,
      "Ġexc": 2391,
      "Ġplaying": 2392,
      "Ġwords": 2393,
      "ĠDepartment": 2394,
      "Ġopportun": 2395,
      "ung": 2396,
      "Ġplayed": 2397,
      "Ġeconomic": 2398,
      "Ġtreat": 2399,
      "Ġcred": 2400,
      "Ġcirc": 2401,
      "Ġsound": 2402,
      "ili": 2403,
      "Ġmag": 2404,
      "ends": 2405,
      "://": 2406,
      "Ġweeks": 2407,
      ");": 2408,
      "ĠCong": 2409,
      "Ġshows": 2410,
      "Ġdam": 2411,
      "ender": 2412,
      "Ġpain": 2413,
      "Ġconsum": 2414,
      "ray": 2415,
      "Ġfinal": 2416,
      "atur": 2417,
      "osing": 2418,
      "rel": 2419,
      "How": 2420,
      "epend": 2421,
      "lege": 2422,
      "apan": 2423,
      "Ġfriends": 2424,
      "right": 2425,
      "Ġdeep": 2426,
      "ĠNews": 2427,
      "val": 2428,
      "Ġ<": 2429,
      "Ġsense": 2430,
      "][": 2431,
      "Ġrunning": 2432,
      "bl": 2433,
      "Ġred": 2434,
      "Ġrate": 2435,
      "Ġinstead": 2436,
      "ctor": 2437,
      "Ġrecently": 2438,
      "Ġcell": 2439,
      "ĠWill": 2440,
      "Ġdrug": 2441,
      "ĠSu": 2442,
      "ift": 2443,
      "Ġsite": 2444,
      "iddle": 2445,
      "Ġwalk": 2446,
      "ĠWest": 2447,
      "Ġtechnology": 2448,
      "Ġdiv": 2449,
      "ĠEn": 2450,
      "haps": 2451,
      "Ġport": 2452,
      "lt": 2453,
      "acebook": 2454,
      "Ġchanges": 2455,
      "ateg": 2456,
      "Ġcandid": 2457,
      "irm": 2458,
      "Ġcomment": 2459,
      "Ġjud": 2460,
      "Ġsold": 2461,
      "Ġcomput": 2462,
      "anger": 2463,
      "ĠAustral": 2464,
      "Ġlost": 2465,
      "Ġwrong": 2466,
      "Ġlat": 2467,
      "hel": 2468,
      "Ġworks": 2469,
      "Ġpotential": 2470,
      "Ġvol": 2471,
      "Ġap": 2472,
      "ĠMus": 2473,
      "Ġlo": 2474,
      "ĠThese": 2475,
      "ude": 2476,
      "Ġcontract": 2477,
      "Ġobs": 2478,
      "Ġdecl": 2479,
      "Ġserious": 2480,
      "Ġconsider": 2481,
      "Ġsoon": 2482,
      "oe": 2483,
      "angu": 2484,
      "Ġresponse": 2485,
      "Ġple": 2486,
      "iding": 2487,
      "ĠWhite": 2488,
      "medi": 2489,
      "Ġdest": 2490,
      "Ġresults": 2491,
      "uary": 2492,
      "Ġperiod": 2493,
      "oke": 2494,
      "Ġet": 2495,
      "Ġelection": 2496,
      "ĠMarch": 2497,
      "Ġ:": 2498,
      "Ġreview": 2499,
      "ĠAb": 2500,
      "Ġstaff": 2501,
      "irt": 2502,
      "Ġmodel": 2503,
      "Ġmoment": 2504,
      "EN": 2505,
      "put": 2506,
      "lev": 2507,
      "Ġaccept": 2508,
      "Ġincrease": 2509,
      "fect": 2510,
      "Ġrev": 2511,
      "ĠMond": 2512,
      "Ġshoot": 2513,
      "Al": 2514,
      "ging": 2515,
      "Ġled": 2516,
      "eter": 2517,
      "ned": 2518,
      "Ġcal": 2519,
      "ĠJune": 2520,
      "Ġsoft": 2521,
      "Ġscient": 2522,
      "Ġhappened": 2523,
      "Ġrisk": 2524,
      "itution": 2525,
      "ĠSept": 2526,
      "Ġheld": 2527,
      "Ġcapital": 2528,
      "ech": 2529,
      "Ġaverage": 2530,
      "amer": 2531,
      "ilities": 2532,
      "ĠJapan": 2533,
      "ĠCalif": 2534,
      "Ġonline": 2535,
      "ĠGod": 2536,
      "Ġpersonal": 2537,
      "Ad": 2538,
      "Ġwind": 2539,
      "Ġpopular": 2540,
      "hod": 2541,
      "ĠTwitter": 2542,
      "action": 2543,
      "Ġobject": 2544,
      "Ġstru": 2545,
      "ĠDr": 2546,
      "Ġ24": 2547,
      "aterial": 2548,
      "Ġsurpr": 2549,
      "ĠCongress": 2550,
      "Ġcases": 2551,
      "Ġ50": 2552,
      "ĠRepublican": 2553,
      "Ġannounced": 2554,
      "Ġtit": 2555,
      "Ġapplic": 2556,
      "cial": 2557,
      "Ġreve": 2558,
      "ĠAmericans": 2559,
      "Ġtarget": 2560,
      "atives": 2561,
      "Ġdeter": 2562,
      "Ġvote": 2563,
      "Ph": 2564,
      "na": 2565,
      "Ġpie": 2566,
      "Ġparent": 2567,
      "raz": 2568,
      "Ġanyone": 2569,
      "Ġlate": 2570,
      "Ġcheck": 2571,
      "Ġreceived": 2572,
      "apt": 2573,
      "200": 2574,
      "Ġcode": 2575,
      "Ġglobal": 2576,
      "ners": 2577,
      "ĠSm": 2578,
      "Ġarticle": 2579,
      "Ġprim": 2580,
      "bo": 2581,
      "asons": 2582,
      "Ġcoll": 2583,
      "ael": 2584,
      "Ġpred": 2585,
      "ĠNot": 2586,
      "They": 2587,
      "Ġdi": 2588,
      "pril": 2589,
      "ructure": 2590,
      "ĠJuly": 2591,
      "ique": 2592,
      "Ġstay": 2593,
      "Ġwebs": 2594,
      "ĠOct": 2595,
      "Ġprice": 2596,
      "ancial": 2597,
      "fer": 2598,
      "omb": 2599,
      "Ġearlier": 2600,
      "ĠMonday": 2601,
      "ole": 2602,
      "Ġexact": 2603,
      "Ġlaws": 2604,
      "Ġur": 2605,
      "Ġshot": 2606,
      "omm": 2607,
      "Ġarrest": 2608,
      "Ġinj": 2609,
      "Ġmot": 2610,
      "Ġlonger": 2611,
      "Ġways": 2612,
      "Ġareas": 2613,
      "Ġrace": 2614,
      "ports": 2615,
      "gr": 2616,
      "ctions": 2617,
      "Ġnecess": 2618,
      "uesday": 2619,
      "Ġcannot": 2620,
      "Ġservices": 2621,
      "Ġden": 2622,
      "Ġ2010": 2623,
      "Ġnation": 2624,
      "Ġability": 2625,
      "Ġupd": 2626,
      "Ġspeak": 2627,
      "Ġtrack": 2628,
      "Ġquestions": 2629,
      "Ġeduc": 2630,
      "Ġ+": 2631,
      "Ġcivil": 2632,
      "Ġworkers": 2633,
      "Ġhy": 2634,
      "Ġshare": 2635,
      "ornia": 2636,
      "ĠKore": 2637,
      "Ġheart": 2638,
      "Ġ>": 2639,
      "ival": 2640,
      "Ġproblems": 2641,
      "key": 2642,
      "Ġfocus": 2643,
      "urd": 2644,
      "umb": 2645,
      "izing": 2646,
      "iple": 2647,
      "Ġ197": 2648,
      "Ġdead": 2649,
      "okes": 2650,
      "Ġexecut": 2651,
      "oor": 2652,
      "Ġrespect": 2653,
      "cil": 2654,
      "Ġansw": 2655,
      "ires": 2656,
      "Ġpage": 2657,
      "Ġsource": 2658,
      "Ġprivate": 2659,
      "ĠCanada": 2660,
      "ees": 2661,
      "Ġplans": 2662,
      "Ġimpact": 2663,
      "Ġinflu": 2664,
      "alt": 2665,
      "Ġteams": 2666,
      "Ġaud": 2667,
      "ety": 2668,
      "ples": 2669,
      "Ġworked": 2670,
      "Ġfans": 2671,
      "oph": 2672,
      "unt": 2673,
      "Ġinvolved": 2674,
      "Ġforce": 2675,
      "ĠApril": 2676,
      "Ġestabl": 2677,
      "ills": 2678,
      "ĠPark": 2679,
      "Ġexpected": 2680,
      "Ġpublished": 2681,
      "Ġpur": 2682,
      "Ġleave": 2683,
      "Ġindic": 2684,
      "Ġminutes": 2685,
      "ĠAugust": 2686,
      "25": 2687,
      "nces": 2688,
      "Ġdel": 2689,
      "Ġrequest": 2690,
      "\".": 2691,
      "hem": 2692,
      "ĠCount": 2693,
      "ĠÂ": 2694,
      "atural": 2695,
      "ĠPar": 2696,
      "Ġrac": 2697,
      "Ġsimple": 2698,
      "ĠBritish": 2699,
      "sp": 2700,
      "Ġanti": 2701,
      "Ġenvironment": 2702,
      "Ġchance": 2703,
      "Ġball": 2704,
      "ores": 2705,
      "ĠCons": 2706,
      "Ġfem": 2707,
      "ĠTuesday": 2708,
      "Ġsubject": 2709,
      "ino": 2710,
      "Ġlower": 2711,
      "ĠGoogle": 2712,
      "Ġliving": 2713,
      "Ġoriginal": 2714,
      "joy": 2715,
      "ological": 2716,
      "ursday": 2717,
      "Ġlog": 2718,
      "ĠSoc": 2719,
      "hern": 2720,
      "Ġeasy": 2721,
      "Ġinternational": 2722,
      "rain": 2723,
      "Ġterms": 2724,
      "ises": 2725,
      "Ġcontent": 2726,
      "bor": 2727,
      "duct": 2728,
      "Ġgave": 2729,
      "ume": 2730,
      "ky": 2731,
      "Ġworth": 2732,
      "ĠAg": 2733,
      "ĠFacebook": 2734,
      "Ġbroad": 2735,
      "lex": 2736,
      "ĠDo": 2737,
      "ressed": 2738,
      "Ġdefin": 2739,
      "ĠQu": 2740,
      "?âĢĿ": 2741,
      "ĠFriday": 2742,
      "Ġdecided": 2743,
      "Ġcollect": 2744,
      "Ġnearly": 2745,
      "aily": 2746,
      "Ġliber": 2747,
      "ought": 2748,
      "aving": 2749,
      "rought": 2750,
      "Ġlack": 2751,
      "ĠRed": 2752,
      "Ġtype": 2753,
      "Ġreports": 2754,
      "Ġrespond": 2755,
      "force": 2756,
      "Ġcle": 2757,
      "Ġsuff": 2758,
      "uel": 2759,
      "ext": 2760,
      "mp": 2761,
      "Ġinside": 2762,
      "based": 2763,
      "Ġquickly": 2764,
      "Ġmaterial": 2765,
      "Ġ21": 2766,
      "ellig": 2767,
      "ese": 2768,
      "Ġfre": 2769,
      "Ġregard": 2770,
      "Ġrequire": 2771,
      "Ġcreated": 2772,
      "Ġdirector": 2773,
      "hood": 2774,
      "icro": 2775,
      "ĠCalifornia": 2776,
      "vertise": 2777,
      "onst": 2778,
      "Ġsort": 2779,
      "iment": 2780,
      "tee": 2781,
      "isl": 2782,
      "Ġimmedi": 2783,
      "ips": 2784,
      "Ġgrowth": 2785,
      "Ġsong": 2786,
      "Ġmatch": 2787,
      "Ġrecogn": 2788,
      "ĠParty": 2789,
      "order": 2790,
      "Ġmis": 2791,
      "Ġsen": 2792,
      "Ġcit": 2793,
      "ĠPe": 2794,
      "Ġproduction": 2795,
      "Ġboard": 2796,
      "Ġdemand": 2797,
      "lin": 2798,
      "Ġhuge": 2799,
      "Ġste": 2800,
      "ĠSyri": 2801,
      "Ġmember": 2802,
      "ĠJanuary": 2803,
      "Ġsituation": 2804,
      "Ġwide": 2805,
      "At": 2806,
      "ednes": 2807,
      "Ġweap": 2808,
      "Ġarri": 2809,
      "Ġgets": 2810,
      "ĠThursday": 2811,
      "Ġrelationship": 2812,
      "Ġlangu": 2813,
      "Ġturned": 2814,
      "bit": 2815,
      "ĠSte": 2816,
      "ĠDavid": 2817,
      "ĠSund": 2818,
      "uth": 2819,
      "ĠAfric": 2820,
      "Ġincluded": 2821,
      "ednesday": 2822,
      "ĠBy": 2823,
      "avy": 2824,
      "sych": 2825,
      "atory": 2826,
      "Ġbase": 2827,
      "Ġassoci": 2828,
      "Ġoil": 2829,
      "ĠNow": 2830,
      "Ġparticip": 2831,
      "One": 2832,
      "Ġtal": 2833,
      "Ġwhose": 2834,
      "Ġforeign": 2835,
      "Ġperformance": 2836,
      "Ġ22": 2837,
      "ops": 2838,
      "ressive": 2839,
      "ruction": 2840,
      "ean": 2841,
      "Ġsecret": 2842,
      "ledge": 2843,
      "ript": 2844,
      "Ġgoes": 2845,
      "Ġeconomy": 2846,
      "Ġtrade": 2847,
      "ĠEuropean": 2848,
      "ule": 2849,
      "ĠUK": 2850,
      "Ġaffect": 2851,
      "ĠSeptember": 2852,
      "Ġcurrently": 2853,
      "ĠWhile": 2854,
      "Ġfavor": 2855,
      "Sh": 2856,
      "Ġnetwork": 2857,
      "Ġloss": 2858,
      "Ġkilled": 2859,
      "Ġtool": 2860,
      "oto": 2861,
      "iction": 2862,
      "cast": 2863,
      "ĠPaul": 2864,
      "ĠHill": 2865,
      "Ġconserv": 2866,
      "Ġtakes": 2867,
      "Ġbi": 2868,
      "chie": 2869,
      "Ġusers": 2870,
      "Ġemail": 2871,
      "40": 2872,
      "Ġphone": 2873,
      "cies": 2874,
      "yc": 2875,
      "lled": 2876,
      "ero": 2877,
      "Ġrange": 2878,
      "Ġ40": 2879,
      "Ġcause": 2880,
      "Ġfather": 2881,
      "rown": 2882,
      "Ġmid": 2883,
      "Ġfinancial": 2884,
      "Ġoccur": 2885,
      "Ġboy": 2886,
      "Ġnorm": 2887,
      "ĠSome": 2888,
      "Ġcover": 2889,
      "cious": 2890,
      "ceed": 2891,
      "osition": 2892,
      "Ġoffer": 2893,
      "ĠFeb": 2894,
      "ĠPal": 2895,
      "inese": 2896,
      "To": 2897,
      "ights": 2898,
      "Ġneigh": 2899,
      "Ġbehav": 2900,
      "Ġwebsite": 2901,
      "down": 2902,
      "Ġcareer": 2903,
      "Ġsqu": 2904,
      "ĠPer": 2905,
      "Ġbuilt": 2906,
      "Ġmention": 2907,
      "Ġlives": 2908,
      "ĠPat": 2909,
      "Ġdeli": 2910,
      "Ġcouple": 2911,
      "ĠGeor": 2912,
      "99": 2913,
      "Ġtou": 2914,
      "Ġfelt": 2915,
      "udget": 2916,
      "Ġtravel": 2917,
      "Ġbuy": 2918,
      "ĠWednesday": 2919,
      "Ġjobs": 2920,
      "Ġthous": 2921,
      "Ġintrodu": 2922,
      "==": 2923,
      "aly": 2924,
      "Ġroad": 2925,
      "mon": 2926,
      "ourt": 2927,
      "Ġgas": 2928,
      "Ġspent": 2929,
      "ĠCenter": 2930,
      "Ġvictim": 2931,
      "Ġrepe": 2932,
      "ĠTV": 2933,
      "Ġunc": 2934,
      "oved": 2935,
      "Ġterror": 2936,
      "AL": 2937,
      "Ġsize": 2938,
      "Ġpack": 2939,
      "unk": 2940,
      "Ġfair": 2941,
      "ĠPost": 2942,
      "Ġnumbers": 2943,
      "ED": 2944,
      "hold": 2945,
      "ibr": 2946,
      "body": 2947,
      "Ġpull": 2948,
      "Ġperfect": 2949,
      "Ġapproach": 2950,
      "bed": 2951,
      "Ġord": 2952,
      "Ġmethod": 2953,
      "chers": 2954,
      "face": 2955,
      "Ġhot": 2956,
      "uclear": 2957,
      "Ġvarious": 2958,
      "Ġknew": 2959,
      "undred": 2960,
      "Ġadministration": 2961,
      "ges": 2962,
      "Ġlink": 2963,
      "Ġexam": 2964,
      "Ġexcept": 2965,
      "Ġpopulation": 2966,
      "ĠSunday": 2967,
      "ession": 2968,
      "inks": 2969,
      "igr": 2970,
      "Ġenjoy": 2971,
      "exas": 2972,
      "ny": 2973,
      "yond": 2974,
      "ani": 2975,
      "Ġemer": 2976,
      "Ġsepar": 2977,
      "rap": 2978,
      "ysis": 2979,
      "Ġcrim": 2980,
      "room": 2981,
      "Ġclub": 2982,
      "ovember": 2983,
      "âĢĿ.": 2984,
      "aged": 2985,
      "fully": 2986,
      "Ġill": 2987,
      "Ġbrought": 2988,
      "aker": 2989,
      "Ġproducts": 2990,
      "ĠApple": 2991,
      "Ġmother": 2992,
      "Ġgirl": 2993,
      "Ġwants": 2994,
      "ĠIslam": 2995,
      "uses": 2996,
      "ĠOctober": 2997,
      "Ġ)": 2998,
      "Ġreach": 2999,
      "Ġdoll": 3000,
      "gest": 3001,
      "ened": 3002,
      "ites": 3003,
      "ĠSan": 3004,
      "aled": 3005,
      "Ġhon": 3006,
      "Ġround": 3007,
      "idered": 3008,
      "Ġcomplex": 3009,
      "ze": 3010,
      "ibly": 3011,
      "cember": 3012,
      "ĠEl": 3013,
      "Ġrules": 3014,
      "anned": 3015,
      "rect": 3016,
      "ico": 3017,
      "Ġreb": 3018,
      "Ġevents": 3019,
      "Ġvisit": 3020,
      "ences": 3021,
      "aries": 3022,
      "ĠAct": 3023,
      "Ġheard": 3024,
      "agement": 3025,
      "Ġhands": 3026,
      "Ġsurve": 3027,
      "Ġimprove": 3028,
      "Ġpaper": 3029,
      "usion": 3030,
      "Ġmeeting": 3031,
      "Ġbank": 3032,
      "Ġmorning": 3033,
      "Ġ23": 3034,
      "ĠSch": 3035,
      "ttp": 3036,
      "'d": 3037,
      "Ġtown": 3038,
      "omp": 3039,
      "ĠTH": 3040,
      "ĠCor": 3041,
      "Ġcosts": 3042,
      "fact": 3043,
      "where": 3044,
      "Ġess": 3045,
      "ĠTor": 3046,
      "oud": 3047,
      "ĠChinese": 3048,
      "Ġextreme": 3049,
      "ĠDonald": 3050,
      "\",": 3051,
      "Ġvo": 3052,
      "uk": 3053,
      "imum": 3054,
      "ĠNovember": 3055,
      "Ġspokes": 3056,
      "Ġcritic": 3057,
      "ĠCounty": 3058,
      "After": 3059,
      "coin": 3060,
      "Ġstandard": 3061,
      "Ġuser": 3062,
      "ha": 3063,
      "Ġlooks": 3064,
      "Ġdro": 3065,
      "Ġbox": 3066,
      "Ġwond": 3067,
      "arily": 3068,
      "ĠTimes": 3069,
      "Ġprep": 3070,
      "uit": 3071,
      "Ġdog": 3072,
      "ĠRussia": 3073,
      "urning": 3074,
      "Ġpers": 3075,
      "Ġrequired": 3076,
      "Ġitem": 3077,
      "ĠMark": 3078,
      "Ġcontact": 3079,
      "Ġconsidered": 3080,
      "Ġsafe": 3081,
      "Ġtradition": 3082,
      "Ġpict": 3083,
      "Ġofficers": 3084,
      "Ġlegisl": 3085,
      "US": 3086,
      "Ġdig": 3087,
      "Ġstuff": 3088,
      "abor": 3089,
      "ondon": 3090,
      "estern": 3091,
      "ĠGl": 3092,
      "ĠDecember": 3093,
      "Ġfeatures": 3094,
      "reedom": 3095,
      "vertisement": 3096,
      "orters": 3097,
      "Ġindepend": 3098,
      "Ġlevels": 3099,
      "Ġengine": 3100,
      "sequ": 3101,
      "ecause": 3102,
      "Ġmedical": 3103,
      "Ġmovement": 3104,
      "Ġvia": 3105,
      "Ġofficer": 3106,
      "Ġtried": 3107,
      "Ġhear": 3108,
      "Ġpurch": 3109,
      "Ġsafety": 3110,
      "Ġ@": 3111,
      "Ġallowed": 3112,
      "Ġpoll": 3113,
      "Ġnamed": 3114,
      "Ġdescribed": 3115,
      "Ġâ": 3116,
      "aves": 3117,
      "Ġprior": 3118,
      "Ġclaims": 3119,
      "Ġtraining": 3120,
      "ĠKing": 3121,
      "idents": 3122,
      "Ġcard": 3123,
      "anced": 3124,
      "Ġcitiz": 3125,
      "Ġens": 3126,
      "ishing": 3127,
      "Ġfear": 3128,
      "Ġattention": 3129,
      "Ġpath": 3130,
      "imately": 3131,
      "ĠIndia": 3132,
      "Ġund": 3133,
      "ening": 3134,
      "Tr": 3135,
      "ĠNet": 3136,
      "Ġjournal": 3137,
      "Ġtalking": 3138,
      "While": 3139,
      "hest": 3140,
      "Ġfigure": 3141,
      "load": 3142,
      "Ġrob": 3143,
      "Ġimplement": 3144,
      "With": 3145,
      "Ġnatural": 3146,
      "Ġforces": 3147,
      "Ġstar": 3148,
      "Ġimage": 3149,
      "het": 3150,
      "Ġson": 3151,
      "Ġparts": 3152,
      "Ġstrugg": 3153,
      "ĠBlack": 3154,
      "23": 3155,
      "Ġ27": 3156,
      "Ġdirectly": 3157,
      "ĠMichael": 3158,
      "ĠCourt": 3159,
      "Ġexperien": 3160,
      "Ġslow": 3161,
      "Ġspot": 3162,
      "Ġavoid": 3163,
      "Ġlay": 3164,
      "Ġdefense": 3165,
      "Ġsoftware": 3166,
      "oura": 3167,
      "Ġhor": 3168,
      "Ġhosp": 3169,
      "ĠAssoci": 3170,
      "Ġexactly": 3171,
      "iant": 3172,
      "rated": 3173,
      "Ġsle": 3174,
      "Ġpen": 3175,
      "Ġfell": 3176,
      "Ġpaid": 3177,
      "alled": 3178,
      "Ġprovided": 3179,
      "Ġopportunity": 3180,
      "Ġhundred": 3181,
      "elligence": 3182,
      "ams": 3183,
      "aint": 3184,
      "Ġdoub": 3185,
      "Ġmajority": 3186,
      "aturday": 3187,
      "Ġsystems": 3188,
      "Ġmovie": 3189,
      "Ġparents": 3190,
      "ĠTexas": 3191,
      "Ġ2008": 3192,
      "Ġsociety": 3193,
      "24": 3194,
      "aur": 3195,
      "Ġobvious": 3196,
      "Ġleader": 3197,
      "Ġlatest": 3198,
      "icles": 3199,
      "Ġ28": 3200,
      "Ġtext": 3201,
      "Ġbiggest": 3202,
      "atter": 3203,
      "Ġpan": 3204,
      "ĠCont": 3205,
      "iring": 3206,
      "ban": 3207,
      "Ġconduct": 3208,
      "Ġcoach": 3209,
      "Ġshowed": 3210,
      "Ġdraw": 3211,
      "Ġcommunic": 3212,
      "ĠIndian": 3213,
      "new": 3214,
      "AM": 3215,
      "Ġband": 3216,
      "Ġmach": 3217,
      "Ġselect": 3218,
      "Ġparticularly": 3219,
      "Ġdocument": 3220,
      "ett": 3221,
      "Ġcele": 3222,
      "Ġwritten": 3223,
      "come": 3224,
      "king": 3225,
      "Ġachie": 3226,
      "Ġsens": 3227,
      "Ġinn": 3228,
      "oming": 3229,
      "ĠSci": 3230,
      "Ġsearch": 3231,
      "Ġbudget": 3232,
      "ĠLondon": 3233,
      "Ġ2009": 3234,
      "Ġdifference": 3235,
      "Ġconvers": 3236,
      "Ġcompletely": 3237,
      "eff": 3238,
      "Ġpractice": 3239,
      "Ġut": 3240,
      "oper": 3241,
      "Ġstarting": 3242,
      "Ġinvestigation": 3243,
      "FL": 3244,
      "Ġready": 3245,
      "Ġepis": 3246,
      "erc": 3247,
      "Ġstories": 3248,
      "Ġaren": 3249,
      "Ġthinking": 3250,
      "Ġestim": 3251,
      "eared": 3252,
      "ification": 3253,
      "Ġmodern": 3254,
      "Ġvoters": 3255,
      "Ġcontinued": 3256,
      "entially": 3257,
      "istan": 3258,
      "Ġdied": 3259,
      "Ġsometimes": 3260,
      "ĠLeague": 3261,
      "Ġinteresting": 3262,
      "Ġhistor": 3263,
      "ables": 3264,
      "Ġclimate": 3265,
      "Ġmaint": 3266,
      "ĠMuslim": 3267,
      "rast": 3268,
      "atform": 3269,
      "Ġabort": 3270,
      "Ġnuclear": 3271,
      "inally": 3272,
      "ĠServ": 3273,
      "eth": 3274,
      "ĠCoun": 3275,
      "ĠJames": 3276,
      "Ġunf": 3277,
      "Ġperhaps": 3278,
      "ĠSenate": 3279,
      "No": 3280,
      "Ġassist": 3281,
      "Ġextra": 3282,
      "ĠRepublicans": 3283,
      "oses": 3284,
      "Ġimag": 3285,
      "Ġresear": 3286,
      "She": 3287,
      "Ġfast": 3288,
      "OS": 3289,
      "Ġtour": 3290,
      "Ġhous": 3291,
      "Ġwriting": 3292,
      "ma": 3293,
      "ining": 3294,
      "Ġult": 3295,
      "Ġagency": 3296,
      "Ġregul": 3297,
      "Ġcertainly": 3298,
      "omen": 3299,
      "ĠMon": 3300,
      "illed": 3301,
      "Ġseven": 3302,
      "ĠGO": 3303,
      "itute": 3304,
      "Ġregion": 3305,
      "Ġprotest": 3306,
      "isions": 3307,
      "Ġlooked": 3308,
      "Ġattacks": 3309,
      "Ġsexual": 3310,
      "ĠDemocratic": 3311,
      "Ġver": 3312,
      "itor": 3313,
      "hib": 3314,
      "Ġfit": 3315,
      "ĠStreet": 3316,
      "oo": 3317,
      "arr": 3318,
      "Ġstyle": 3319,
      "Ġremain": 3320,
      "Ġautom": 3321,
      "Ġmessage": 3322,
      "ĠFirst": 3323,
      "Ġincome": 3324,
      "Ġdanger": 3325,
      "Ġincreasing": 3326,
      "22": 3327,
      "IC": 3328,
      "Ġconsist": 3329,
      "Ġsubst": 3330,
      "fort": 3331,
      "ruary": 3332,
      "Ġregular": 3333,
      "wo": 3334,
      "ĠEm": 3335,
      "Ġil": 3336,
      "add": 3337,
      "Ġspeed": 3338,
      "Ġgiving": 3339,
      "New": 3340,
      "Ġlanguage": 3341,
      "la": 3342,
      "Ġment": 3343,
      "Ġguy": 3344,
      "Ġdetails": 3345,
      "Ġmultiple": 3346,
      "ĠWilliam": 3347,
      "RE": 3348,
      "ford": 3349,
      "Ġbeyond": 3350,
      "Ġefforts": 3351,
      "Ġproperty": 3352,
      "Ġsuspect": 3353,
      "Ġfinally": 3354,
      "Ġveh": 3355,
      "rim": 3356,
      "Ġaw": 3357,
      "Ġupon": 3358,
      "Ġarch": 3359,
      "Ġprevent": 3360,
      "Ġconference": 3361,
      "Ġeffects": 3362,
      "iable": 3363,
      "erve": 3364,
      "Ġcross": 3365,
      "ĠIS": 3366,
      "Ġpoor": 3367,
      "Ġlargest": 3368,
      "Ġreligious": 3369,
      "orney": 3370,
      "Ġeight": 3371,
      "ĠDemocrats": 3372,
      "www": 3373,
      "craft": 3374,
      "field": 3375,
      "Ġstage": 3376,
      "lying": 3377,
      "ĠSand": 3378,
      "raq": 3379,
      "Ġresour": 3380,
      "Ġquality": 3381,
      "ĠRussian": 3382,
      "oles": 3383,
      "Ġcenter": 3384,
      "Ġcomments": 3385,
      "ĠKe": 3386,
      "Ġstudent": 3387,
      "Ġstudies": 3388,
      "idge": 3389,
      "ĠEU": 3390,
      "ĠEven": 3391,
      "Ġusually": 3392,
      "ension": 3393,
      "80": 3394,
      "BI": 3395,
      "Now": 3396,
      "cul": 3397,
      "atever": 3398,
      "Ġleading": 3399,
      "ĠSaturday": 3400,
      "ĠEast": 3401,
      "ixed": 3402,
      "Ġtable": 3403,
      "Ġones": 3404,
      "ĠBill": 3405,
      "pper": 3406,
      "Ġwouldn": 3407,
      "Ġcharges": 3408,
      "tr": 3409,
      "ĠRich": 3410,
      "Ġcarry": 3411,
      "Ġalleged": 3412,
      "ĠFebruary": 3413,
      "Ġwife": 3414,
      "Ġpsych": 3415,
      "Ġcouldn": 3416,
      "Ġdespite": 3417,
      "Ġpurp": 3418,
      "rial": 3419,
      "Ġspeech": 3420,
      "Ġgrowing": 3421,
      "ĠMor": 3422,
      "ously": 3423,
      "ĠMore": 3424,
      "raw": 3425,
      "Ġsn": 3426,
      "ĠBo": 3427,
      "Ġalthough": 3428,
      "Ġrelative": 3429,
      "Ġremains": 3430,
      "Ġanswer": 3431,
      "OT": 3432,
      "ufact": 3433,
      "icated": 3434,
      "Ġscience": 3435,
      "AD": 3436,
      "ĠSer": 3437,
      "Ġchief": 3438,
      "Ġprison": 3439,
      "Ġmemory": 3440,
      "Ġadditional": 3441,
      "Ġilleg": 3442,
      "ille": 3443,
      "Ġdetail": 3444,
      "Ġign": 3445,
      "Ġmiddle": 3446,
      "Ġkids": 3447,
      "mitted": 3448,
      "Ġtemper": 3449,
      "ground": 3450,
      "ĠII": 3451,
      "ĠOff": 3452,
      "Ġscreen": 3453,
      "Ġterm": 3454,
      "Ġreading": 3455,
      "box": 3456,
      "ari": 3457,
      "Ġblog": 3458,
      "utions": 3459,
      "ĠSpe": 3460,
      "Ġshown": 3461,
      "Ġcris": 3462,
      "Ġanalysis": 3463,
      "Ġchallen": 3464,
      "ĠMP": 3465,
      "overed": 3466,
      "igration": 3467,
      "ĠReg": 3468,
      "Ġdemonst": 3469,
      "Ġdesigned": 3470,
      "bum": 3471,
      "Ġpit": 3472,
      "zz": 3473,
      "Ġ26": 3474,
      "using": 3475,
      "earch": 3476,
      "Ġdisp": 3477,
      "Ġscene": 3478,
      "Ġincludes": 3479,
      "aught": 3480,
      "ĠSw": 3481,
      "reng": 3482,
      "Ġopin": 3483,
      "Ġoption": 3484,
      "Ġgone": 3485,
      "ĠMex": 3486,
      "Ġcalls": 3487,
      "Ġletter": 3488,
      "de": 3489,
      "Ġguys": 3490,
      "Ġreceive": 3491,
      "Ġremember": 3492,
      "Ġcriminal": 3493,
      "ilies": 3494,
      "Ġplatform": 3495,
      "Ġtrust": 3496,
      "Ġrelated": 3497,
      "ken": 3498,
      "Ġappears": 3499,
      "Ġ}": 3500,
      "Ġstore": 3501,
      "ĠHer": 3502,
      "Ġalone": 3503,
      "ĠJack": 3504,
      "Ġconcept": 3505,
      "astic": 3506,
      "Ġsurv": 3507,
      "iers": 3508,
      "ĠRober": 3509,
      "Ġfeed": 3510,
      "Ġchoice": 3511,
      "lish": 3512,
      "Ġreality": 3513,
      "Ġbooks": 3514,
      "Ġviolence": 3515,
      "ĠMinister": 3516,
      "oman": 3517,
      "ĠIraq": 3518,
      "Ġcontribut": 3519,
      "irth": 3520,
      "Ġcool": 3521,
      "Ġthroughout": 3522,
      "Ġobserv": 3523,
      "ocks": 3524,
      "ĠStar": 3525,
      "Ġquarter": 3526,
      "Ġmyself": 3527,
      "Ġdebate": 3528,
      "Ġsummer": 3529,
      "Ġimmediately": 3530,
      "Ġthousands": 3531,
      "Ġpowerful": 3532,
      "Ġdraft": 3533,
      "encies": 3534,
      "arian": 3535,
      "Ġmob": 3536,
      "akers": 3537,
      "Advertisement": 3538,
      "Ġwrite": 3539,
      "che": 3540,
      "ivity": 3541,
      "airs": 3542,
      "Ġmeasure": 3543,
      "Im": 3544,
      "Ġreasons": 3545,
      "rowd": 3546,
      "Ġmill": 3547,
      "Ġrout": 3548,
      "Ġleague": 3549,
      "ĠJew": 3550,
      "Ġdisapp": 3551,
      "Ġnature": 3552,
      "Ġ(@": 3553,
      "Ġrecomm": 3554,
      "Ġhappy": 3555,
      "Ġdistrict": 3556,
      "Ġfrequ": 3557,
      "AC": 3558,
      "just": 3559,
      "etro": 3560,
      "olute": 3561,
      "ĠHere": 3562,
      "ĠThen": 3563,
      "Ġimpl": 3564,
      "ĠGermany": 3565,
      "Ġincreased": 3566,
      "Ġchanged": 3567,
      "Ġcomputer": 3568,
      "more": 3569,
      "Ġspending": 3570,
      "Ġhelped": 3571,
      "ĠIran": 3572,
      "Ġcharge": 3573,
      "Ġblood": 3574,
      "Ġnecessary": 3575,
      "icks": 3576,
      "Ġclos": 3577,
      "Ġeventually": 3578,
      "IT": 3579,
      "Ġreached": 3580,
      "ĠMe": 3581,
      "Ġmeaning": 3582,
      "Ġcounter": 3583,
      "ĠAM": 3584,
      "ope": 3585,
      "aging": 3586,
      "ocked": 3587,
      "Ġeducation": 3588,
      "By": 3589,
      "Ġdeg": 3590,
      "Ġoverall": 3591,
      "venue": 3592,
      "Ġlaunch": 3593,
      "Ġcrisis": 3594,
      "oul": 3595,
      "ara": 3596,
      "asc": 3597,
      "urt": 3598,
      "riage": 3599,
      "Ġpatients": 3600,
      "Ġlimited": 3601,
      "Ġconditions": 3602,
      "Ġsat": 3603,
      "arl": 3604,
      "rench": 3605,
      "aughter": 3606,
      "Ġbeginning": 3607,
      "icit": 3608,
      "que": 3609,
      "Ġplant": 3610,
      "ET": 3611,
      "Ġdecades": 3612,
      "ribution": 3613,
      "Ġcopy": 3614,
      "dom": 3615,
      "Ġdrive": 3616,
      "ĠPC": 3617,
      "Ġrates": 3618,
      "Ġcamer": 3619,
      "âĢĶâĢĶâĢĶâĢĶ": 3620,
      "berg": 3621,
      "Ġyourself": 3622,
      "Ġrock": 3623,
      "Ġpassed": 3624,
      "Ġesc": 3625,
      "Ġorganization": 3626,
      "ĠBrown": 3627,
      "Ġpreviously": 3628,
      "Ġahead": 3629,
      "inary": 3630,
      "Ġhair": 3631,
      "eneral": 3632,
      "ĠAnge": 3633,
      "Ġcorpor": 3634,
      "All": 3635,
      "Ġhom": 3636,
      "Ġfailed": 3637,
      "Ġculture": 3638,
      "Ġtowards": 3639,
      "Ġaware": 3640,
      "Ġstreng": 3641,
      "According": 3642,
      "pre": 3643,
      "iles": 3644,
      "rupt": 3645,
      "Ġcaused": 3646,
      "Ġeyes": 3647,
      "My": 3648,
      "Ġcities": 3649,
      "orks": 3650,
      "adem": 3651,
      "iation": 3652,
      "inated": 3653,
      "ĠGreen": 3654,
      "wood": 3655,
      "ado": 3656,
      "Ġactions": 3657,
      "Ġaltern": 3658,
      "Ġsigned": 3659,
      "Ġeasily": 3660,
      "____": 3661,
      "ĠAustralia": 3662,
      "Ġpiece": 3663,
      "Ġfile": 3664,
      "Ġcompared": 3665,
      "45": 3666,
      "Ġx": 3667,
      "Ġclaimed": 3668,
      "ĠTrans": 3669,
      "Ġsusp": 3670,
      "Ġpark": 3671,
      "acher": 3672,
      "owers": 3673,
      "ago": 3674,
      "Ġtwe": 3675,
      "Ġcrime": 3676,
      "Ġfamilies": 3677,
      "Ġencoura": 3678,
      "ĠHam": 3679,
      "Ġpus": 3680,
      "Ġ60": 3681,
      "yl": 3682,
      "Ġten": 3683,
      "Ġtro": 3684,
      "icted": 3685,
      "Ġforced": 3686,
      "Ġ196": 3687,
      "Ġpresidential": 3688,
      "iverse": 3689,
      "Ġphysical": 3690,
      "Ġtitle": 3691,
      "ĠOf": 3692,
      "ĠStud": 3693,
      "Ġpressure": 3694,
      "ĠMost": 3695,
      "Ġsell": 3696,
      "ĠNe": 3697,
      "Ġknowledge": 3698,
      "Ġproduced": 3699,
      "Ġcentury": 3700,
      "Ġmoving": 3701,
      "Ġprojects": 3702,
      "Re": 3703,
      "ux": 3704,
      "Ġnote": 3705,
      "Ġaim": 3706,
      "Ġyes": 3707,
      "Ġknows": 3708,
      "wise": 3709,
      "Ġmeant": 3710,
      "Ġexecutive": 3711,
      "27": 3712,
      "ida": 3713,
      "ĠTom": 3714,
      "iven": 3715,
      "wards": 3716,
      "uana": 3717,
      "ĠAnt": 3718,
      "Ġunique": 3719,
      "Ġacqu": 3720,
      "Ġschools": 3721,
      "orter": 3722,
      "change": 3723,
      "Ġsubs": 3724,
      "Ġspecies": 3725,
      "ĠMcC": 3726,
      "Ġindividuals": 3727,
      "ĠGeorge": 3728,
      "28": 3729,
      "me": 3730,
      "Ġlif": 3731,
      "urance": 3732,
      "Ġprem": 3733,
      "Ġ2007": 3734,
      "Ġcitizens": 3735,
      "Ġsal": 3736,
      "Ġcrowd": 3737,
      "Ġban": 3738,
      "aches": 3739,
      "Ġplaces": 3740,
      "itely": 3741,
      "Ġconfir": 3742,
      "Ġmoved": 3743,
      "Ġpolicies": 3744,
      "Ġsenior": 3745,
      "sey": 3746,
      "Ġuses": 3747,
      "Ġgrad": 3748,
      "Ġgrand": 3749,
      "Don": 3750,
      "ĠSchool": 3751,
      "ĠChe": 3752,
      "ĠBat": 3753,
      "ĠRob": 3754,
      "Ġalbum": 3755,
      "35": 3756,
      "Pro": 3757,
      "inn": 3758,
      "Ġsto": 3759,
      "Ġowners": 3760,
      "Ġcontinues": 3761,
      "Ġcustomers": 3762,
      "ĠInternational": 3763,
      "Ġclean": 3764,
      "100": 3765,
      "26": 3766,
      "Ġfa": 3767,
      "part": 3768,
      "Ġmist": 3769,
      "Ġ29": 3770,
      "ĠJer": 3771,
      "Ġcredit": 3772,
      "ĠSmith": 3773,
      "Ġwall": 3774,
      "iller": 3775,
      "ĠDay": 3776,
      "ĠUnion": 3777,
      "Ġconflic": 3778,
      "Ġrefer": 3779,
      "ijuana": 3780,
      "mar": 3781,
      "âĢ¢": 3782,
      "Ġappeared": 3783,
      "Ġdeveloped": 3784,
      "ĠCouncil": 3785,
      "rate": 3786,
      "Ġrap": 3787,
      "Ġinteg": 3788,
      "Ġmanufact": 3789,
      "Ġparties": 3790,
      "Ġassum": 3791,
      "ampions": 3792,
      "Ġagreement": 3793,
      "nel": 3794,
      "urg": 3795,
      "Ġconscious": 3796,
      "Ġsolar": 3797,
      "Ġcharacters": 3798,
      "21": 3799,
      "Ġfan": 3800,
      "Ġintelligence": 3801,
      "Ġminor": 3802,
      "Ġadvant": 3803,
      "enty": 3804,
      "ĠDes": 3805,
      "Ġnoted": 3806,
      "fl": 3807,
      "Ġdate": 3808,
      "Ġgives": 3809,
      "Ġhospital": 3810,
      "Ġresearchers": 3811,
      "):": 3812,
      "rief": 3813,
      "Ġideas": 3814,
      "ĠEarth": 3815,
      "ounds": 3816,
      "Ġmaybe": 3817,
      "Ġcentral": 3818,
      "bon": 3819,
      "Ġcat": 3820,
      "Ġfirm": 3821,
      "chan": 3822,
      "Ġcolor": 3823,
      "EO": 3824,
      "ĠSim": 3825,
      "Ġbenefits": 3826,
      "ĠBit": 3827,
      "ĠDel": 3828,
      "Ġbrother": 3829,
      "Ġcandidate": 3830,
      "AP": 3831,
      "Ġwilling": 3832,
      "Ġtruth": 3833,
      "Ġfollowed": 3834,
      "ĠPhil": 3835,
      "dis": 3836,
      "Ġdark": 3837,
      "Ġbrain": 3838,
      "Ġbehavior": 3839,
      "OM": 3840,
      "men": 3841,
      "ston": 3842,
      "Ġele": 3843,
      "Ġstra": 3844,
      "forcement": 3845,
      "mark": 3846,
      "lease": 3847,
      "ĠKorea": 3848,
      "Ġsom": 3849,
      "anch": 3850,
      "Ġrise": 3851,
      "Ġgoals": 3852,
      "Ġpromot": 3853,
      "Ġbott": 3854,
      "Ġborder": 3855,
      "Ġprogress": 3856,
      "----------------": 3857,
      "Ġlearned": 3858,
      "ĠEnglish": 3859,
      "secut": 3860,
      "do": 3861,
      "Ġbattle": 3862,
      "Ġmostly": 3863,
      "iny": 3864,
      "Ġreform": 3865,
      "ĠBer": 3866,
      "miss": 3867,
      "nown": 3868,
      "pen": 3869,
      "aby": 3870,
      "udd": 3871,
      "ĠTeam": 3872,
      "Ġfootball": 3873,
      "Ġemployees": 3874,
      "Ġsil": 3875,
      "Ġlines": 3876,
      "ĠInt": 3877,
      "etic": 3878,
      "Ġemb": 3879,
      "Ġcollege": 3880,
      "Ġallows": 3881,
      "SA": 3882,
      "Ġbirth": 3883,
      "ĠAccording": 3884,
      "Ġdamage": 3885,
      "Ġfeature": 3886,
      "Ġgreater": 3887,
      "Ġanaly": 3888,
      "ĠSyria": 3889,
      "Ġrank": 3890,
      "Ġpolitics": 3891,
      "Ġfully": 3892,
      "Ġsources": 3893,
      "Ġstatus": 3894,
      "yan": 3895,
      "Ġdrop": 3896,
      "ĠTur": 3897,
      "Ġstructure": 3898,
      "Ġemot": 3899,
      "Ġkept": 3900,
      "Ġclearly": 3901,
      "ĠPlay": 3902,
      "Ġshooting": 3903,
      "Ġsleep": 3904,
      "rav": 3905,
      "Ġpositive": 3906,
      "Ġmanager": 3907,
      "ein": 3908,
      "Ġtend": 3909,
      "Ġfreedom": 3910,
      "Ġrare": 3911,
      "Ġvoice": 3912,
      "Ġmur": 3913,
      "ĠMart": 3914,
      "Ġagg": 3915,
      "Ġcorrect": 3916,
      "Ġlaun": 3917,
      "ING": 3918,
      "Ġlarger": 3919,
      "Un": 3920,
      "ĠVal": 3921,
      "Ġtouch": 3922,
      "Ġdisplay": 3923,
      "Ġapparent": 3924,
      "Ġprimary": 3925,
      "yer": 3926,
      "Ġcast": 3927,
      "Ġnice": 3928,
      "Ġnames": 3929,
      "Ġlabor": 3930,
      "antly": 3931,
      "rs": 3932,
      "term": 3933,
      "ĠHigh": 3934,
      "vernment": 3935,
      "board": 3936,
      "uty": 3937,
      "Ġdoor": 3938,
      "onto": 3939,
      "Ġabsolute": 3940,
      "pri": 3941,
      "ĠEvery": 3942,
      "Ġadding": 3943,
      "Ġweapons": 3944,
      "29": 3945,
      "OU": 3946,
      "wide": 3947,
      "itude": 3948,
      "uing": 3949,
      "iders": 3950,
      "ĠSa": 3951,
      "Ġweb": 3952,
      "Ġactual": 3953,
      "Ġproduce": 3954,
      "Ġreflect": 3955,
      "Ġsmok": 3956,
      "Ġbrand": 3957,
      "ĠComp": 3958,
      "Ġasking": 3959,
      "Ġfunding": 3960,
      "style": 3961,
      "Ġprec": 3962,
      "Ġsmart": 3963,
      "ĠScott": 3964,
      "levision": 3965,
      "Ġinfluence": 3966,
      "37": 3967,
      "?\"": 3968,
      "EC": 3969,
      "Some": 3970,
      "onents": 3971,
      "Ġhar": 3972,
      "Ġasse": 3973,
      "Ġunderstanding": 3974,
      "ĠConserv": 3975,
      "Ġchallenge": 3976,
      "ĠBel": 3977,
      "Ġscen": 3978,
      "Ġended": 3979,
      "Ġauthorities": 3980,
      "Ġwait": 3981,
      "Ġchalleng": 3982,
      "col": 3983,
      "ĠLiber": 3984,
      "Ġadop": 3985,
      "ormon": 3986,
      "Ġhighly": 3987,
      "Ġweekend": 3988,
      "Ġwonder": 3989,
      "IA": 3990,
      "itation": 3991,
      "ĠWell": 3992,
      "ĠLaw": 3993,
      "Ġetc": 3994,
      "spect": 3995,
      "uild": 3996,
      "umn": 3997,
      "Ġprices": 3998,
      "Ġinterested": 3999,
      "Ġwhatever": 4000,
      "lands": 4001,
      "Ġnormal": 4002,
      "fr": 4003,
      "Ġshut": 4004,
      "Ġspread": 4005,
      "Ġsupposed": 4006,
      "Ġslight": 4007,
      "Ġfemale": 4008,
      "ĠPM": 4009,
      ".âĢĻ": 4010,
      "Ġcommand": 4011,
      "Ġraised": 4012,
      "Ġillegal": 4013,
      "iance": 4014,
      "ki": 4015,
      "ĠAir": 4016,
      "Ġbal": 4017,
      "Ġcoal": 4018,
      "Ġpropos": 4019,
      "Ġswe": 4020,
      "Ġlose": 4021,
      "acks": 4022,
      "Ġspend": 4023,
      "Ġlik": 4024,
      "ĠRec": 4025,
      "Ex": 4026,
      "Ġlibr": 4027,
      "Ġoffered": 4028,
      "Ġinvestment": 4029,
      "Ġadvoc": 4030,
      "Ġtreatment": 4031,
      "pir": 4032,
      "iced": 4033,
      "ĠAut": 4034,
      "ĠLou": 4035,
      "Ġseemed": 4036,
      "Ġrecords": 4037,
      "ĠInstitute": 4038,
      "ĠResearch": 4039,
      "ingly": 4040,
      "ĠSecret": 4041,
      "Ġmer": 4042,
      "oday": 4043,
      "rag": 4044,
      "Ġcontain": 4045,
      "Ġincident": 4046,
      "while": 4047,
      "Ġsales": 4048,
      "orrow": 4049,
      "ube": 4050,
      "Ġorganiz": 4051,
      "Ġweight": 4052,
      "ĠHealth": 4053,
      "ties": 4054,
      "ano": 4055,
      "Ġthrow": 4056,
      "ĠSun": 4057,
      "ĠNor": 4058,
      "ĠArab": 4059,
      "Ġcreating": 4060,
      "Ġmassive": 4061,
      "Ġcelebr": 4062,
      "Ġhttp": 4063,
      "see": 4064,
      "Ġheat": 4065,
      "ĠPort": 4066,
      "Ġuns": 4067,
      "Ġassault": 4068,
      "Ġtraffic": 4069,
      "Ġstream": 4070,
      "Ġvirt": 4071,
      "igned": 4072,
      "Ġconcerns": 4073,
      "Ġoptions": 4074,
      "Ġresponsible": 4075,
      "Ġresources": 4076,
      "Ġir": 4077,
      "Ġtheory": 4078,
      "ona": 4079,
      "ented": 4080,
      "Ġmechan": 4081,
      "Ġsave": 4082,
      "ĠOur": 4083,
      "Ġnegative": 4084,
      ".'": 4085,
      "Ġfine": 4086,
      "acing": 4087,
      "ĠLab": 4088,
      "Ġkick": 4089,
      "Ġchem": 4090,
      "Ġarrested": 4091,
      "OL": 4092,
      "Ġattract": 4093,
      "Ġcells": 4094,
      "oti": 4095,
      "ategy": 4096,
      "estic": 4097,
      "resh": 4098,
      "Ġeffic": 4099,
      "Ġstrategy": 4100,
      "Ġexpand": 4101,
      "onent": 4102,
      "Ġnom": 4103,
      "Ġhaven": 4104,
      "ĠRE": 4105,
      "Ġprint": 4106,
      "FC": 4107,
      "acity": 4108,
      "ĠBen": 4109,
      "ĠNFL": 4110,
      "Ġworse": 4111,
      "Ġliter": 4112,
      "ĠCommun": 4113,
      "mission": 4114,
      "vest": 4115,
      "Ġseeing": 4116,
      "500": 4117,
      "Here": 4118,
      "rick": 4119,
      "Ġlic": 4120,
      "olic": 4121,
      "ĠPress": 4122,
      "ĠGreat": 4123,
      "Ġhappens": 4124,
      "Ġrestrict": 4125,
      "Ġdebt": 4126,
      "Ġepisode": 4127,
      "Ġcards": 4128,
      "Ġdaily": 4129,
      "Ġbeaut": 4130,
      "igan": 4131,
      "ĠSum": 4132,
      "amb": 4133,
      "ĠBraz": 4134,
      "Ġshared": 4135,
      "These": 4136,
      "Ġcoverage": 4137,
      "ĠChristian": 4138,
      "Ġjudge": 4139,
      "Ġrevealed": 4140,
      "band": 4141,
      "hi": 4142,
      "omas": 4143,
      "Ġfighting": 4144,
      "Ġextremely": 4145,
      "Ġstraight": 4146,
      "rey": 4147,
      "Ġwild": 4148,
      "Ġfat": 4149,
      "Ġang": 4150,
      "bert": 4151,
      "lick": 4152,
      "ĠSuper": 4153,
      "Ġapplication": 4154,
      "ĠOffice": 4155,
      "Ġmount": 4156,
      "Ġcommer": 4157,
      "ĠFrom": 4158,
      "Ġprograms": 4159,
      "ID": 4160,
      "ĠAlex": 4161,
      "ĠDist": 4162,
      "uman": 4163,
      "Ġprovides": 4164,
      "Ġbelieved": 4165,
      "ĠEngland": 4166,
      "Ġpush": 4167,
      "cell": 4168,
      "ĠOther": 4169,
      "Ġmarriage": 4170,
      "ĠJustice": 4171,
      "Be": 4172,
      "fe": 4173,
      "Ġbeat": 4174,
      "ĠDis": 4175,
      "âĢĿ,": 4176,
      "erences": 4177,
      "igrants": 4178,
      "Ġwhom": 4179,
      "However": 4180,
      "!!": 4181,
      "etty": 4182,
      "ĠFrench": 4183,
      "Ġenem": 4184,
      "Ġspir": 4185,
      "ĠFrance": 4186,
      "SP": 4187,
      "house": 4188,
      "krain": 4189,
      "Ġbeg": 4190,
      "Ġarg": 4191,
      "Ġexperiment": 4192,
      "ĠPolice": 4193,
      "Is": 4194,
      "kes": 4195,
      "Ġthus": 4196,
      "rol": 4197,
      "Ġseparate": 4198,
      "roy": 4199,
      "aming": 4200,
      "coming": 4201,
      "ota": 4202,
      "aked": 4203,
      "Ġagreed": 4204,
      "Ġmarijuana": 4205,
      "icians": 4206,
      "Ġeth": 4207,
      "mail": 4208,
      "ager": 4209,
      "Ġoperations": 4210,
      "Ġbenefit": 4211,
      "rian": 4212,
      "Ġjump": 4213,
      "Ġfeet": 4214,
      "Ġsurround": 4215,
      "Ġissued": 4216,
      "Ġconfirmed": 4217,
      "55": 4218,
      "Ġtrou": 4219,
      "ario": 4220,
      "Ġmap": 4221,
      "Ġmale": 4222,
      "ica": 4223,
      "ading": 4224,
      "Ġstation": 4225,
      "Ġstated": 4226,
      "ĠHall": 4227,
      "Ġsuccessful": 4228,
      "ĠCommission": 4229,
      "Not": 4230,
      "mine": 4231,
      "itness": 4232,
      "Ġbelief": 4233,
      "Ġactivity": 4234,
      "ĠHillary": 4235,
      "ait": 4236,
      "ser": 4237,
      "Ġpun": 4238,
      "Ġadult": 4239,
      "Ġmanagement": 4240,
      "Ġdollars": 4241,
      "win": 4242,
      "Ġrule": 4243,
      "ription": 4244,
      "Ġvill": 4245,
      "Ġimages": 4246,
      "Ġcondition": 4247,
      "Ġtypes": 4248,
      "ĠInternet": 4249,
      "illing": 4250,
      "istics": 4251,
      "Ġfeeling": 4252,
      "Ġdrink": 4253,
      "Ġeye": 4254,
      "Ġtraditional": 4255,
      "44": 4256,
      "ares": 4257,
      "Ġaspect": 4258,
      "ĠWhy": 4259,
      "Ġexplained": 4260,
      "org": 4261,
      "Ġinstall": 4262,
      "Ġdevice": 4263,
      "Ġreplace": 4264,
      "ĠToronto": 4265,
      "Ġitems": 4266,
      "Ġensure": 4267,
      "ĠAssociation": 4268,
      "33": 4269,
      "ĠWil": 4270,
      "Ġgenerally": 4271,
      "Ġbasic": 4272,
      "iled": 4273,
      "Ġdefend": 4274,
      "Ġeasier": 4275,
      "Ġopinion": 4276,
      "lor": 4277,
      "erm": 4278,
      "olf": 4279,
      "ĠEv": 4280,
      "Ġ2006": 4281,
      "Ġradio": 4282,
      "irgin": 4283,
      "Ġlear": 4284,
      "Ġleaving": 4285,
      "Ġpeace": 4286,
      "Ġshowing": 4287,
      "Ġobt": 4288,
      "ĠFlor": 4289,
      "ST": 4290,
      "Ġminister": 4291,
      "Ġgeneration": 4292,
      "Ġfarm": 4293,
      "Ġchoose": 4294,
      "ength": 4295,
      "ĠRobert": 4296,
      "EL": 4297,
      "Ġdram": 4298,
      "usive": 4299,
      "ĠUkrain": 4300,
      "Ġincred": 4301,
      "Ġdepartment": 4302,
      "Ġannual": 4303,
      "Ġjoin": 4304,
      "Ġcharged": 4305,
      "Ġscientists": 4306,
      "ĠJapanese": 4307,
      "Ġfaith": 4308,
      "Ġmurder": 4309,
      "vant": 4310,
      "Ġcore": 4311,
      "Ġdire": 4312,
      "Ġdise": 4313,
      "Ġcontrovers": 4314,
      "Ġindependent": 4315,
      "Ġtim": 4316,
      "isher": 4317,
      "ĠMag": 4318,
      "ĠBush": 4319,
      "Ġproposed": 4320,
      "Ġlimit": 4321,
      "Ġadvantage": 4322,
      "gar": 4323,
      "Ġcateg": 4324,
      "ĠBecause": 4325,
      "ĠDef": 4326,
      "Ġchair": 4327,
      "Ġfloor": 4328,
      "Ġafford": 4329,
      "ĠCanadian": 4330,
      "Ġdoubt": 4331,
      "Ġnotice": 4332,
      "ears": 4333,
      "rad": 4334,
      "roid": 4335,
      "Ġsend": 4336,
      "Ġcry": 4337,
      "Ġsection": 4338,
      "Ġtelevision": 4339,
      "Ġneighbor": 4340,
      "Ġgreen": 4341,
      "ĠMer": 4342,
      "ĠWind": 4343,
      "Ġchurch": 4344,
      "Ġsolid": 4345,
      "mittee": 4346,
      "ĠCollege": 4347,
      "oly": 4348,
      "Ġtick": 4349,
      "uries": 4350,
      "Ġrat": 4351,
      "ĠSanders": 4352,
      "ference": 4353,
      "Ġ*": 4354,
      "Ġì": 4355,
      "Ġwat": 4356,
      "Ġscore": 4357,
      "Ġ80": 4358,
      "Ġexplain": 4359,
      "38": 4360,
      "90": 4361,
      "ugg": 4362,
      "ĠLet": 4363,
      "Ġsomew": 4364,
      "Ġheavy": 4365,
      "ĠBank": 4366,
      "ĠOver": 4367,
      "Ġdecade": 4368,
      "Ġinstance": 4369,
      "which": 4370,
      "ENT": 4371,
      "Ġvictims": 4372,
      "Ġhundreds": 4373,
      "BA": 4374,
      "icago": 4375,
      "vere": 4376,
      "rog": 4377,
      "ĠAP": 4378,
      "ĠMod": 4379,
      "ĠGeneral": 4380,
      "Ġcalling": 4381,
      "Ġdetect": 4382,
      "ĠMac": 4383,
      "ĠGold": 4384,
      "ĠUp": 4385,
      "Ġaccused": 4386,
      "Ġposted": 4387,
      "Ġelectric": 4388,
      "Ġhighest": 4389,
      "ipe": 4390,
      "level": 4391,
      "roll": 4392,
      "Ġhero": 4393,
      "ruption": 4394,
      "Ġtaxes": 4395,
      "ortunately": 4396,
      "ĠSociety": 4397,
      "ĠService": 4398,
      "Ġdangerous": 4399,
      "Ġfuel": 4400,
      "Ġexerc": 4401,
      "ĠOh": 4402,
      "Ġamb": 4403,
      "ĠÂ£": 4404,
      "no": 4405,
      "ocr": 4406,
      "aks": 4407,
      "ishment": 4408,
      "Ġenter": 4409,
      "Ġfavorite": 4410,
      "known": 4411,
      "resp": 4412,
      "Ġvotes": 4413,
      "ĠFranc": 4414,
      "34": 4415,
      "equ": 4416,
      "ĠST": 4417,
      "Ġregist": 4418,
      "Ġpattern": 4419,
      "Ġinitial": 4420,
      "ĠMiss": 4421,
      "Ġteach": 4422,
      "Ġsetting": 4423,
      "azing": 4424,
      "ctors": 4425,
      "Ġminimum": 4426,
      "Ġargument": 4427,
      "Ġreduce": 4428,
      "ĠMal": 4429,
      "ĠBrazil": 4430,
      "ND": 4431,
      "Ġharm": 4432,
      "urb": 4433,
      "ĠJose": 4434,
      "Ġbecomes": 4435,
      "Ġbecoming": 4436,
      "Ġ31": 4437,
      "Ġviews": 4438,
      "Ġcritical": 4439,
      "Ġbasis": 4440,
      "Ġannounce": 4441,
      "going": 4442,
      "BM": 4443,
      "yr": 4444,
      "orial": 4445,
      "Ġopening": 4446,
      "Ġexisting": 4447,
      "Ġlaunched": 4448,
      "36": 4449,
      "upp": 4450,
      "vention": 4451,
      "ĠMat": 4452,
      "iling": 4453,
      "Ġinternet": 4454,
      "Ġentirely": 4455,
      "Ġ{\\": 4456,
      "Ġanimals": 4457,
      "ĠPalest": 4458,
      "Ġrelatively": 4459,
      "point": 4460,
      "iter": 4461,
      "Ġreject": 4462,
      "azine": 4463,
      "Ġtrend": 4464,
      "Ġpurpose": 4465,
      "Ġunlike": 4466,
      "Ġtrial": 4467,
      "Ġwinning": 4468,
      "Ġmillions": 4469,
      "ĠFlorida": 4470,
      "!âĢĿ": 4471,
      "70": 4472,
      "outhern": 4473,
      "Ġresidents": 4474,
      "Ġvalues": 4475,
      "Ġlearning": 4476,
      "32": 4477,
      "IL": 4478,
      "ios": 4479,
      "Ġice": 4480,
      "stein": 4481,
      "Ġonto": 4482,
      "Ġstreet": 4483,
      "liament": 4484,
      "Ġserve": 4485,
      "Ġinterests": 4486,
      "Ġdriving": 4487,
      "ĠMedic": 4488,
      "Ġreligion": 4489,
      "inger": 4490,
      "Ġcommunities": 4491,
      "Ġcompetition": 4492,
      "Ġphotos": 4493,
      "Ġassociated": 4494,
      "ÂŃ": 4495,
      "Ã¤": 4496,
      "ancy": 4497,
      "Ġpurs": 4498,
      "alse": 4499,
      "Ġdaughter": 4500,
      "Ġhomes": 4501,
      "ifying": 4502,
      "Ġenforcement": 4503,
      "ĠYour": 4504,
      "Ġdefensive": 4505,
      "Ġflag": 4506,
      "class": 4507,
      "Ġaudience": 4508,
      "Ġachieve": 4509,
      "atically": 4510,
      "Ġcash": 4511,
      "ada": 4512,
      "Ġplanning": 4513,
      "Ġpicture": 4514,
      "Ġdream": 4515,
      "ĠTre": 4516,
      "ĠBay": 4517,
      "Ġdifferences": 4518,
      "Ġtransfer": 4519,
      "Ġsites": 4520,
      "Ġdouble": 4521,
      "Ġsan": 4522,
      "ĠBook": 4523,
      "Ġarm": 4524,
      "ography": 4525,
      "Ġearth": 4526,
      "ĠSub": 4527,
      "ĠLa": 4528,
      "Ġpartners": 4529,
      "Ġstrateg": 4530,
      "Ġsupported": 4531,
      "Ġdriver": 4532,
      "Ġran": 4533,
      "Ġ35": 4534,
      "Ġdepend": 4535,
      "Ġbrief": 4536,
      "ĠSince": 4537,
      "Ġchann": 4538,
      "Ġmodels": 4539,
      "Ġserved": 4540,
      "Ġbelieves": 4541,
      "ĠBritain": 4542,
      "ipped": 4543,
      "arant": 4544,
      "ĠTer": 4545,
      "Ġoffensive": 4546,
      "Ġappeal": 4547,
      "Ġinsurance": 4548,
      "Ġolder": 4549,
      "Ġtools": 4550,
      "Ġcook": 4551,
      "orthern": 4552,
      "Ġscale": 4553,
      "Ġsuggests": 4554,
      "Ġspokesman": 4555,
      "ĠScience": 4556,
      "cont": 4557,
      "Ġswit": 4558,
      "iler": 4559,
      "ĠCommittee": 4560,
      "Ġlargely": 4561,
      "Ar": 4562,
      "NN": 4563,
      "ya": 4564,
      "Ġcomfort": 4565,
      "Ġgold": 4566,
      "Ġputting": 4567,
      "ĠSecurity": 4568,
      "Ġestablished": 4569,
      "inate": 4570,
      "Ġbur": 4571,
      "ĠBBC": 4572,
      "ĠStep": 4573,
      "Ġresist": 4574,
      "ĠCarol": 4575,
      "Ġconservative": 4576,
      "Ġstrength": 4577,
      "ĠAtt": 4578,
      "iliar": 4579,
      "Ġdetermin": 4580,
      "Ġhousing": 4581,
      "Des": 4582,
      "za": 4583,
      "zen": 4584,
      "Ġbed": 4585,
      "Ġhack": 4586,
      "ĠCap": 4587,
      "Ġoccas": 4588,
      "Ġactivities": 4589,
      "Ġphoto": 4590,
      "Ġbeer": 4591,
      "Ġpartner": 4592,
      "ribute": 4593,
      "Ġsolution": 4594,
      "Ġconstruction": 4595,
      "list": 4596,
      "Ġreact": 4597,
      "ĠFound": 4598,
      "ĠFBI": 4599,
      "Ġclosed": 4600,
      "real": 4601,
      "ĠMany": 4602,
      "ups": 4603,
      "Ġlocation": 4604,
      "ĠMexico": 4605,
      "oted": 4606,
      "ĠThomas": 4607,
      "Ġtransport": 4608,
      "Ġopened": 4609,
      "Ġnegoti": 4610,
      "Ġcars": 4611,
      "itect": 4612,
      "Ġnone": 4613,
      "Ġgay": 4614,
      "Ġhearing": 4615,
      "Ġactive": 4616,
      "Ġconnection": 4617,
      "ville": 4618,
      "Ġbomb": 4619,
      "Ġnine": 4620,
      "Ġrough": 4621,
      "Ġjustice": 4622,
      "Ġnovel": 4623,
      "ĠPrime": 4624,
      "ĠIslamic": 4625,
      "ĠBitcoin": 4626,
      "ulated": 4627,
      "Ġcapacity": 4628,
      "Ġappropri": 4629,
      "ĠQue": 4630,
      "Ġfailure": 4631,
      "Ġmissing": 4632,
      "Ġrepeated": 4633,
      "ĠGOP": 4634,
      "ownt": 4635,
      "Ġuseful": 4636,
      "Ġruns": 4637,
      "Ġarrived": 4638,
      "ĠAfrican": 4639,
      "Ġsurvey": 4640,
      "GB": 4641,
      "ae": 4642,
      "night": 4643,
      "andom": 4644,
      "Ġoffers": 4645,
      "Ġattorney": 4646,
      "Ġpresence": 4647,
      "Ġ2005": 4648,
      "Ġrequires": 4649,
      "Ġreturned": 4650,
      "Ġcommittee": 4651,
      "Ġdefinitely": 4652,
      "Ġlegislation": 4653,
      "Ġrecommend": 4654,
      "EM": 4655,
      "Ġcru": 4656,
      "edy": 4657,
      "Ġload": 4658,
      "acc": 4659,
      "ĠMil": 4660,
      "Ġworst": 4661,
      "ĠChris": 4662,
      "azon": 4663,
      "Ġcommercial": 4664,
      "ih": 4665,
      "Ġcompar": 4666,
      "Ġ2000": 4667,
      "Ġdevices": 4668,
      "Ã¡": 4669,
      "Ġgain": 4670,
      "verse": 4671,
      "ords": 4672,
      "....": 4673,
      "Ġdefe": 4674,
      "Ġdiscovered": 4675,
      "Ġfinding": 4676,
      "Ġidentified": 4677,
      "Ġmicro": 4678,
      "icip": 4679,
      "ĠChicago": 4680,
      "Ġguard": 4681,
      "osh": 4682,
      "ĠLos": 4683,
      "Ġdecide": 4684,
      "Ġdiscussion": 4685,
      "Ġwatching": 4686,
      "ĠPeople": 4687,
      "Ġdigital": 4688,
      "ĠSecretary": 4689,
      "PA": 4690,
      "well": 4691,
      "rees": 4692,
      "ications": 4693,
      "39": 4694,
      "Americ": 4695,
      "inct": 4696,
      "ĠSam": 4697,
      "ĠBig": 4698,
      "istry": 4699,
      "Ġappl": 4700,
      "elly": 4701,
      "Ġ90": 4702,
      "Ġconclud": 4703,
      "Ġindustrial": 4704,
      "Ġintroduced": 4705,
      "Ġstopped": 4706,
      "mas": 4707,
      "Ġsun": 4708,
      "soft": 4709,
      "Ġspoke": 4710,
      "Ġupdate": 4711,
      "Image": 4712,
      "Ġbanks": 4713,
      "Ġstre": 4714,
      "Ġcong": 4715,
      "Ġsurface": 4716,
      "Ġsett": 4717,
      "Ġmachine": 4718,
      "ĠAngeles": 4719,
      "ĠRom": 4720,
      "Ġappre": 4721,
      "Ġproviding": 4722,
      "Ġfocused": 4723,
      "Ġplease": 4724,
      "48": 4725,
      "cript": 4726,
      "Ġeat": 4727,
      "Ġge": 4728,
      "Ġunit": 4729,
      "olly": 4730,
      "Ġcandidates": 4731,
      "uke": 4732,
      "ossible": 4733,
      "ĠLike": 4734,
      "izes": 4735,
      "Ġinteract": 4736,
      "Ġmiles": 4737,
      "Ġwaiting": 4738,
      "Ġabortion": 4739,
      "gency": 4740,
      "inter": 4741,
      "ulf": 4742,
      "Ġteacher": 4743,
      "tered": 4744,
      "PS": 4745,
      "ym": 4746,
      "outs": 4747,
      "Ġtrain": 4748,
      "Ġtruly": 4749,
      "place": 4750,
      "ĠVirgin": 4751,
      "Ġsmaller": 4752,
      "ĠAfrica": 4753,
      "Ġdeliver": 4754,
      "pm": 4755,
      "ĠMary": 4756,
      "Ġassess": 4757,
      "Ġbusinesses": 4758,
      "Ġprofessor": 4759,
      "but": 4760,
      "Ġaward": 4761,
      "Ġcyc": 4762,
      "Ġborn": 4763,
      "Ġdat": 4764,
      "ĠCEO": 4765,
      "andon": 4766,
      "ĠGroup": 4767,
      "apers": 4768,
      "cknow": 4769,
      "Ġoperation": 4770,
      "Ġdirection": 4771,
      "Our": 4772,
      "].": 4773,
      "itable": 4774,
      "ĠMont": 4775,
      "obby": 4776,
      "Ġattend": 4777,
      "Ġdocuments": 4778,
      "Ġscientific": 4779,
      "Ġtemperature": 4780,
      "Ġcamera": 4781,
      "Ġbottom": 4782,
      "spe": 4783,
      "Ġnar": 4784,
      "ĠWall": 4785,
      "Ġtransl": 4786,
      "Ġallowing": 4787,
      "Ġtells": 4788,
      "Ġraise": 4789,
      "dden": 4790,
      "Ġmentioned": 4791,
      "Ġconflict": 4792,
      "Con": 4793,
      "uct": 4794,
      "Ġspl": 4795,
      "Ġbul": 4796,
      "ication": 4797,
      "ĠCup": 4798,
      "ĠMike": 4799,
      "riz": 4800,
      "Ġplanned": 4801,
      "Ġholding": 4802,
      "Ġvictory": 4803,
      "()": 4804,
      "how": 4805,
      "lo": 4806,
      "imb": 4807,
      "Ġstruct": 4808,
      "iful": 4809,
      "Ġrevolution": 4810,
      "Ġfix": 4811,
      "Ġnor": 4812,
      "Ġstock": 4813,
      "ulate": 4814,
      "Ġplaced": 4815,
      "cient": 4816,
      "ception": 4817,
      "Ġskills": 4818,
      "Ġzone": 4819,
      "uate": 4820,
      "Ġship": 4821,
      "ĠArmy": 4822,
      "ampionship": 4823,
      "kin": 4824,
      "Ġid": 4825,
      "ander": 4826,
      "Ġexchange": 4827,
      "ĠUN": 4828,
      "agon": 4829,
      "Ġeffective": 4830,
      "Ġtrip": 4831,
      "Ġmax": 4832,
      "stream": 4833,
      "osure": 4834,
      "ĠProf": 4835,
      "Ġskin": 4836,
      "Ġveter": 4837,
      "Ġconcerned": 4838,
      "Photo": 4839,
      "Ġnorth": 4840,
      "lyn": 4841,
      "ĠInc": 4842,
      "Ġblue": 4843,
      "Ġopposition": 4844,
      "More": 4845,
      "ipping": 4846,
      "Ġded": 4847,
      "eline": 4848,
      "49": 4849,
      "Ġfant": 4850,
      "Ġwel": 4851,
      "Ġsudden": 4852,
      "Ġexpensive": 4853,
      "Ġfeels": 4854,
      "Ġtelling": 4855,
      "Ġoccurred": 4856,
      "ĠPalestin": 4857,
      "Ġheav": 4858,
      "Ġpercentage": 4859,
      "=\"": 4860,
      "idering": 4861,
      "odes": 4862,
      "anging": 4863,
      "ĠAlso": 4864,
      "ĠFrank": 4865,
      "ĠTHE": 4866,
      "Ġslightly": 4867,
      "ĠFrancis": 4868,
      "Ab": 4869,
      "Mr": 4870,
      "mal": 4871,
      "net": 4872,
      "och": 4873,
      "Ġfresh": 4874,
      "Ġmission": 4875,
      "ader": 4876,
      "Ġaccur": 4877,
      "Ġguess": 4878,
      "Ġgrant": 4879,
      "ĠAdd": 4880,
      "itutional": 4881,
      "oes": 4882,
      "Ġcaught": 4883,
      "Ġexpress": 4884,
      "Ġrestaur": 4885,
      "Ġtesting": 4886,
      "Ġidentity": 4887,
      "Ġprofessional": 4888,
      "CC": 4889,
      "Cl": 4890,
      "ĠPak": 4891,
      "ĠPublic": 4892,
      "anta": 4893,
      "Ġ70": 4894,
      "Ġdropped": 4895,
      "Ġmobile": 4896,
      "vered": 4897,
      "ĠSal": 4898,
      "Ġrich": 4899,
      "ĠRoy": 4900,
      "Ġexcl": 4901,
      "ĠGood": 4902,
      "ĠJones": 4903,
      "Ġleadership": 4904,
      "ĠLouis": 4905,
      "def": 4906,
      "Ġrenew": 4907,
      "Ġconsequ": 4908,
      "ĠWestern": 4909,
      "Ġsequ": 4910,
      "ĠDec": 4911,
      "Ġdecisions": 4912,
      "Ġsteps": 4913,
      "Ġtweet": 4914,
      "NA": 4915,
      "ĠBre": 4916,
      "ancing": 4917,
      "related": 4918,
      "ĠâĪ": 4919,
      "Ġalternative": 4920,
      "Up": 4921,
      "works": 4922,
      "ĠAustralian": 4923,
      "isation": 4924,
      "ĠTim": 4925,
      "ĠCr": 4926,
      "ĠJud": 4927,
      "ĠOut": 4928,
      "Ġcontext": 4929,
      "Ġtask": 4930,
      "Ġacknow": 4931,
      "iser": 4932,
      "ests": 4933,
      "ĠChurch": 4934,
      "Ġsupply": 4935,
      "ployment": 4936,
      "Ġoccup": 4937,
      "cription": 4938,
      "look": 4939,
      "ĠDirect": 4940,
      "Ġpresented": 4941,
      "Ġdestroy": 4942,
      "eah": 4943,
      "ulations": 4944,
      "agues": 4945,
      "Ġprinc": 4946,
      "Ġmanaged": 4947,
      "itt": 4948,
      "aded": 4949,
      "ĠMicro": 4950,
      "Ġadjust": 4951,
      "ĠAlthough": 4952,
      "ttps": 4953,
      "Ġpaying": 4954,
      "Ġvisual": 4955,
      "onym": 4956,
      "Ġdrugs": 4957,
      "care": 4958,
      "owl": 4959,
      "ansion": 4960,
      "Ġagencies": 4961,
      "Ġque": 4962,
      "Ġ32": 4963,
      "Ġacadem": 4964,
      "nergy": 4965,
      "ĠUSA": 4966,
      "Ġimmigration": 4967,
      "Ġjoined": 4968,
      "Ġdomestic": 4969,
      "Read": 4970,
      "bre": 4971,
      "Ġwealth": 4972,
      "Ġspect": 4973,
      "phone": 4974,
      "Ġdownload": 4975,
      "Ġguarant": 4976,
      "Ġfigures": 4977,
      "Ġmeasures": 4978,
      "Ġpredict": 4979,
      "Ġnotes": 4980,
      "Ġhighlight": 4981,
      "Ġfiled": 4982,
      "Ġcuts": 4983,
      "Ġ>>": 4984,
      "ĠDistrict": 4985,
      "ighter": 4986,
      "ĠFair": 4987,
      "ĠJim": 4988,
      "Ġroll": 4989,
      "Ġreporting": 4990,
      "ĠCell": 4991,
      "ĠFox": 4992,
      "aren": 4993,
      "Ġthanks": 4994,
      "rency": 4995,
      "ĠRo": 4996,
      "ĠRock": 4997,
      "Ġshape": 4998,
      "aste": 4999,
      "ection": 5000,
      "Ġnumer": 5001,
      "ĠCentral": 5002,
      "Ġfalse": 5003,
      "ĠHaw": 5004,
      "ĠJeff": 5005,
      "Ġaircraft": 5006,
      "DP": 5007,
      "Ġwitness": 5008,
      "ĠTy": 5009,
      "Ġkid": 5010,
      "Ġprefer": 5011,
      "Ġinternal": 5012,
      "Ġchemical": 5013,
      "Ġtough": 5014,
      "adium": 5015,
      "ĠMa": 5016,
      "ĠFin": 5017,
      "Ġ2018": 5018,
      "Ġequip": 5019,
      "====": 5020,
      "Ġmental": 5021,
      "ĠRichard": 5022,
      "_{": 5023,
      "ipp": 5024,
      "ĠSup": 5025,
      "Ġmarkets": 5026,
      "Ġvehicle": 5027,
      "Ġelements": 5028,
      "Ġder": 5029,
      "ĠIT": 5030,
      "abb": 5031,
      "Ġplays": 5032,
      "HL": 5033,
      "rig": 5034,
      "Ġrevenue": 5035,
      "Ġtrig": 5036,
      "Ġhelping": 5037,
      "Ġexplan": 5038,
      "Ġturns": 5039,
      "Ġsuggested": 5040,
      "Ġneighb": 5041,
      ",[": 5042,
      "31": 5043,
      "Ġtack": 5044,
      "uters": 5045,
      "ĠCamp": 5046,
      "Ġprospect": 5047,
      "Ġappoint": 5048,
      "hedul": 5049,
      "Ġdeveloping": 5050,
      "Ġinvolve": 5051,
      "ĠIsraeli": 5052,
      "SS": 5053,
      "mosp": 5054,
      "range": 5055,
      "with": 5056,
      "ĠTheir": 5057,
      "ocol": 5058,
      "Ġtherefore": 5059,
      "Ġstarts": 5060,
      "ucky": 5061,
      "Ġanimal": 5062,
      "Ġcas": 5063,
      "ĠPeter": 5064,
      "ĠNAS": 5065,
      "Ġunion": 5066,
      "Ġcolle": 5067,
      "Ġcollection": 5068,
      "Ġdistance": 5069,
      "Ġnewsp": 5070,
      "Ġestimated": 5071,
      "Ġast": 5072,
      "ros": 5073,
      "ĠSpr": 5074,
      "ils": 5075,
      "Ġvast": 5076,
      "ĠJoe": 5077,
      "ghan": 5078,
      "Ġmere": 5079,
      "Ġfactors": 5080,
      "Ġconcl": 5081,
      "Ġsongs": 5082,
      "Ġcy": 5083,
      "Ġcatch": 5084,
      "arp": 5085,
      "icon": 5086,
      "lets": 5087,
      "ĠSur": 5088,
      "Ġimpossible": 5089,
      "Ġcorner": 5090,
      "Ġcircum": 5091,
      "gers": 5092,
      "Ġwood": 5093,
      "Ġfle": 5094,
      "ĠPri": 5095,
      "hens": 5096,
      "ĠGovernment": 5097,
      "useum": 5098,
      "overy": 5099,
      "Ġsouth": 5100,
      "itz": 5101,
      "aling": 5102,
      "ĠAre": 5103,
      "Ġsem": 5104,
      "ula": 5105,
      "ĠRyan": 5106,
      "ĠGame": 5107,
      "udi": 5108,
      "Ġreserv": 5109,
      "Ġschedul": 5110,
      "Ġpossibility": 5111,
      "Ġcloser": 5112,
      "Ġapparently": 5113,
      "ocracy": 5114,
      "ĠCal": 5115,
      "ource": 5116,
      "phas": 5117,
      "Ġhelps": 5118,
      "Ġwidely": 5119,
      "Ġbaby": 5120,
      "Ġdie": 5121,
      "Ġhus": 5122,
      "Ġsector": 5123,
      "usiness": 5124,
      "Ġvision": 5125,
      "agn": 5126,
      "ureau": 5127,
      "Ġpurchase": 5128,
      "Bl": 5129,
      "CL": 5130,
      "ias": 5131,
      "Ġlosing": 5132,
      "ĠJon": 5133,
      "Ġcolumn": 5134,
      "pot": 5135,
      "Ġbought": 5136,
      "Ġprosecut": 5137,
      "antic": 5138,
      "ensus": 5139,
      "Ġfamiliar": 5140,
      "Why": 5141,
      "Ġrapid": 5142,
      "display": 5143,
      "47": 5144,
      "OD": 5145,
      "ĠÃ": 5146,
      "Ġsports": 5147,
      "itch": 5148,
      "Ġsust": 5149,
      "Ġtransform": 5150,
      "Ġexpert": 5151,
      "prof": 5152,
      "ĠJewish": 5153,
      "Go": 5154,
      "oral": 5155,
      "Ġweak": 5156,
      "Ġspeaking": 5157,
      "Ġamazing": 5158,
      "Ġapplications": 5159,
      "Ġabsolutely": 5160,
      "Ġ%": 5161,
      "Ġton": 5162,
      "Ġcart": 5163,
      "Ġtwice": 5164,
      "Ġbackground": 5165,
      "ologies": 5166,
      "Ġowner": 5167,
      "Ġpointed": 5168,
      "Ġcarried": 5169,
      "ĠImages": 5170,
      "Ġdegree": 5171,
      "displaystyle": 5172,
      "59": 5173,
      "gn": 5174,
      "ker": 5175,
      "Ġwish": 5176,
      "Ġbatter": 5177,
      "Ġhate": 5178,
      "Ġotherwise": 5179,
      "Ġfourth": 5180,
      "Ġ\\(": 5181,
      "Ġgirls": 5182,
      "Ġfellow": 5183,
      "Ġarchitect": 5184,
      "makers": 5185,
      "rd": 5186,
      "ĠIr": 5187,
      "Ġproceed": 5188,
      "ĠWild": 5189,
      "Ġcovered": 5190,
      "Ġinfrast": 5191,
      "Ġstandards": 5192,
      "Ġaccounts": 5193,
      "Ġregarding": 5194,
      "ĠConservative": 5195,
      "IG": 5196,
      "OW": 5197,
      "lig": 5198,
      "pan": 5199,
      "Ġcancer": 5200,
      "Ġinstit": 5201,
      "Ġfamous": 5202,
      "Ġterrit": 5203,
      "Ġhappening": 5204,
      "Ġfunds": 5205,
      "Ġappreci": 5206,
      "43": 5207,
      "mm": 5208,
      "oen": 5209,
      "asy": 5210,
      "Ġlived": 5211,
      "igure": 5212,
      "ĠGal": 5213,
      "Ġpossibly": 5214,
      "Ġenvironmental": 5215,
      "Ġcorporate": 5216,
      "46": 5217,
      "ĠDaily": 5218,
      "Ġ2004": 5219,
      "Ġobviously": 5220,
      "Ġultimately": 5221,
      "Ġneighborhood": 5222,
      "Ġequipment": 5223,
      "ÃŃ": 5224,
      "ini": 5225,
      "ĠMo": 5226,
      "Ġsupporters": 5227,
      "Ġcrew": 5228,
      "Ġtopic": 5229,
      "Ġapprox": 5230,
      "Ġbroke": 5231,
      "Ġconversation": 5232,
      "Ġspirit": 5233,
      "hat": 5234,
      "ka": 5235,
      "icide": 5236,
      "Ġforms": 5237,
      "ĠMur": 5238,
      "olved": 5239,
      "ĠDan": 5240,
      "ĠAmazon": 5241,
      "ĠInstead": 5242,
      "Ġsoldiers": 5243,
      "ĠAc": 5244,
      "odies": 5245,
      "ynam": 5246,
      "ĠCarolina": 5247,
      "Ġmort": 5248,
      "otic": 5249,
      "ĠJournal": 5250,
      "ĠOpen": 5251,
      "Ġinsp": 5252,
      "aza": 5253,
      "Ġmovies": 5254,
      "Ġtests": 5255,
      "Ġcommitted": 5256,
      "Ġtypically": 5257,
      "Ġtalks": 5258,
      "Ġdisease": 5259,
      "ĠVirginia": 5260,
      "App": 5261,
      "His": 5262,
      "IM": 5263,
      "RA": 5264,
      "kins": 5265,
      "Ġcommission": 5266,
      "Ġconsult": 5267,
      "rible": 5268,
      "Ġbigger": 5269,
      "Ġhonest": 5270,
      "respond": 5271,
      "Ġlands": 5272,
      "ĠSil": 5273,
      "Ġsettle": 5274,
      "Ġappearance": 5275,
      "Le": 5276,
      "vey": 5277,
      "Ġatmosp": 5278,
      "Ġjail": 5279,
      "Ġremoved": 5280,
      "Ġfinished": 5281,
      "Ġkeeping": 5282,
      "ronic": 5283,
      "Ġweapon": 5284,
      "Trump": 5285,
      "âĢĺ": 5286,
      "oms": 5287,
      "Ġgraph": 5288,
      "Ġabuse": 5289,
      "ĠWeb": 5290,
      "Ġstanding": 5291,
      "Ġauthority": 5292,
      "Ġsignificantly": 5293,
      "ĠMichigan": 5294,
      "lines": 5295,
      "ashed": 5296,
      "oty": 5297,
      "ador": 5298,
      "ĠFore": 5299,
      "Ġhasn": 5300,
      "Ġeval": 5301,
      "ĠInter": 5302,
      "Ġexpressed": 5303,
      "Ġvariety": 5304,
      "Ġprepared": 5305,
      "Ġinnov": 5306,
      "ga": 5307,
      "person": 5308,
      "Ġsides": 5309,
      "orage": 5310,
      "Ġmix": 5311,
      "ĠGree": 5312,
      "ĠUs": 5313,
      "ĠIsland": 5314,
      "Ġfilms": 5315,
      "ĠSeattle": 5316,
      "Ġboost": 5317,
      "Ġprotection": 5318,
      "Ġ1980": 5319,
      "Ġopportunities": 5320,
      "Mar": 5321,
      "Pol": 5322,
      "Ġexpression": 5323,
      "ĠLeg": 5324,
      "ĠJohnson": 5325,
      "Ġconnected": 5326,
      "Ġcalcul": 5327,
      "TC": 5328,
      "Ġargued": 5329,
      "Ġspecifically": 5330,
      "Ġconducted": 5331,
      "Ġimagine": 5332,
      "Ġincreasingly": 5333,
      "ĠUkraine": 5334,
      "From": 5335,
      "ION": 5336,
      "cks": 5337,
      "Ġpet": 5338,
      "Ġlength": 5339,
      "Ġstick": 5340,
      "ĠBoth": 5341,
      "Ġvs": 5342,
      "that": 5343,
      "Ġscript": 5344,
      "Ġseek": 5345,
      "Ġtransition": 5346,
      "Ġhandle": 5347,
      "Ġinjury": 5348,
      "Ġinfrastructure": 5349,
      "pay": 5350,
      "uous": 5351,
      "Ġstret": 5352,
      "ruit": 5353,
      "ĠConst": 5354,
      "Ġprivacy": 5355,
      "ĠSocial": 5356,
      "ĠSupreme": 5357,
      "life": 5358,
      "Ġdownt": 5359,
      "ĠBern": 5360,
      "ĠFire": 5361,
      "ĠFree": 5362,
      "ĠAndroid": 5363,
      "CA": 5364,
      "Ġfired": 5365,
      "Ġdin": 5366,
      "ĠSl": 5367,
      "Ġshots": 5368,
      "Ġintended": 5369,
      "Ġweren": 5370,
      "Ġseeking": 5371,
      "Ġsymb": 5372,
      "Ġerror": 5373,
      "Ġcultural": 5374,
      "enced": 5375,
      "isf": 5376,
      "ĠTra": 5377,
      "Ġvul": 5378,
      "enses": 5379,
      "Ġflow": 5380,
      "ologist": 5381,
      "Ġfindings": 5382,
      "standing": 5383,
      "Ġpanel": 5384,
      "Ġmaintain": 5385,
      "57": 5386,
      "Of": 5387,
      "den": 5388,
      "ns": 5389,
      "ĠMiddle": 5390,
      "anda": 5391,
      "ĠGen": 5392,
      "Ġshift": 5393,
      "Ġthank": 5394,
      "Ġdismiss": 5395,
      "Ġhealthy": 5396,
      "ĠMartin": 5397,
      "Even": 5398,
      "Just": 5399,
      "SM": 5400,
      "wing": 5401,
      "ĠPre": 5402,
      "eless": 5403,
      "ĠChar": 5404,
      "Ġcold": 5405,
      "Ġremind": 5406,
      "Ġflight": 5407,
      "Ġexperts": 5408,
      "Ġsubstant": 5409,
      "Ġorganizations": 5410,
      "mond": 5411,
      "noon": 5412,
      "inating": 5413,
      "Ġsch": 5414,
      "ĠJo": 5415,
      "Ġplants": 5416,
      "Ġfinish": 5417,
      "Ġcriticism": 5418,
      "Ġaid": 5419,
      "inent": 5420,
      "atures": 5421,
      "arks": 5422,
      "ĠMad": 5423,
      "Ġplenty": 5424,
      "obe": 5425,
      "Ġserver": 5426,
      "Ġreporters": 5427,
      "Ġgreatest": 5428,
      "Ġcombat": 5429,
      "Ġresponsibility": 5430,
      "Ġchallenges": 5431,
      "Every": 5432,
      "reens": 5433,
      "ache": 5434,
      "rier": 5435,
      "ansas": 5436,
      "Ġclot": 5437,
      "Ġoriginally": 5438,
      "Ġstrike": 5439,
      "Ġsurprising": 5440,
      "Ġexperienced": 5441,
      "Ġbeautiful": 5442,
      "ĠWindows": 5443,
      "eration": 5444,
      "Ġsport": 5445,
      "Ġfif": 5446,
      "Ġfaster": 5447,
      "ĠSing": 5448,
      "season": 5449,
      "unction": 5450,
      "ĠEnergy": 5451,
      "Ġconsidering": 5452,
      "Ġinsist": 5453,
      "Ġsupporting": 5454,
      "Ġfiles": 5455,
      "Ġelim": 5456,
      "Ġkilling": 5457,
      "Ġpotentially": 5458,
      "Ġsurprise": 5459,
      "Ġdetermine": 5460,
      "Ġexception": 5461,
      "hy": 5462,
      "onom": 5463,
      "Ġrandom": 5464,
      "Ġunivers": 5465,
      "Ġconfident": 5466,
      "ournament": 5467,
      "ĠKorean": 5468,
      "TH": 5469,
      "bro": 5470,
      "Ġbag": 5471,
      "Ġfram": 5472,
      "alty": 5473,
      "Ġmarg": 5474,
      "Ġweather": 5475,
      "oving": 5476,
      "Ġreference": 5477,
      "ashion": 5478,
      "Ġadvance": 5479,
      "Ġoperating": 5480,
      "Ġliberal": 5481,
      "Ġhusband": 5482,
      "56": 5483,
      "Let": 5484,
      "Over": 5485,
      "ls": 5486,
      "ady": 5487,
      "Ġforget": 5488,
      "terday": 5489,
      "Ġconcent": 5490,
      "ĠDen": 5491,
      "Ġworry": 5492,
      "Ġarms": 5493,
      "Ġapply": 5494,
      "Ġcarbon": 5495,
      "ĠBarack": 5496,
      "Ġiniti": 5497,
      "LE": 5498,
      "Last": 5499,
      "Man": 5500,
      "state": 5501,
      "Ġgender": 5502,
      "ĠPower": 5503,
      "Ġqual": 5504,
      "Ġdecre": 5505,
      "Ġdepart": 5506,
      "Ġcauses": 5507,
      "Am": 5508,
      "ours": 5509,
      "ĠUnder": 5510,
      "Ġclin": 5511,
      "Ġunless": 5512,
      "ĠThose": 5513,
      "text": 5514,
      "Ġsecure": 5515,
      "ĠAnn": 5516,
      "Ġrelevant": 5517,
      "Ġtreated": 5518,
      "Ġexcited": 5519,
      "Ġhotel": 5520,
      "Ġlibrary": 5521,
      "can": 5522,
      "ii": 5523,
      "Ġnob": 5524,
      "aine": 5525,
      "rage": 5526,
      "alls": 5527,
      "Ġarmy": 5528,
      "Ġexplo": 5529,
      "ĠColor": 5530,
      "Ġequal": 5531,
      "Another": 5532,
      "ributed": 5533,
      "Ġmut": 5534,
      "ĠCath": 5535,
      "Ġphil": 5536,
      "Ġlawyer": 5537,
      "Ġlocated": 5538,
      "Ġsitting": 5539,
      "CE": 5540,
      "Ind": 5541,
      "van": 5542,
      "ĠDuring": 5543,
      "ocation": 5544,
      "ensions": 5545,
      "Ġindeed": 5546,
      "Ġdevelopers": 5547,
      "Ġpoliticians": 5548,
      "ĠAfghan": 5549,
      "Ġconsumers": 5550,
      "ta": 5551,
      "Ġpair": 5552,
      "stone": 5553,
      "ĠSol": 5554,
      "Ġwearing": 5555,
      "ĠWars": 5556,
      "Ġafternoon": 5557,
      "Ġcompleted": 5558,
      "Ġchanging": 5559,
      "Ġdelay": 5560,
      "Ġpulled": 5561,
      "hered": 5562,
      "Ġodd": 5563,
      "Ġstorm": 5564,
      "Ġproced": 5565,
      "ĠOffic": 5566,
      "roud": 5567,
      "Ġevening": 5568,
      "Ġbringing": 5569,
      "Ġoptim": 5570,
      "Ġmotiv": 5571,
      "ĠParis": 5572,
      "Pl": 5573,
      "ĠHen": 5574,
      "ĠWho": 5575,
      "Ġinstitutions": 5576,
      "hand": 5577,
      "Ġpil": 5578,
      "ĠTwo": 5579,
      "ĠAv": 5580,
      "ĠPlease": 5581,
      "ĠNov": 5582,
      "ocal": 5583,
      "ĠElect": 5584,
      "ĠKim": 5585,
      "Ġclick": 5586,
      "Ġconfirm": 5587,
      "Ġcorrespond": 5588,
      "Ġwriter": 5589,
      "FF": 5590,
      "Ġfol": 5591,
      "Ġrid": 5592,
      "odd": 5593,
      "ĠVer": 5594,
      "Ġemphas": 5595,
      "Ġremaining": 5596,
      "Ġcrimes": 5597,
      "Ġartist": 5598,
      "Ġconstruct": 5599,
      "ĠLabour": 5600,
      "75": 5601,
      "Ġnut": 5602,
      "ching": 5603,
      "kel": 5604,
      "ĠDie": 5605,
      "ubs": 5606,
      "Ġdiscussed": 5607,
      "Ġseriously": 5608,
      "run": 5609,
      "uzz": 5610,
      "Ġphen": 5611,
      "ĠIBM": 5612,
      "ĠHind": 5613,
      "Ġprove": 5614,
      "Ġuniversity": 5615,
      "Ġschem": 5616,
      "Ġcoast": 5617,
      "ampion": 5618,
      "athan": 5619,
      "Ġpositions": 5620,
      "Ġfundament": 5621,
      "Ġruling": 5622,
      "Ġsounds": 5623,
      "Ġproposal": 5624,
      "coh": 5625,
      "ĠMos": 5626,
      "Ġcrack": 5627,
      "Ġlots": 5628,
      "Ġmulti": 5629,
      "ĠWilliams": 5630,
      "Ġconsciousness": 5631,
      "05": 5632,
      "LS": 5633,
      "TA": 5634,
      "ĠMatt": 5635,
      "abled": 5636,
      "ivered": 5637,
      "Ġoffering": 5638,
      "Ġcoord": 5639,
      "ĠRev": 5640,
      "Although": 5641,
      ",'": 5642,
      "BS": 5643,
      "rant": 5644,
      "xual": 5645,
      "Ġselling": 5646,
      "Ġevolution": 5647,
      "ĠYes": 5648,
      "issions": 5649,
      "Ġgovernor": 5650,
      "ĠMicrosoft": 5651,
      "Ġloved": 5652,
      "ĠAndrew": 5653,
      "Ġcombined": 5654,
      "Ġconvention": 5655,
      "Ġpieces": 5656,
      "Ġsuffered": 5657,
      "01": 5658,
      "CH": 5659,
      "hors": 5660,
      "arden": 5661,
      "ĠOnce": 5662,
      "Ġmode": 5663,
      "ĠPhoto": 5664,
      "Ġapart": 5665,
      "Ġresponded": 5666,
      "lymp": 5667,
      "ĠCur": 5668,
      "Ġseasons": 5669,
      "Ġresolution": 5670,
      "dule": 5671,
      "Ġrefere": 5672,
      "idden": 5673,
      "Ġstreets": 5674,
      "First": 5675,
      "Ġbound": 5676,
      "edd": 5677,
      "ĠAriz": 5678,
      "ighters": 5679,
      "essions": 5680,
      "Ġclient": 5681,
      "Ġspring": 5682,
      "Ġremained": 5683,
      "Ġ2003": 5684,
      "Ġthoughts": 5685,
      "Ġtechnical": 5686,
      "Ġ1990": 5687,
      "Ġmissed": 5688,
      "Ġdeclared": 5689,
      "Ġmethods": 5690,
      "Ġongoing": 5691,
      "ĠSher": 5692,
      "ĠBack": 5693,
      "ĠFer": 5694,
      "ĠJes": 5695,
      "Ġcontrast": 5696,
      "Ġdiss": 5697,
      "arsh": 5698,
      "anche": 5699,
      "Ġbroken": 5700,
      "Ġactivists": 5701,
      "ĠGuard": 5702,
      "Ġaffected": 5703,
      "ket": 5704,
      "erate": 5705,
      "Ġthinks": 5706,
      "ompl": 5707,
      "ller": 5708,
      "ĠIll": 5709,
      "ĠCD": 5710,
      "ĠMet": 5711,
      "uster": 5712,
      "ava": 5713,
      "ocking": 5714,
      "ĠAny": 5715,
      "Ġbuildings": 5716,
      "Ġdisappoint": 5717,
      "Ġbalance": 5718,
      "ĠJoseph": 5719,
      "ĠFoundation": 5720,
      "ĠPakistan": 5721,
      "65": 5722,
      "orse": 5723,
      "Ġsea": 5724,
      "Ġchart": 5725,
      "Ġforest": 5726,
      "Ġconsumer": 5727,
      "Ġexamples": 5728,
      "Ġperspect": 5729,
      "Ġvulner": 5730,
      "Ob": 5731,
      "cle": 5732,
      "law": 5733,
      "}}": 5734,
      "Ġ;": 5735,
      "ĠTime": 5736,
      "illance": 5737,
      "ĠFederal": 5738,
      "resents": 5739,
      "Ġretail": 5740,
      "Ġpromise": 5741,
      "Ġtalked": 5742,
      "ĠSteve": 5743,
      "Ġordered": 5744,
      "++": 5745,
      "II": 5746,
      "Pe": 5747,
      "Ġhurt": 5748,
      "ician": 5749,
      "Ġgrew": 5750,
      "acter": 5751,
      "ĠWood": 5752,
      "Ġagents": 5753,
      "ĠChief": 5754,
      "Ġprime": 5755,
      "gypt": 5756,
      "Ġapproved": 5757,
      "Ġfacing": 5758,
      "Ġera": 5759,
      "Can": 5760,
      "IV": 5761,
      "TS": 5762,
      "ht": 5763,
      "mat": 5764,
      "pet": 5765,
      "itors": 5766,
      "ola": 5767,
      "ĠPet": 5768,
      "oken": 5769,
      "Ġexplos": 5770,
      "Ġdistribution": 5771,
      "Ġmatters": 5772,
      "Ġmarried": 5773,
      "Ġeditor": 5774,
      "Ġbasically": 5775,
      "Ġdelivered": 5776,
      "64": 5777,
      "under": 5778,
      "Ġsale": 5779,
      "Ġgather": 5780,
      "ĠMem": 5781,
      "ista": 5782,
      "Ġquiet": 5783,
      "Ġexpansion": 5784,
      "Ġincreases": 5785,
      "Ġperformed": 5786,
      "ĠChristmas": 5787,
      "Ġcollabor": 5788,
      "Ġtroops": 5789,
      "Res": 5790,
      "iency": 5791,
      "rative": 5792,
      "Ġmal": 5793,
      "ĠAT": 5794,
      "ilit": 5795,
      "ellect": 5796,
      "ĠKh": 5797,
      "ĠStan": 5798,
      "Ġ2019": 5799,
      "Ġaccident": 5800,
      "Ġdatab": 5801,
      "MS": 5802,
      "hedule": 5803,
      "ĠBur": 5804,
      "osite": 5805,
      "ĠGi": 5806,
      "ĠOlymp": 5807,
      "plom": 5808,
      "Ġends": 5809,
      "ERS": 5810,
      "Ġidentify": 5811,
      "****": 5812,
      "orry": 5813,
      "ellow": 5814,
      "oung": 5815,
      "eanwhile": 5816,
      "cons": 5817,
      "mod": 5818,
      "pass": 5819,
      "uations": 5820,
      "Ġturning": 5821,
      "Ġsession": 5822,
      "Ġmaster": 5823,
      "Ġstress": 5824,
      "ĠRem": 5825,
      "Ġvan": 5826,
      "Ġplanet": 5827,
      "evin": 5828,
      "Ġmessages": 5829,
      "Ġdivision": 5830,
      "Ġdeclined": 5831,
      "Ġsuffering": 5832,
      "ĠSyrian": 5833,
      "ourney": 5834,
      "ĠStem": 5835,
      "ĠColumb": 5836,
      "Ġstruggle": 5837,
      "Ġroughly": 5838,
      "ĠFrancisco": 5839,
      "41": 5840,
      "ius": 5841,
      "ĠIN": 5842,
      "ĠSP": 5843,
      "Ġemp": 5844,
      "Ġgovernments": 5845,
      "Ġentry": 5846,
      "Ġreaders": 5847,
      "ĠSee": 5848,
      "Ġestimates": 5849,
      "Ġexercise": 5850,
      "enture": 5851,
      "Ġisland": 5852,
      "ĠMount": 5853,
      "ules": 5854,
      "ria": 5855,
      "ĠLast": 5856,
      "ĠJr": 5857,
      "Ġ45": 5858,
      "Ġadvanced": 5859,
      "Ġvoted": 5860,
      "Ġfunctions": 5861,
      "Ġappropriate": 5862,
      "Other": 5863,
      "Since": 5864,
      "rich": 5865,
      "Ġtact": 5866,
      "Ġhun": 5867,
      "Ġnations": 5868,
      "Ġhell": 5869,
      "Ġath": 5870,
      "ĠLat": 5871,
      "Ġcloud": 5872,
      "Ġourselves": 5873,
      "Ġfactor": 5874,
      "ĠBrook": 5875,
      "ĠPolit": 5876,
      "Ġmagazine": 5877,
      "Ġtight": 5878,
      "Ġyouth": 5879,
      "Ġstatements": 5880,
      "nic": 5881,
      "vis": 5882,
      "uration": 5883,
      "Ġunable": 5884,
      "Ġaccompl": 5885,
      "Ġemails": 5886,
      "Ġflo": 5887,
      "Ġpublicly": 5888,
      "ĠForce": 5889,
      "apping": 5890,
      "Ġreplaced": 5891,
      "Ġwindow": 5892,
      "TV": 5893,
      "ĠToday": 5894,
      "ads": 5895,
      "Ġstorage": 5896,
      "ĠRiver": 5897,
      "Ġteen": 5898,
      "ulture": 5899,
      "Ġpassing": 5900,
      "Ġvari": 5901,
      "ĠNetwork": 5902,
      "Ġvehicles": 5903,
      "ĠBatman": 5904,
      "cohol": 5905,
      "68": 5906,
      "gment": 5907,
      "uated": 5908,
      "war": 5909,
      "isp": 5910,
      "adow": 5911,
      "ĠMass": 5912,
      "osen": 5913,
      "Ġspan": 5914,
      "ĠVan": 5915,
      "rence": 5916,
      "Ġconfidence": 5917,
      "Ġrefused": 5918,
      "Ġearn": 5919,
      "ĠLee": 5920,
      "Ġopposed": 5921,
      "Ġfaces": 5922,
      "Ġattempts": 5923,
      "Ġbroadcast": 5924,
      "Ġboys": 5925,
      "aniel": 5926,
      "Most": 5927,
      "ita": 5928,
      "Ġbreat": 5929,
      "Ġreaction": 5930,
      "Ġgap": 5931,
      "ĠIM": 5932,
      "ĠMiller": 5933,
      "Ġpled": 5934,
      "Ġadvert": 5935,
      "Ġprin": 5936,
      "Ġleads": 5937,
      "ĠProg": 5938,
      "Ġdrivers": 5939,
      "Ġimmigrants": 5940,
      "Ġargue": 5941,
      "ĠWilson": 5942,
      "::": 5943,
      "AY": 5944,
      "Sc": 5945,
      "rum": 5946,
      "Ġwake": 5947,
      "eds": 5948,
      "Ġdial": 5949,
      "ĠSqu": 5950,
      "ĠBet": 5951,
      "ĠPac": 5952,
      "ĠHuman": 5953,
      "Ġplus": 5954,
      "oves": 5955,
      "Ġ500": 5956,
      "Ġremark": 5957,
      "ĠScot": 5958,
      "Ġyounger": 5959,
      "Ġpractices": 5960,
      "Ġnumerous": 5961,
      "IF": 5962,
      "iner": 5963,
      "Ġcraz": 5964,
      "amm": 5965,
      "Ġrum": 5966,
      "ĠFC": 5967,
      "ĠLu": 5968,
      "Ġcooper": 5969,
      "Ġ2001": 5970,
      "Ġminute": 5971,
      "Ġdiscl": 5972,
      "Ġfacts": 5973,
      "Ġ75": 5974,
      "ĠBlue": 5975,
      "Ġvalid": 5976,
      "Ġhopes": 5977,
      "ĠAtl": 5978,
      "Ġcopyright": 5979,
      "ĠâĪĴ": 5980,
      "Ġcircumst": 5981,
      "Ġphenomen": 5982,
      ",âĢĻ": 5983,
      "UT": 5984,
      "free": 5985,
      "hab": 5986,
      "zer": 5987,
      "ĠHon": 5988,
      "Ġsees": 5989,
      "ĠRel": 5990,
      "ĠNBA": 5991,
      "raham": 5992,
      "apse": 5993,
      "Ġunits": 5994,
      "Ġremove": 5995,
      "Ġcapable": 5996,
      "Ġwarned": 5997,
      "ĠProject": 5998,
      "Ġhumans": 5999,
      "Ġreportedly": 6000,
      "Ġinitially": 6001,
      "Ġtalent": 6002,
      "Ġdetailed": 6003,
      "ML": 6004,
      "Well": 6005,
      "Ġsad": 6006,
      "Ġdim": 6007,
      "Ġhol": 6008,
      "Ġelement": 6009,
      "Ġprohib": 6010,
      "usal": 6011,
      "anges": 6012,
      "Ġedge": 6013,
      "Ġcentre": 6014,
      "Ġlisten": 6015,
      "Ġlisted": 6016,
      "Ġfacility": 6017,
      "cellent": 6018,
      "Qu": 6019,
      "kay": 6020,
      "Ġec": 6021,
      "Ġwithd": 6022,
      "Ġscored": 6023,
      "Ġcolon": 6024,
      "Ġelections": 6025,
      "porary": 6026,
      "Ġwalking": 6027,
      "Ġlawsuit": 6028,
      "Ġemergency": 6029,
      "ĠColorado": 6030,
      "During": 6031,
      "ooth": 6032,
      "Ġwage": 6033,
      "Ġbond": 6034,
      "Ġbodies": 6035,
      "Ġpra": 6036,
      "Ġpages": 6037,
      "ĠMoh": 6038,
      "illa": 6039,
      "estival": 6040,
      "Ġdoctor": 6041,
      "aped": 6042,
      "Ġherself": 6043,
      "cipl": 6044,
      "Ġcheap": 6045,
      "Ġseconds": 6046,
      "Ġconvicted": 6047,
      "Ġmaterials": 6048,
      "uilding": 6049,
      "Ġmechanism": 6050,
      "ĠDirector": 6051,
      "ĠArizona": 6052,
      "</": 6053,
      "iat": 6054,
      "Ġhat": 6055,
      "idel": 6056,
      "ĠCapt": 6057,
      "ĠGet": 6058,
      "Ġintention": 6059,
      "Ġrepresents": 6060,
      "ĠProt": 6061,
      "Ġelected": 6062,
      "Ġexistence": 6063,
      "Ġsurprised": 6064,
      "Ġupdates": 6065,
      "Ġfemin": 6066,
      "Ġsecretary": 6067,
      "Ġsatisf": 6068,
      "Ġmanufacture": 6069,
      "bel": 6070,
      "rie": 6071,
      "ĠDar": 6072,
      "opy": 6073,
      "ĠFollow": 6074,
      "ĠEconom": 6075,
      "Ġabandon": 6076,
      "Ġpray": 6077,
      "Ġbelong": 6078,
      "Ġsigns": 6079,
      "Ġeffectively": 6080,
      "Ġdiplom": 6081,
      "wan": 6082,
      "Ġproud": 6083,
      "Ġgar": 6084,
      "ĠBusiness": 6085,
      "ĠPR": 6086,
      "Ġseat": 6087,
      "Ġselection": 6088,
      "aints": 6089,
      "endment": 6090,
      "Ġagent": 6091,
      "anged": 6092,
      "ĠArt": 6093,
      "Ġfrust": 6094,
      "Ġvideos": 6095,
      "fficient": 6096,
      "Ġconsistent": 6097,
      "Ġcolleagues": 6098,
      "wer": 6099,
      "Ġtree": 6100,
      "Ġwound": 6101,
      "Ġfilled": 6102,
      "ĠCH": 6103,
      "ĠEll": 6104,
      "Ġoutput": 6105,
      "Ġarmed": 6106,
      "Ġflood": 6107,
      "Ġglass": 6108,
      "Ġpromised": 6109,
      "ĠTechn": 6110,
      "Ġparticipants": 6111,
      "Ġlinked": 6112,
      "Ġexperiences": 6113,
      "ĠSaudi": 6114,
      "FP": 6115,
      "Ġcraft": 6116,
      "ĠWay": 6117,
      "Ġupgr": 6118,
      "Ġshouldn": 6119,
      "Ġinstruct": 6120,
      "Ġcorruption": 6121,
      "Ġamounts": 6122,
      "Ġobjects": 6123,
      "Ġobserved": 6124,
      "Ġelectricity": 6125,
      "Ġdowntown": 6126,
      "Ġrein": 6127,
      "Ġgiant": 6128,
      "ĠTO": 6129,
      "irty": 6130,
      "ĠEgypt": 6131,
      "ĠVict": 6132,
      "issue": 6133,
      "Ġstudio": 6134,
      "Ġimportance": 6135,
      "Ġfaced": 6136,
      "Ġtotally": 6137,
      "Ġselected": 6138,
      "oric": 6139,
      "Ġbrow": 6140,
      "icy": 6141,
      "astern": 6142,
      "Ġcontains": 6143,
      "ĠYet": 6144,
      "Ġstring": 6145,
      "ĠMarc": 6146,
      "Ġpatient": 6147,
      "ĠMedia": 6148,
      "Ġguns": 6149,
      "Ġdenied": 6150,
      "ĠSwed": 6151,
      "Ġscheduled": 6152,
      "See": 6153,
      "erry": 6154,
      "Ġlaugh": 6155,
      "essor": 6156,
      "Ġmeat": 6157,
      "Ġmanner": 6158,
      "iously": 6159,
      "Ġdebut": 6160,
      "Ġdeaths": 6161,
      "Ġviolent": 6162,
      "Ġsentence": 6163,
      "Ġhousehold": 6164,
      "etroit": 6165,
      "Donald": 6166,
      "!\"": 6167,
      "58": 6168,
      "ront": 6169,
      "Ġforg": 6170,
      "ĠMel": 6171,
      "Ġsevere": 6172,
      "ĠRoad": 6173,
      "Ġvir": 6174,
      "Ġresc": 6175,
      "ĠShow": 6176,
      "Ġreduced": 6177,
      "Ġsurveillance": 6178,
      "Ġyesterday": 6179,
      "Ġsymbol": 6180,
      "Ġphilos": 6181,
      "))": 6182,
      "df": 6183,
      "Ġegg": 6184,
      "ĠPenn": 6185,
      "Ġconver": 6186,
      "ĠGar": 6187,
      "Ġsuc": 6188,
      "Ġadmitted": 6189,
      "Ġcreation": 6190,
      "Ġmarketing": 6191,
      "ĠiPh": 6192,
      "mbly": 6193,
      "Ġracial": 6194,
      "Ġessentially": 6195,
      "ĠMuslims": 6196,
      "Ġenemy": 6197,
      "Ġtrouble": 6198,
      "Ġdetermined": 6199,
      "08": 6200,
      "date": 6201,
      "ey": 6202,
      "fortunately": 6203,
      "whel": 6204,
      "onna": 6205,
      "Ġ36": 6206,
      "axy": 6207,
      "Ġsets": 6208,
      "Ġsubsequ": 6209,
      "Ġrefuge": 6210,
      "Ġhoping": 6211,
      "Ġpowers": 6212,
      "Ġrub": 6213,
      "ĠRub": 6214,
      "ĠRights": 6215,
      "ockey": 6216,
      "Ġ46": 6217,
      "Ġartists": 6218,
      "ĠDavis": 6219,
      "ĠOhio": 6220,
      "42": 6221,
      "Ġburn": 6222,
      "Ġfra": 6223,
      "abilities": 6224,
      "Ġarray": 6225,
      "Ġrealize": 6226,
      "Ġauthors": 6227,
      "Ġcausing": 6228,
      "Ġcouncil": 6229,
      "Ġpushing": 6230,
      "Ġheavily": 6231,
      "AG": 6232,
      "Ã³": 6233,
      "Ġsample": 6234,
      "omin": 6235,
      "igen": 6236,
      "Ġyards": 6237,
      "ĠLand": 6238,
      "Ġintellect": 6239,
      "Ġtele": 6240,
      "Ġdefined": 6241,
      "Ġdiscrim": 6242,
      "Ġclassic": 6243,
      "ĠRomney": 6244,
      "ollywood": 6245,
      "met": 6246,
      "Ã¶": 6247,
      "Ġthr": 6248,
      "ĠCNN": 6249,
      "ĠWal": 6250,
      "Ġspons": 6251,
      "ĠItaly": 6252,
      "luding": 6253,
      "Ġproperties": 6254,
      "Ġsteel": 6255,
      "Ġcommunications": 6256,
      "Ġannouncement": 6257,
      "Ġnarrow": 6258,
      "Do": 6259,
      "ugh": 6260,
      "Ġboss": 6261,
      "ĠWork": 6262,
      "Ġscores": 6263,
      "awa": 6264,
      "Ġrealized": 6265,
      "Ġparam": 6266,
      "cribe": 6267,
      "Ġemployee": 6268,
      "Ġdollar": 6269,
      "Ġessential": 6270,
      "Ġunlikely": 6271,
      "EP": 6272,
      "Ġwave": 6273,
      "isters": 6274,
      "Ġinput": 6275,
      "ĠLake": 6276,
      "Ġshif": 6277,
      "Ġ37": 6278,
      "Ġowned": 6279,
      "Ġstands": 6280,
      "ĠZeal": 6281,
      "ĠSpace": 6282,
      "ĠSystem": 6283,
      "Ġadults": 6284,
      "300": 6285,
      "Many": 6286,
      "cers": 6287,
      "inet": 6288,
      "Ġlie": 6289,
      "Ġrent": 6290,
      "ĠNations": 6291,
      "ĠLord": 6292,
      "ĠEach": 6293,
      "Ġuniverse": 6294,
      "Ġresident": 6295,
      "onsin": 6296,
      "Ġstrict": 6297,
      "Ġrisks": 6298,
      "Ġradical": 6299,
      "isconsin": 6300,
      "Ġallegedly": 6301,
      "Ġnewspaper": 6302,
      "Rel": 6303,
      "lies": 6304,
      "ship": 6305,
      "west": 6306,
      "Äĥ": 6307,
      "Ġmir": 6308,
      "Ġdiet": 6309,
      "asp": 6310,
      "Ġscr": 6311,
      "efully": 6312,
      "Ġclosely": 6313,
      "iscal": 6314,
      "Ġmagn": 6315,
      "Pr": 6316,
      "Spe": 6317,
      "rations": 6318,
      "sm": 6319,
      "Ġsnow": 6320,
      "Ġfly": 6321,
      "ĠCIA": 6322,
      "Ġstood": 6323,
      "ĠFord": 6324,
      "Ġbutton": 6325,
      "Ġactor": 6326,
      "Ġeverybody": 6327,
      "Ġflat": 6328,
      "Ġsimpl": 6329,
      "Ġexplains": 6330,
      "Ġharder": 6331,
      "Ġwrites": 6332,
      "ĠConf": 6333,
      "Ġfalling": 6334,
      "ORE": 6335,
      "Ġfairly": 6336,
      "Ġapplied": 6337,
      "Ġbare": 6338,
      "ĠOz": 6339,
      "Ġadvice": 6340,
      "Ġcombination": 6341,
      "Ġabortions": 6342,
      "Ġsurrounding": 6343,
      "gl": 6344,
      "tion": 6345,
      "Ġtrib": 6346,
      "oration": 6347,
      "Ġthread": 6348,
      "ilty": 6349,
      "illy": 6350,
      "Ġsharing": 6351,
      "apter": 6352,
      "Ġenh": 6353,
      "Ġempt": 6354,
      "Ġemissions": 6355,
      "Ġgoods": 6356,
      "Ġtransp": 6357,
      "Ġwarning": 6358,
      "ĠReport": 6359,
      "Ġdomain": 6360,
      "Despite": 6361,
      "Ġsplit": 6362,
      "Ġsought": 6363,
      "ĠMen": 6364,
      "Ġrising": 6365,
      "ĠHist": 6366,
      "Ġunknown": 6367,
      "Ġschedule": 6368,
      "Ġallegations": 6369,
      "Ġpictures": 6370,
      "Ġcycle": 6371,
      "Follow": 6372,
      "],": 6373,
      "elect": 6374,
      "icial": 6375,
      "Ġdeploy": 6376,
      "ĠHa": 6377,
      "Ġshop": 6378,
      "Ġoffense": 6379,
      "Ġincor": 6380,
      "Ġarticles": 6381,
      "Ġprompt": 6382,
      "Ġcontroversial": 6383,
      "oenix": 6384,
      "Ġatmosphere": 6385,
      "Like": 6386,
      "PR": 6387,
      "Rep": 6388,
      "hus": 6389,
      "oom": 6390,
      "pool": 6391,
      "twitter": 6392,
      "ishes": 6393,
      "Ġpal": 6394,
      "Ġstores": 6395,
      "ĠMs": 6396,
      "ĠPut": 6397,
      "ĠFed": 6398,
      "ĠFour": 6399,
      "Ġneither": 6400,
      "Ġcoff": 6401,
      "print": 6402,
      "Ġopposite": 6403,
      "Ġfacilities": 6404,
      "ĠOnly": 6405,
      "Ġholds": 6406,
      "Ġdescribe": 6407,
      "Ġfeatured": 6408,
      "Ġcaption": 6409,
      "ĠJackson": 6410,
      "Ġpushed": 6411,
      "burg": 6412,
      "chen": 6413,
      "Ġtournament": 6414,
      "Ġanx": 6415,
      "Ġreward": 6416,
      "ĠMu": 6417,
      "olit": 6418,
      "ĠHol": 6419,
      "ĠWisconsin": 6420,
      "ĠDou": 6421,
      "Ġdoctors": 6422,
      "ĠKelly": 6423,
      "Ġagend": 6424,
      "Ġunus": 6425,
      "oviet": 6426,
      "velopment": 6427,
      "Ġreceiving": 6428,
      "Ġparliament": 6429,
      "Ġrecorded": 6430,
      "Ġemployment": 6431,
      "regon": 6432,
      "Ġinjuries": 6433,
      "âĢĶâĢĶâĢĶâĢĶâĢĶâĢĶâĢĶâĢĶ": 6434,
      "ena": 6435,
      "Ġfill": 6436,
      "aylor": 6437,
      "Ġrally": 6438,
      "Ġride": 6439,
      "ĠHy": 6440,
      "andal": 6441,
      "ĠESP": 6442,
      "oston": 6443,
      "Ġintent": 6444,
      "Ġpicked": 6445,
      "Ġwalked": 6446,
      "Ġcomplexity": 6447,
      "________": 6448,
      "fire": 6449,
      "Ġsam": 6450,
      "ĠCru": 6451,
      "ĠMormon": 6452,
      "ĠHou": 6453,
      "asts": 6454,
      "Ġtech": 6455,
      "Ġlegit": 6456,
      "Ġinvolving": 6457,
      "ĠBrad": 6458,
      "ĠSecond": 6459,
      "Ġaspects": 6460,
      "Ġacknowled": 6461,
      "95": 6462,
      "called": 6463,
      "iest": 6464,
      "yers": 6465,
      "Ġanonym": 6466,
      "ĠRad": 6467,
      "Ġalcohol": 6468,
      "ĠEric": 6469,
      "ĠON": 6470,
      "Ġusual": 6471,
      "phy": 6472,
      "Ġentered": 6473,
      "Ġreput": 6474,
      "Ġversions": 6475,
      "Ġlabel": 6476,
      "Ġaccepted": 6477,
      "Ġurban": 6478,
      "ĠZealand": 6479,
      "PD": 6480,
      "gen": 6481,
      "gor": 6482,
      "inals": 6483,
      "ican": 6484,
      "Ġsuit": 6485,
      "awn": 6486,
      "Ġacts": 6487,
      "Ġdesire": 6488,
      "Ġinvestors": 6489,
      "Ġcampus": 6490,
      "Ġprotests": 6491,
      "American": 6492,
      "Ġperspective": 6493,
      "born": 6494,
      "uable": 6495,
      "Ġfixed": 6496,
      "asks": 6497,
      "ĠSky": 6498,
      "cho": 6499,
      "Ġring": 6500,
      "Ġrain": 6501,
      "rip": 6502,
      "ĠLong": 6503,
      "Ġpool": 6504,
      "Ġregions": 6505,
      "Ġbrings": 6506,
      "Ġcurrency": 6507,
      "Ġapproval": 6508,
      "Ġnewslet": 6509,
      "Ġhyd": 6510,
      "Ġterrorist": 6511,
      "Ġdogs": 6512,
      "Ġassets": 6513,
      "Ġsomewhat": 6514,
      "pret": 6515,
      "woman": 6516,
      "Ġtiny": 6517,
      "otal": 6518,
      "ĠWat": 6519,
      "Ġtrick": 6520,
      "Ġ48": 6521,
      "Ġcourts": 6522,
      "Ġwinter": 6523,
      "Ġstruck": 6524,
      "Ġsquare": 6525,
      "Ġcarrying": 6526,
      "cr": 6527,
      "Ġcab": 6528,
      "ingu": 6529,
      "ima": 6530,
      "Ġadmit": 6531,
      "Ġsole": 6532,
      "ĠCharl": 6533,
      "ĠIts": 6534,
      "ĠWeek": 6535,
      "Ġdefault": 6536,
      "ĠAnother": 6537,
      "Ġfollows": 6538,
      "ĠClub": 6539,
      "Ġexplanation": 6540,
      "ca": 6541,
      "edia": 6542,
      "Ġmic": 6543,
      "stood": 6544,
      "ĠHel": 6545,
      "ĠLin": 6546,
      "ĠLew": 6547,
      "Ġmyster": 6548,
      "Ġpromote": 6549,
      "iques": 6550,
      "Ġillust": 6551,
      "Ġfrequently": 6552,
      "color": 6553,
      "Ġapproximately": 6554,
      "IR": 6555,
      "SC": 6556,
      "long": 6557,
      "atar": 6558,
      "Ġcert": 6559,
      "Ġfashion": 6560,
      "Ġpure": 6561,
      "oma": 6562,
      "ami": 6563,
      "ĠDark": 6564,
      "Ġadm": 6565,
      "Ġshel": 6566,
      "formation": 6567,
      "eck": 6568,
      "Ġcustomer": 6569,
      "Ġdefinition": 6570,
      "Ġbehavi": 6571,
      "Ġpackage": 6572,
      "ĠAfghanistan": 6573,
      "Ġcircumstances": 6574,
      "ĠiPhone": 6575,
      "78": 6576,
      "Oh": 6577,
      "fra": 6578,
      "ixt": 6579,
      "ìĿ": 6580,
      "Ġbunch": 6581,
      "Ġdress": 6582,
      "Ġhur": 6583,
      "Ġexcellent": 6584,
      "obb": 6585,
      "Ġassume": 6586,
      "Ġdemocracy": 6587,
      "Ġsky": 6588,
      "Ġcritics": 6589,
      "Ġarguments": 6590,
      "ĠAgain": 6591,
      "Ġrequirements": 6592,
      "ĠJersey": 6593,
      "',": 6594,
      "IP": 6595,
      "rong": 6596,
      "arters": 6597,
      "Ġmine": 6598,
      "Ġgrown": 6599,
      "Ġforth": 6600,
      "ĠAff": 6601,
      "chain": 6602,
      "Ġrail": 6603,
      "ulous": 6604,
      "Then": 6605,
      "ĠKenn": 6606,
      "Ġcontest": 6607,
      "Ġrow": 6608,
      "Ġbuying": 6609,
      "Ġreasonable": 6610,
      "Ġprotected": 6611,
      "Ġtargets": 6612,
      "Ġcrazy": 6613,
      "Ġing": 6614,
      "reland": 6615,
      "Ġpic": 6616,
      "Ġnorthern": 6617,
      "ĠCivil": 6618,
      "Ġwear": 6619,
      "ĠPrem": 6620,
      "ĠGM": 6621,
      "Ġalive": 6622,
      "Ġshall": 6623,
      "Ġmanage": 6624,
      "Ġoverwhel": 6625,
      "Ġanyway": 6626,
      "ologists": 6627,
      "Ġfranch": 6628,
      "Ġdriven": 6629,
      "Ġcontrols": 6630,
      "Ġimmediate": 6631,
      "Ġroute": 6632,
      "Ġchannel": 6633,
      "Ġconsequences": 6634,
      "ĠDiego": 6635,
      "Cont": 6636,
      "Ġborrow": 6637,
      "ĠDetroit": 6638,
      "ĠNick": 6639,
      "Ġjourney": 6640,
      "Ġking": 6641,
      "Ġending": 6642,
      "Ġcaptured": 6643,
      "Ġtargeted": 6644,
      "Ġquarterback": 6645,
      "Ġescape": 6646,
      "iveness": 6647,
      "De": 6648,
      "imal": 6649,
      "amily": 6650,
      "Ġstars": 6651,
      "ĠGh": 6652,
      "Ġplot": 6653,
      "Ġ33": 6654,
      "Ġregime": 6655,
      "Ġgrab": 6656,
      "Ġearned": 6657,
      "ucks": 6658,
      "Ġ1998": 6659,
      "Ġproperly": 6660,
      "Ġinjured": 6661,
      "Ġlosses": 6662,
      "Post": 6663,
      "TT": 6664,
      "arry": 6665,
      "ĠTop": 6666,
      "ĠSign": 6667,
      "ĠBell": 6668,
      "ĠNSA": 6669,
      "Ġtruck": 6670,
      "Ġpregn": 6671,
      "Ġdecline": 6672,
      "Ġblow": 6673,
      "Ġextent": 6674,
      "Ġfewer": 6675,
      "ancou": 6676,
      "Ġnetworks": 6677,
      "Ġencoun": 6678,
      "Ġencourage": 6679,
      "Ġsuddenly": 6680,
      "People": 6681,
      "mates": 6682,
      "Ġbatt": 6683,
      "esome": 6684,
      "Ġdynam": 6685,
      "icious": 6686,
      "Ġlinks": 6687,
      "Ġgra": 6688,
      "Ġformed": 6689,
      "ĠWatch": 6690,
      "ĠDiv": 6691,
      "unte": 6692,
      "ĠLabor": 6693,
      "ĠJean": 6694,
      "ĠOregon": 6695,
      "Ġacting": 6696,
      "Ġmainstream": 6697,
      "Ġdomin": 6698,
      "Ġbegins": 6699,
      "Mormon": 6700,
      "Ġbot": 6701,
      "Ġmand": 6702,
      "iger": 6703,
      "ĠBond": 6704,
      "rix": 6705,
      "Ġvice": 6706,
      "Ġsuicide": 6707,
      "Ġapps": 6708,
      "ĠAsia": 6709,
      "ĠDev": 6710,
      "Ġplane": 6711,
      "Ġemotional": 6712,
      "Ġefficient": 6713,
      "GBT": 6714,
      "Ġrestaurant": 6715,
      "98": 6716,
      "found": 6717,
      "rating": 6718,
      "writ": 6719,
      "anes": 6720,
      "ĠID": 6721,
      "ĠSoviet": 6722,
      "Ġfort": 6723,
      "ĠItal": 6724,
      "Ġextension": 6725,
      "Ġheads": 6726,
      "Ġrape": 6727,
      "ĠChristie": 6728,
      "Ġmoral": 6729,
      "Ġcomfortable": 6730,
      "Ġrepeatedly": 6731,
      "Add": 6732,
      "Ed": 6733,
      "rary": 6734,
      "orp": 6735,
      "esters": 6736,
      "icing": 6737,
      "olve": 6738,
      "Ġsho": 6739,
      "Ġsomehow": 6740,
      "Ġvoting": 6741,
      "Ġdealing": 6742,
      "Ġcomplaint": 6743,
      "Ġnecessarily": 6744,
      "Ġ1970": 6745,
      "hetic": 6746,
      "Ġsubsid": 6747,
      "Ġprecise": 6748,
      "Two": 6749,
      "ĠÎ": 6750,
      "Ġsac": 6751,
      "Ġsouthern": 6752,
      "ette": 6753,
      "Ġalt": 6754,
      "Ġanywhere": 6755,
      "Ġadds": 6756,
      "Ġmonit": 6757,
      "Ġserving": 6758,
      "iquid": 6759,
      "Ġuncertain": 6760,
      "Ġregistered": 6761,
      "http": 6762,
      "math": 6763,
      "Ġfish": 6764,
      "icate": 6765,
      "asure": 6766,
      "Ġnative": 6767,
      "ĠBob": 6768,
      "Ġkit": 6769,
      "ĠYear": 6770,
      "weight": 6771,
      "Ġremote": 6772,
      "ĠPhot": 6773,
      "Ġbitcoin": 6774,
      "Ġtrees": 6775,
      "ĠISIS": 6776,
      "ĠMedicine": 6777,
      "ĠPalestinian": 6778,
      "ĠColumbia": 6779,
      "Sp": 6780,
      "rors": 6781,
      "road": 6782,
      "ĠSports": 6783,
      "ĠRod": 6784,
      "Ġleaves": 6785,
      "ogue": 6786,
      "Ġunem": 6787,
      "avig": 6788,
      "obile": 6789,
      "Ġmoves": 6790,
      "Ġconstit": 6791,
      "Ġmoments": 6792,
      "Ġanalyst": 6793,
      "Ġmaximum": 6794,
      "Ġbattery": 6795,
      "Ġschol": 6796,
      "ancouver": 6797,
      "page": 6798,
      "ĠCat": 6799,
      "irms": 6800,
      "ĠWales": 6801,
      "ĠRam": 6802,
      "Ġvac": 6803,
      "Ġsav": 6804,
      "Ġjoint": 6805,
      "agram": 6806,
      "ĠKevin": 6807,
      "Ġperman": 6808,
      "Ġ300": 6809,
      "ĠVol": 6810,
      "Ġrot": 6811,
      "angers": 6812,
      "Ġshell": 6813,
      "Ġembr": 6814,
      "ĠRead": 6815,
      "ternal": 6816,
      "Ġextensive": 6817,
      "Ġsupports": 6818,
      "Ġthreats": 6819,
      "Ġpaint": 6820,
      "ĠKingdom": 6821,
      "Ġjournalists": 6822,
      "Ġassistance": 6823,
      "Ġmistake": 6824,
      "SU": 6825,
      "bur": 6826,
      "kl": 6827,
      "Ã§": 6828,
      "âĢĻ.": 6829,
      "Ġdeals": 6830,
      "iform": 6831,
      "Ġchose": 6832,
      "Ġmayor": 6833,
      "Ġsigning": 6834,
      "inson": 6835,
      "Ġtested": 6836,
      "Ġconstant": 6837,
      "Ġzero": 6838,
      "nesota": 6839,
      "Ġattempted": 6840,
      "ographic": 6841,
      "ĠTurkey": 6842,
      "Ġcongress": 6843,
      "rates": 6844,
      "ideo": 6845,
      "Ġdisag": 6846,
      "Ġquant": 6847,
      "mann": 6848,
      "Ġregional": 6849,
      "Ġentertain": 6850,
      "Ġguide": 6851,
      "Ġcrash": 6852,
      "Ġretire": 6853,
      "Ġinfect": 6854,
      "Ġnearby": 6855,
      "gery": 6856,
      "Ġcommunication": 6857,
      "Ġreferred": 6858,
      "Ġdedicated": 6859,
      "Ġconclusion": 6860,
      "86": 6861,
      "top": 6862,
      "Ġties": 6863,
      "ether": 6864,
      "ĠMid": 6865,
      "ĠBoston": 6866,
      "ĠHollywood": 6867,
      "uls": 6868,
      "ordan": 6869,
      "Ġqualif": 6870,
      "oys": 6871,
      "Ġconfront": 6872,
      "Ġpassion": 6873,
      "Ġconstantly": 6874,
      "ĠAdminist": 6875,
      "Ġrequests": 6876,
      "Ġimplementation": 6877,
      "Ġsanctions": 6878,
      "ĠStephen": 6879,
      "Police": 6880,
      "Ġathlet": 6881,
      "06": 6882,
      "sen": 6883,
      "ua": 6884,
      "Ġaside": 6885,
      "Ġprote": 6886,
      "ĠFort": 6887,
      "umes": 6888,
      "ĠNavy": 6889,
      "Ġupcoming": 6890,
      "Ġrelief": 6891,
      "Ġbright": 6892,
      "ĠPhoenix": 6893,
      "ĠHenry": 6894,
      "ĠScotland": 6895,
      "Ġagenda": 6896,
      "LC": 6897,
      "Se": 6898,
      "ĠMic": 6899,
      "Ġguilty": 6900,
      "Ġextrem": 6901,
      "ĠBoard": 6902,
      "Once": 6903,
      "Per": 6904,
      "VER": 6905,
      "Ġinqu": 6906,
      "acle": 6907,
      "ĠPan": 6908,
      "earing": 6909,
      "ials": 6910,
      "ĠKn": 6911,
      "orders": 6912,
      "Ġ34": 6913,
      "Ġblame": 6914,
      "Ġfees": 6915,
      "Ġdiscover": 6916,
      "Ġwarming": 6917,
      "thew": 6918,
      "Ġalongside": 6919,
      "ĠCatholic": 6920,
      "ĠHouston": 6921,
      "she": 6922,
      "tc": 6923,
      "Ġbat": 6924,
      "Ġfiscal": 6925,
      "Ġthrew": 6926,
      "Ġlock": 6927,
      "verty": 6928,
      "ĠCast": 6929,
      "cel": 6930,
      "ĠBowl": 6931,
      "Ġrig": 6932,
      "Ġoverse": 6933,
      "Ġbreaking": 6934,
      "Ġstrikes": 6935,
      "Ġlatter": 6936,
      "ĠPatrick": 6937,
      "ĠValley": 6938,
      "Ġsucceed": 6939,
      "ĠESPN": 6940,
      "nam": 6941,
      "ĠÐ": 6942,
      "Ġiron": 6943,
      "Ġtun": 6944,
      "iture": 6945,
      "Ġeast": 6946,
      "Ġstim": 6947,
      "ĠWin": 6948,
      "ograp": 6949,
      "Ġpoverty": 6950,
      "Ġ42": 6951,
      "Ġstrange": 6952,
      "Ġexposed": 6953,
      "Ġputs": 6954,
      "Ġcontrolled": 6955,
      "Ġresulting": 6956,
      "Ġperfectly": 6957,
      "Ġslowly": 6958,
      "Ġcontributed": 6959,
      "ĠDefense": 6960,
      "ĠIrish": 6961,
      "Ġwest": 6962,
      "Ġlists": 6963,
      "ura": 6964,
      "ceived": 6965,
      "ĠHas": 6966,
      "oked": 6967,
      "Ġalloc": 6968,
      "Ġallies": 6969,
      "Ġdesper": 6970,
      "ĠReview": 6971,
      "ĠAsian": 6972,
      "Ġwarm": 6973,
      "Ġhardware": 6974,
      "Ġcreative": 6975,
      "Ġgenetic": 6976,
      "Ġorders": 6977,
      "Ġhistorical": 6978,
      "Ġassistant": 6979,
      "Ġincredibly": 6980,
      "Ġcategory": 6981,
      "Ġswitch": 6982,
      "\">": 6983,
      "Tube": 6984,
      "gent": 6985,
      "game": 6986,
      "Ġtag": 6987,
      "Ġther": 6988,
      "isan": 6989,
      "Ġbull": 6990,
      "usse": 6991,
      "abama": 6992,
      "ĠUr": 6993,
      "Ġimper": 6994,
      "Ġconfig": 6995,
      "Ġreporter": 6996,
      "Ġmainly": 6997,
      "Ġestimate": 6998,
      "Ġprofile": 6999,
      "Ġstrongly": 7000,
      "Ġconnections": 7001,
      "Ġobtained": 7002,
      "Ġfolks": 7003,
      "Yes": 7004,
      "bar": 7005,
      "iro": 7006,
      "ras": 7007,
      "Ġwins": 7008,
      "Ġwestern": 7009,
      "ali": 7010,
      "Ġdu": 7011,
      "iments": 7012,
      "ĠWater": 7013,
      "rive": 7014,
      "Ġ2002": 7015,
      "ometimes": 7016,
      "Ġenthus": 7017,
      "Ġframe": 7018,
      "Ġtechnologies": 7019,
      "Ġfields": 7020,
      "Ġvirtual": 7021,
      "Ġchairman": 7022,
      "ĠCharles": 7023,
      "ĠVictor": 7024,
      "rid": 7025,
      "rical": 7026,
      "word": 7027,
      "Ġsick": 7028,
      "ati": 7029,
      "Ġancient": 7030,
      "Ġmurd": 7031,
      "lete": 7032,
      "Ġisol": 7033,
      "umer": 7034,
      "osm": 7035,
      "ĠVancouver": 7036,
      "Ġdefence": 7037,
      "Ġimpressive": 7038,
      "Ġofficially": 7039,
      "Ġmedium": 7040,
      "Ġextended": 7041,
      "Ġterrible": 7042,
      "Ġlocations": 7043,
      "Ġprocesses": 7044,
      "Ġreturns": 7045,
      "Ġbasket": 7046,
      "Ġthreatened": 7047,
      "Ġcommitment": 7048,
      "Ġexciting": 7049,
      "Ġvillage": 7050,
      "Ġterritory": 7051,
      "da": 7052,
      "friend": 7053,
      "iot": 7054,
      "produ": 7055,
      "water": 7056,
      "enger": 7057,
      "otten": 7058,
      "ĠIreland": 7059,
      "ĠRon": 7060,
      "Ġnoticed": 7061,
      "ĠLGBT": 7062,
      "aug": 7063,
      "ĠThank": 7064,
      "ĠViet": 7065,
      "Ġaccomp": 7066,
      "Ġtermin": 7067,
      "Ġgenerate": 7068,
      "Ġorganized": 7069,
      "Ġvisited": 7070,
      "Ġkinds": 7071,
      "Ġtypical": 7072,
      "88": 7073,
      "ĠâĢĻ": 7074,
      "Ġpapers": 7075,
      "Ġeating": 7076,
      "Ġwaste": 7077,
      "ĠGames": 7078,
      "ĠEth": 7079,
      "Ġchain": 7080,
      "Ġnewly": 7081,
      "duc": 7082,
      "Ġknowing": 7083,
      "Ġfinds": 7084,
      "Ġdirected": 7085,
      "ĠImage": 7086,
      "Ġdeeply": 7087,
      "Ġvolume": 7088,
      "Ġhonor": 7089,
      "ĠAttorney": 7090,
      "Ġcomparison": 7091,
      "Te": 7092,
      "ye": 7093,
      "hether": 7094,
      "Ġske": 7095,
      "orne": 7096,
      "Ġpace": 7097,
      "Ġdry": 7098,
      "uts": 7099,
      "ĠCO": 7100,
      "ĠMot": 7101,
      "Ġsomebody": 7102,
      "Ġworldwide": 7103,
      "Ġexplicit": 7104,
      "Ġgotten": 7105,
      "Ġwinner": 7106,
      "Ġchoices": 7107,
      "ĠEnter": 7108,
      "ĠSeries": 7109,
      "Ġliterally": 7110,
      "Ġsustain": 7111,
      "Ġphilosoph": 7112,
      "53": 7113,
      "gs": 7114,
      "ml": 7115,
      "zens": 7116,
      "íķ": 7117,
      "rete": 7118,
      "Ġinev": 7119,
      "Ġstuck": 7120,
      "cean": 7121,
      "ĠBry": 7122,
      "ĠBru": 7123,
      "Ġcomic": 7124,
      "Ġsaved": 7125,
      "Ġchampion": 7126,
      "oster": 7127,
      "Ġskill": 7128,
      "Ġcondem": 7129,
      "Ġimproved": 7130,
      "Ġrepresented": 7131,
      "Ġprofession": 7132,
      "Also": 7133,
      "Ġanswers": 7134,
      "Ġregulations": 7135,
      "Ġownership": 7136,
      "Ġincredible": 7137,
      "OC": 7138,
      "SL": 7139,
      "Ġpip": 7140,
      "ĠIP": 7141,
      "ĠAli": 7142,
      "ĠAND": 7143,
      "ĠBrian": 7144,
      "ĠDol": 7145,
      "article": 7146,
      "ĠLib": 7147,
      "ĠVR": 7148,
      "Ġ49": 7149,
      "Inst": 7150,
      "Ġgrid": 7151,
      "ĠAlbert": 7152,
      "ĠMaybe": 7153,
      "Ġpitch": 7154,
      "Get": 7155,
      "nell": 7156,
      "vir": 7157,
      "Ġax": 7158,
      "isk": 7159,
      "lder": 7160,
      "ĠYoung": 7161,
      "ifications": 7162,
      "Ġopponent": 7163,
      "Ġinflation": 7164,
      "Ġdatabase": 7165,
      "97": 7166,
      "lined": 7167,
      "xy": 7168,
      "Ġbath": 7169,
      "Ġfirms": 7170,
      "ĠTaylor": 7171,
      "atell": 7172,
      "ĠFar": 7173,
      "Ġhadn": 7174,
      "Ġmyth": 7175,
      "everal": 7176,
      "Ġexplore": 7177,
      "Ġideology": 7178,
      "Ġclaiming": 7179,
      "Ġtaxpay": 7180,
      "span": 7181,
      "Ġfifth": 7182,
      "bal": 7183,
      "kish": 7184,
      "po": 7185,
      "Ġtort": 7186,
      "Ġtom": 7187,
      "Ġhabit": 7188,
      "Ġexhib": 7189,
      "ĠFe": 7190,
      "Ġattended": 7191,
      "Ġfunny": 7192,
      "Ġraising": 7193,
      "ĠMinnesota": 7194,
      "Ġregardless": 7195,
      "ĠGeorg": 7196,
      "Ġdrawing": 7197,
      "Ġlikes": 7198,
      "03": 7199,
      "Ġtor": 7200,
      "Ġbom": 7201,
      "Ġmouth": 7202,
      "ĠAst": 7203,
      "Ġconven": 7204,
      "ĠDog": 7205,
      "unior": 7206,
      "ĠGall": 7207,
      "ĠOnt": 7208,
      "ĠThanks": 7209,
      "ultural": 7210,
      "Ġrecip": 7211,
      "Ġdepth": 7212,
      "Ġclasses": 7213,
      "Ġconservatives": 7214,
      "Ġdrinking": 7215,
      "gorith": 7216,
      "En": 7217,
      "rison": 7218,
      "Ġhttps": 7219,
      "ethe": 7220,
      "Ġyield": 7221,
      "ĠHot": 7222,
      "Ġ1000": 7223,
      "Ġassert": 7224,
      "ciples": 7225,
      "Ġdeveloper": 7226,
      "Ġpayments": 7227,
      "Ġvariable": 7228,
      "Ġstronger": 7229,
      "Ġcomplicated": 7230,
      "Ġfavour": 7231,
      "ĠSupp": 7232,
      "Ġprimarily": 7233,
      "Ġwatched": 7234,
      "Ġconcluded": 7235,
      "Ġfraud": 7236,
      "uan": 7237,
      "Ġflex": 7238,
      "Ġbear": 7239,
      "ĠTit": 7240,
      "ĠTal": 7241,
      "ĠDaniel": 7242,
      "ĠNHL": 7243,
      "Ġcomprom": 7244,
      "away": 7245,
      "athy": 7246,
      "Ġlawmakers": 7247,
      "Ġexposure": 7248,
      "ĠAlabama": 7249,
      "Ġkeeps": 7250,
      "Ġbarrel": 7251,
      "aturally": 7252,
      "Ġdivor": 7253,
      "Ġcomputers": 7254,
      "Ġvolunte": 7255,
      "Ġrejected": 7256,
      "Ġoccasion": 7257,
      "Ġastron": 7258,
      "Dav": 7259,
      "Or": 7260,
      "Ġsand": 7261,
      "Ġcere": 7262,
      "Ġlies": 7263,
      "ĠHome": 7264,
      "ĠWomen": 7265,
      "ĠDi": 7266,
      "abis": 7267,
      "ums": 7268,
      "ĠGaza": 7269,
      "ĠLook": 7270,
      "redit": 7271,
      "Ġdecent": 7272,
      "ecut": 7273,
      "Ġsmoke": 7274,
      "Ġentit": 7275,
      "ĠDead": 7276,
      "Ġvaluable": 7277,
      "Ġ150": 7278,
      "Ġdrawn": 7279,
      "ĠEngine": 7280,
      "arrative": 7281,
      "Ġwal": 7282,
      "Ġgro": 7283,
      "ĠSn": 7284,
      "adel": 7285,
      "Ġstun": 7286,
      "Ġdeleg": 7287,
      "ĠLive": 7288,
      "ocket": 7289,
      "Ġinstalled": 7290,
      "Ġcontinuing": 7291,
      "Ġdemands": 7292,
      "ĠGrand": 7293,
      "Ġcapture": 7294,
      "Ġrecognized": 7295,
      "Ġmerely": 7296,
      "Ġinspired": 7297,
      "Ġnobody": 7298,
      "Ġintellectual": 7299,
      "%.": 7300,
      "54": 7301,
      "gun": 7302,
      "Ġsight": 7303,
      "ittle": 7304,
      "Ġpin": 7305,
      "Ġstable": 7306,
      "Ġupper": 7307,
      "ĠPent": 7308,
      "ĠPok": 7309,
      "keep": 7310,
      "osis": 7311,
      "Ġsugar": 7312,
      "ĠKansas": 7313,
      "ĠInvest": 7314,
      "Ġtheme": 7315,
      "Ġphr": 7316,
      "ĠReal": 7317,
      "Ġmedic": 7318,
      "Ġinformed": 7319,
      "Ġpopulations": 7320,
      "ocratic": 7321,
      "Ġengage": 7322,
      "***": 7323,
      "Any": 7324,
      "Ġmotion": 7325,
      "Ġhistoric": 7326,
      "ĠAuthor": 7327,
      "Ġlicense": 7328,
      "Ġfarmers": 7329,
      "Ġresistance": 7330,
      "ĠRevolution": 7331,
      "76": 7332,
      "inem": 7333,
      "Ġgod": 7334,
      "Ġgall": 7335,
      "Ġstack": 7336,
      "ĠMake": 7337,
      "ĠRight": 7338,
      "ĠNY": 7339,
      "ĠLow": 7340,
      "rous": 7341,
      "Ġcann": 7342,
      "Ġclar": 7343,
      "Ġunw": 7344,
      "Ġproducer": 7345,
      "ĠYouTube": 7346,
      "iki": 7347,
      "ĠIndust": 7348,
      "Ġprofit": 7349,
      "Ġmeetings": 7350,
      "ĠAgency": 7351,
      "Ġrobot": 7352,
      "Ġdegrees": 7353,
      "hour": 7354,
      "rint": 7355,
      "ãģ": 7356,
      "Ġsending": 7357,
      "arly": 7358,
      "Ġgest": 7359,
      "ĠDC": 7360,
      "abil": 7361,
      "ĠFoot": 7362,
      "allas": 7363,
      "ĠOF": 7364,
      "ensity": 7365,
      "ounced": 7366,
      "Ġideal": 7367,
      "Ġattacked": 7368,
      "ĠCoast": 7369,
      "Ġupdated": 7370,
      "Ġestablishment": 7371,
      "ĠJews": 7372,
      "Ġreputation": 7373,
      "400": 7374,
      "Ã¼": 7375,
      "âĢĲ": 7376,
      "Ġthick": 7377,
      "olis": 7378,
      "ĠPy": 7379,
      "Ġuniform": 7380,
      "Ġspark": 7381,
      "avor": 7382,
      "aval": 7383,
      "Ġanymore": 7384,
      "Ġattitude": 7385,
      "Ġphase": 7386,
      "Ġinstru": 7387,
      "Ġbusy": 7388,
      "Ġmarked": 7389,
      "plete": 7390,
      "ĠPlan": 7391,
      "ĠBrother": 7392,
      "ĠCarl": 7393,
      "ĠPolicy": 7394,
      "Ġcollapse": 7395,
      "Ġtackle": 7396,
      "Ġfranchise": 7397,
      "world": 7398,
      "Ġsister": 7399,
      "Ġble": 7400,
      "utral": 7401,
      "ĠBa": 7402,
      "ĠOtt": 7403,
      "Ġagric": 7404,
      "Ġdiscipl": 7405,
      "Ġ39": 7406,
      "ĠView": 7407,
      "Ġopponents": 7408,
      "Ġposts": 7409,
      "Ġelsewhere": 7410,
      "Ġrecognize": 7411,
      "Ġpurposes": 7412,
      "Ġroutine": 7413,
      "âĢ¢âĢ¢": 7414,
      "Ġteaching": 7415,
      "51": 7416,
      "52": 7417,
      "lers": 7418,
      "rep": 7419,
      "Ġlad": 7420,
      "owed": 7421,
      "ĠCP": 7422,
      "essed": 7423,
      "Ġdisaster": 7424,
      "Ġunderstood": 7425,
      "Ġfounder": 7426,
      "ĠAnth": 7427,
      "Ġlimits": 7428,
      "inois": 7429,
      "Ġadopted": 7430,
      "Ġfundamental": 7431,
      "ĠJesus": 7432,
      "02": 7433,
      "Ġtur": 7434,
      "Ġaver": 7435,
      "ora": 7436,
      "Ġbon": 7437,
      "Ġfighters": 7438,
      "Ġmixed": 7439,
      "rome": 7440,
      "ĠNation": 7441,
      "ĠJordan": 7442,
      "plate": 7443,
      "Ġscoring": 7444,
      "Ġ38": 7445,
      "Ġplayoff": 7446,
      ".\"[": 7447,
      "Ġinvent": 7448,
      "Ġveget": 7449,
      "Ġtitles": 7450,
      "Ġreveal": 7451,
      "Ġcollected": 7452,
      "ĠGlobal": 7453,
      "Ġpenalty": 7454,
      "07": 7455,
      "des": 7456,
      "Ġtied": 7457,
      "athered": 7458,
      "Ġbra": 7459,
      "Ġraces": 7460,
      "ĠJul": 7461,
      "Ġinteraction": 7462,
      "Ġflu": 7463,
      "lix": 7464,
      "anna": 7465,
      "Ġletters": 7466,
      "Ġportion": 7467,
      "Ġaggressive": 7468,
      "Ġwonderful": 7469,
      "Ġpatterns": 7470,
      "Ġprincip": 7471,
      "04": 7472,
      "Int": 7473,
      "ez": 7474,
      "herent": 7475,
      "Ġbid": 7476,
      "Ġbike": 7477,
      "alo": 7478,
      "alle": 7479,
      "Ġhired": 7480,
      "sters": 7481,
      "owered": 7482,
      "ĠBest": 7483,
      "ĠBible": 7484,
      "ĠRet": 7485,
      "ĠEnd": 7486,
      "Ġchampionship": 7487,
      "Ġplate": 7488,
      "Ġplastic": 7489,
      "ogether": 7490,
      "Ġcontribute": 7491,
      "Ġenorm": 7492,
      "Those": 7493,
      "Ġformal": 7494,
      "ĠExp": 7495,
      "Ġrestrictions": 7496,
      "Ġenemies": 7497,
      "Ġteachers": 7498,
      "ĠForeign": 7499,
      "Ġempty": 7500,
      "Ġcoffee": 7501,
      "Com": 7502,
      "fall": 7503,
      "fast": 7504,
      "foot": 7505,
      "vy": 7506,
      "Ġë": 7507,
      "itar": 7508,
      "Ġmel": 7509,
      "ĠTurn": 7510,
      "ĠPen": 7511,
      "Ġsufficient": 7512,
      "ĠEp": 7513,
      "0000": 7514,
      "Ġchosen": 7515,
      "Ġworried": 7516,
      "ĠVik": 7517,
      "Ġ1960": 7518,
      "Ġinterpret": 7519,
      "Ġsmooth": 7520,
      "anny": 7521,
      "Ġresulted": 7522,
      "AST": 7523,
      "Ġapartment": 7524,
      "Ġhouses": 7525,
      "Ġbeliefs": 7526,
      "Ġsubstantial": 7527,
      "09": 7528,
      "mun": 7529,
      "Ġicon": 7530,
      "Ġtip": 7531,
      "Ġtaste": 7532,
      "itals": 7533,
      "esy": 7534,
      "Ġfuck": 7535,
      "ĠJay": 7536,
      "Ġdozen": 7537,
      "Ġsyn": 7538,
      "Ġsurgery": 7539,
      "Ġprovince": 7540,
      "there": 7541,
      "Ġtechniques": 7542,
      "Ġvisible": 7543,
      "6060": 7544,
      "block": 7545,
      "Ġemerged": 7546,
      "front": 7547,
      "ĠArabia": 7548,
      "yrr": 7549,
      "Ġaccurate": 7550,
      "Ġdinner": 7551,
      "aire": 7552,
      "hot": 7553,
      "mad": 7554,
      "va": 7555,
      "itarian": 7556,
      "enth": 7557,
      "ilton": 7558,
      "ĠWalk": 7559,
      "Ġexceed": 7560,
      "Ġven": 7561,
      "active": 7562,
      "Ġcontem": 7563,
      "Ġsituations": 7564,
      "Ġaffairs": 7565,
      "Ġ1996": 7566,
      "Ġruled": 7567,
      "About": 7568,
      "%)": 7569,
      "aed": 7570,
      "pread": 7571,
      "you": 7572,
      "anish": 7573,
      "Ġflying": 7574,
      "Ġanarch": 7575,
      "Ġloud": 7576,
      "string": 7577,
      "utch": 7578,
      "ĠId": 7579,
      "Ġweird": 7580,
      "ĠField": 7581,
      "ĠJosh": 7582,
      "ĠOld": 7583,
      "Ġclock": 7584,
      "Ġarrange": 7585,
      "ova": 7586,
      "hips": 7587,
      "Ġcorrel": 7588,
      "Ġadvis": 7589,
      "Ġtopics": 7590,
      "Ġmilk": 7591,
      "idespread": 7592,
      "Ġrelationships": 7593,
      "Ġbaseball": 7594,
      "Ġclubs": 7595,
      "ĠContin": 7596,
      "Ġmachines": 7597,
      "Ġfeedback": 7598,
      "Ġefficiency": 7599,
      "Ġnomine": 7600,
      "Ġnegotiations": 7601,
      "Ġcrucial": 7602,
      "Ġdefeat": 7603,
      "Ġstructures": 7604,
      "Ġstretch": 7605,
      "69": 7606,
      "PG": 7607,
      "cow": 7608,
      "from": 7609,
      "Ġtasks": 7610,
      "Ġwid": 7611,
      "Ġwire": 7612,
      "Ġfoss": 7613,
      "Ġfault": 7614,
      "ctic": 7615,
      "ĠCy": 7616,
      "ĠCard": 7617,
      "ushing": 7618,
      "Ġunp": 7619,
      "Ġenable": 7620,
      "upid": 7621,
      "Ġ65": 7622,
      "Ġfounded": 7623,
      "viously": 7624,
      "Ġequival": 7625,
      "Ġpublisher": 7626,
      "Ġcompetitive": 7627,
      "Ġrecognition": 7628,
      "Ġsweet": 7629,
      "Ġangry": 7630,
      "Ġwithdraw": 7631,
      "ĠItalian": 7632,
      "ĠAdministration": 7633,
      "Ġgonna": 7634,
      "ĠAN": 7635,
      "ĠCall": 7636,
      "ĠCub": 7637,
      "gel": 7638,
      "orted": 7639,
      "ems": 7640,
      "ĠGDP": 7641,
      "ĠOak": 7642,
      "Ġproved": 7643,
      "Ġreturning": 7644,
      "Ġpersonally": 7645,
      "Ġmatches": 7646,
      "Ġformat": 7647,
      "ATO": 7648,
      "ijing": 7649,
      "Ġracism": 7650,
      "Ġmanufacturing": 7651,
      "ĠSumner": 7652,
      "Ġsomewhere": 7653,
      "Ġdestroyed": 7654,
      "74": 7655,
      "Ġtall": 7656,
      "Ġhall": 7657,
      "Ġlobby": 7658,
      "Ġproof": 7659,
      "ĠDown": 7660,
      "Ġkil": 7661,
      "ĠThus": 7662,
      "ĠThough": 7663,
      "aching": 7664,
      "Ġtrail": 7665,
      "ĠAustin": 7666,
      "Ġtrading": 7667,
      "ĠMedical": 7668,
      "Ġpremium": 7669,
      "Ġscenes": 7670,
      "Ġliked": 7671,
      "Ġrapidly": 7672,
      "yrrha": 7673,
      "Ð¾": 7674,
      "Ġfought": 7675,
      "Ġnarrative": 7676,
      "ĠWhere": 7677,
      "ĠEr": 7678,
      "ĠUFC": 7679,
      "Ġcomponents": 7680,
      "Ġclients": 7681,
      "ĠStill": 7682,
      "ĠStone": 7683,
      "ĠArch": 7684,
      "Ġfunnel": 7685,
      "Ġbench": 7686,
      "Ġlayer": 7687,
      "Ġlandsc": 7688,
      "MP": 7689,
      "UR": 7690,
      "Us": 7691,
      "gender": 7692,
      "Ġtaught": 7693,
      "rehens": 7694,
      "Ġtheories": 7695,
      "Ġcust": 7696,
      "Ġped": 7697,
      "aron": 7698,
      "Ġduty": 7699,
      "Ġstead": 7700,
      "ĠHell": 7701,
      "abric": 7702,
      "umber": 7703,
      "ĠNBC": 7704,
      "quality": 7705,
      "ĠEmp": 7706,
      "ĠEastern": 7707,
      "Ġoutcome": 7708,
      "Ġadapt": 7709,
      "Ġsoil": 7710,
      "Ġrecover": 7711,
      "Ġcounty": 7712,
      "Ġentering": 7713,
      "ĠAdam": 7714,
      "Ġairport": 7715,
      "Ġengaged": 7716,
      "afe": 7717,
      "Ġsquad": 7718,
      "Ġpurchased": 7719,
      "Ġharass": 7720,
      "Ġvulnerable": 7721,
      "ĠPacific": 7722,
      "Related": 7723,
      "\".[": 7724,
      "DA": 7725,
      "MA": 7726,
      "Ġsalt": 7727,
      "Ġsoul": 7728,
      "Ġhang": 7729,
      "ĠTake": 7730,
      "etime": 7731,
      "Ġblocks": 7732,
      "Ġ43": 7733,
      "Ġpossession": 7734,
      "Ġelig": 7735,
      "Ġprominent": 7736,
      "Christ": 7737,
      "Ġresponses": 7738,
      "ĠDespite": 7739,
      "anchester": 7740,
      "Ġbarely": 7741,
      "ecutive": 7742,
      "cific": 7743,
      "post": 7744,
      "then": 7745,
      "Ġcited": 7746,
      "star": 7747,
      "sex": 7748,
      "etary": 7749,
      "ĠMas": 7750,
      "ework": 7751,
      "Ġexcess": 7752,
      "ĠNight": 7753,
      "Ġdistinct": 7754,
      "Ġbreed": 7755,
      "Ġexpectations": 7756,
      "Ġcompete": 7757,
      "ĠHarry": 7758,
      "Ġ\\)": 7759,
      "Ġceleb": 7760,
      "ĠConstitution": 7761,
      "Ġunusual": 7762,
      "CP": 7763,
      "May": 7764,
      "Today": 7765,
      "Ġtap": 7766,
      "ato": 7767,
      "Ġles": 7768,
      "enders": 7769,
      "Ġevil": 7770,
      "Ġscar": 7771,
      "Ġconspir": 7772,
      "Ġproducing": 7773,
      "Ġfinance": 7774,
      "Ġfoundation": 7775,
      "Ġmetal": 7776,
      "Ġcarefully": 7777,
      "Ġaffili": 7778,
      "bridge": 7779,
      "Ġsuggesting": 7780,
      "Ġphotograph": 7781,
      "Ġconsumption": 7782,
      "Ġterrorism": 7783,
      "Ġpolls": 7784,
      "Ġinnoc": 7785,
      "Ġepisodes": 7786,
      "ĠSpecial": 7787,
      "Ġbegun": 7788,
      "Ġveteran": 7789,
      "ĠHawai": 7790,
      "66": 7791,
      "Note": 7792,
      "inations": 7793,
      "itting": 7794,
      "Ġfold": 7795,
      "otes": 7796,
      "ĠSar": 7797,
      "ĠCamer": 7798,
      "ĠBuck": 7799,
      "ĠPD": 7800,
      "Ġproport": 7801,
      "Ġexport": 7802,
      "Ġuncom": 7803,
      "aven": 7804,
      "Ġblind": 7805,
      "phia": 7806,
      "pected": 7807,
      "Ġdefine": 7808,
      "iverpool": 7809,
      "Ġshortly": 7810,
      "Ġanticip": 7811,
      "Ġdelivery": 7812,
      "Ġcameras": 7813,
      "Ġwelcome": 7814,
      "Because": 7815,
      "host": 7816,
      "log": 7817,
      "mpt": 7818,
      "making": 7819,
      "vard": 7820,
      "rell": 7821,
      "Ġcup": 7822,
      "Ġcogn": 7823,
      "Ġfasc": 7824,
      "ĠAL": 7825,
      "ĠMir": 7826,
      "istent": 7827,
      "opher": 7828,
      "ĠFund": 7829,
      "Ġsharp": 7830,
      "ĠJason": 7831,
      "Ġpeak": 7832,
      "Ġoblig": 7833,
      "Ġhardly": 7834,
      "Ġlaid": 7835,
      "Ġdescribes": 7836,
      "Ġbreaks": 7837,
      "Ġcontracts": 7838,
      "Ġthousand": 7839,
      "igrant": 7840,
      "Ġawesome": 7841,
      "Ġinvolvement": 7842,
      "ĠSquare": 7843,
      "adelphia": 7844,
      "ais": 7845,
      "ked": 7846,
      "llor": 7847,
      "ĠTony": 7848,
      "ĠMars": 7849,
      "agg": 7850,
      "izon": 7851,
      "Ġindex": 7852,
      "Ġlawyers": 7853,
      "Ġreprodu": 7854,
      "Ġdrives": 7855,
      "Ġbills": 7856,
      "ĠSenator": 7857,
      "Ġapolog": 7858,
      "Ġregularly": 7859,
      "Ġacademic": 7860,
      "Ġscheme": 7861,
      "ĠIllinois": 7862,
      "idelines": 7863,
      "ĠGeorgia": 7864,
      "Ġgrav": 7865,
      "Ġgaming": 7866,
      "ĠHard": 7867,
      "mented": 7868,
      "ĠDun": 7869,
      "ĠData": 7870,
      "ĠNever": 7871,
      "Ġrecording": 7872,
      "itionally": 7873,
      "Ġremarks": 7874,
      "Ġmonitor": 7875,
      "Ġgenerated": 7876,
      "Ġbehalf": 7877,
      "Ġcutting": 7878,
      "iami": 7879,
      "Ġreducing": 7880,
      "ĠWithout": 7881,
      "Ġhypot": 7882,
      "Ġestablish": 7883,
      "Ġparticipate": 7884,
      "Ġawareness": 7885,
      "Ġticket": 7886,
      "vania": 7887,
      "Ġdisagree": 7888,
      "Will": 7889,
      "bn": 7890,
      "car": 7891,
      "ko": 7892,
      "pse": 7893,
      "esc": 7894,
      "Ġnavig": 7895,
      "Ġlapt": 7896,
      "uties": 7897,
      "urrent": 7898,
      "ĠMand": 7899,
      "ĠHun": 7900,
      "ĠDallas": 7901,
      "Ġexists": 7902,
      "Ġnotion": 7903,
      "ĠLyn": 7904,
      "ĠEduc": 7905,
      "Ġneuro": 7906,
      "Ġcontained": 7907,
      "iana": 7908,
      "Ġdeserv": 7909,
      "Ġauto": 7910,
      "Ġvoter": 7911,
      "Ġelite": 7912,
      "Ġ---": 7913,
      "Ġinvestigate": 7914,
      "EST": 7915,
      "ĠAbb": 7916,
      "Ġcapitalism": 7917,
      "Ġmotor": 7918,
      "Ġtemperatures": 7919,
      "Ġrarely": 7920,
      "Ġprinciples": 7921,
      "Ġtomorrow": 7922,
      "77": 7923,
      "Den": 7924,
      "mers": 7925,
      "hent": 7926,
      "arlier": 7927,
      "asion": 7928,
      "Ġrely": 7929,
      "ĠRoman": 7930,
      "Ġshipping": 7931,
      "Ġcompens": 7932,
      "Ġspots": 7933,
      "itional": 7934,
      "Ġ41": 7935,
      "Ġphones": 7936,
      "ĠAsh": 7937,
      "Ġprotesters": 7938,
      "lessly": 7939,
      "ĠSpanish": 7940,
      "Ġhitting": 7941,
      "Ġlogic": 7942,
      "ĠPerhaps": 7943,
      "Ġsurvive": 7944,
      "Ġtroub": 7945,
      "Ġtickets": 7946,
      "ĠMatthew": 7947,
      "MO": 7948,
      "Ġsid": 7949,
      "Ġluck": 7950,
      "Ġren": 7951,
      "Ġgathered": 7952,
      "idency": 7953,
      "sea": 7954,
      "ĠCle": 7955,
      "ĠBas": 7956,
      "acket": 7957,
      "ĠJac": 7958,
      "Ġmanip": 7959,
      "inking": 7960,
      "eneration": 7961,
      "Ġobst": 7962,
      "Ġpersonnel": 7963,
      "Ġforever": 7964,
      "ĠOrgan": 7965,
      "syl": 7966,
      "Ġpractical": 7967,
      "Ġloan": 7968,
      "ĠMexican": 7969,
      "Ġplatforms": 7970,
      "ĠCompany": 7971,
      "Ġproposals": 7972,
      "Ġgranted": 7973,
      "Ġthin": 7974,
      "Ġgained": 7975,
      "Ġrational": 7976,
      "ĠDet": 7977,
      "ĠLA": 7978,
      "ĠLife": 7979,
      "Ġwheel": 7980,
      "ective": 7981,
      "izab": 7982,
      "Ġperpet": 7983,
      "Ġroster": 7984,
      "Ġlistening": 7985,
      "Ġviewers": 7986,
      "Ġultimate": 7987,
      "Ġautomatically": 7988,
      "Ġaimed": 7989,
      "Ġscenario": 7990,
      "Ġcoalition": 7991,
      "Ġadvertising": 7992,
      "ĠOntario": 7993,
      "89": 7994,
      "Getty": 7995,
      "Ð°": 7996,
      "Ġafra": 7997,
      "Ġsorry": 7998,
      "Ġbacter": 7999,
      "Ġmail": 8000,
      "aser": 8001,
      "Ġeuro": 8002,
      "Ġgift": 8003,
      "ĠCirc": 8004,
      "ĠMajor": 8005,
      "ĠBalt": 8006,
      "ppers": 8007,
      "Ġchances": 8008,
      "Ġcompare": 8009,
      "Ġincent": 8010,
      "osexual": 8011,
      "ibilities": 8012,
      "Ġdesk": 8013,
      "Ġpublication": 8014,
      "Ġretired": 8015,
      "aze": 8016,
      "Ġseemingly": 8017,
      "Ġprogramming": 8018,
      "shire": 8019,
      "Ġinvestigations": 8020,
      "aska": 8021,
      "Ġcivilians": 8022,
      "Ġindicate": 8023,
      "Ġunclear": 8024,
      "Ġengineering": 8025,
      "Ġstruggling": 8026,
      "Ġconversations": 8027,
      "ĠAcadem": 8028,
      "Ġridic": 8029,
      "Ġanxiety": 8030,
      "Ġafraid": 8031,
      "Under": 8032,
      "Where": 8033,
      "een": 8034,
      "oop": 8035,
      "ĠSouthern": 8036,
      "ĠBureau": 8037,
      "ĠFood": 8038,
      "osa": 8039,
      "ĠJava": 8040,
      "Ġdozens": 8041,
      "auc": 8042,
      "Ġspaces": 8043,
      "Ġ400": 8044,
      "enerative": 8045,
      "Ġsignal": 8046,
      "Ġdeeper": 8047,
      "Ġracist": 8048,
      "ĠMarket": 8049,
      "News": 8050,
      "ĠPokÃ©": 8051,
      "UL": 8052,
      "iel": 8053,
      "mo": 8054,
      "Ġ//": 8055,
      "Ġhidden": 8056,
      "Ġelev": 8057,
      "âĢĻ,": 8058,
      "ĠAvenue": 8059,
      "Ġrhet": 8060,
      "Ġprosec": 8061,
      "ĠGraham": 8062,
      "Ġtrillion": 8063,
      "inding": 8064,
      "ĠStand": 8065,
      "Ġresign": 8066,
      "ictions": 8067,
      "Ġprogressive": 8068,
      "Ġdepends": 8069,
      "Ġpayment": 8070,
      "Ġsolve": 8071,
      "Ġestate": 8072,
      "Ġconstitutional": 8073,
      "irds": 8074,
      "Ġgrounds": 8075,
      "Ġdestruction": 8076,
      "Ġpriority": 8077,
      "Ġjournalist": 8078,
      "Ġmountain": 8079,
      "Ġpilot": 8080,
      "Ġmonitoring": 8081,
      "Ġunemployment": 8082,
      "sylvania": 8083,
      "Dr": 8084,
      "Fr": 8085,
      "John": 8086,
      "function": 8087,
      "erts": 8088,
      "ĠTem": 8089,
      "ĠSant": 8090,
      "ĠAction": 8091,
      "ithvir": 8092,
      "Ġrif": 8093,
      "ĠDNA": 8094,
      "Ġ($": 8095,
      "ushed": 8096,
      "Ġnoting": 8097,
      "ĠOs": 8098,
      "Ġjury": 8099,
      "Ġintense": 8100,
      "ĠChampionship": 8101,
      "Ġrecru": 8102,
      "Ġgrade": 8103,
      "Ġwarrant": 8104,
      "Ġdistributed": 8105,
      "Ġoperate": 8106,
      "Ġdrag": 8107,
      "Ġ1999": 8108,
      "Ġlowest": 8109,
      "ĠCentre": 8110,
      "Ġsuccessfully": 8111,
      "ĠAbout": 8112,
      "ĠServices": 8113,
      "Ġtweeted": 8114,
      "profit": 8115,
      "izabeth": 8116,
      "ithviraj": 8117,
      "Che": 8118,
      "^{": 8119,
      "pes": 8120,
      "ĠTro": 8121,
      "Ġstadium": 8122,
      "ĠManchester": 8123
    },
    "merges": [
      [
        "Ġ",
        "t"
      ],
      [
        "Ġ",
        "a"
      ],
      [
        "h",
        "e"
      ],
      [
        "i",
        "n"
      ],
      [
        "r",
        "e"
      ],
      [
        "Ġt",
        "he"
      ],
      [
        "o",
        "n"
      ],
      [
        "e",
        "r"
      ],
      [
        "Ġ",
        "s"
      ],
      [
        "Ġ",
        "w"
      ],
      [
        "a",
        "t"
      ],
      [
        "Ġ",
        "o"
      ],
      [
        "e",
        "n"
      ],
      [
        "Ġ",
        "c"
      ],
      [
        "i",
        "t"
      ],
      [
        "i",
        "s"
      ],
      [
        "a",
        "n"
      ],
      [
        "o",
        "r"
      ],
      [
        "Ġ",
        "b"
      ],
      [
        "e",
        "d"
      ],
      [
        "e",
        "s"
      ],
      [
        "Ġ",
        "f"
      ],
      [
        "in",
        "g"
      ],
      [
        "Ġ",
        "p"
      ],
      [
        "o",
        "u"
      ],
      [
        "Ġa",
        "n"
      ],
      [
        "a",
        "l"
      ],
      [
        "Ġt",
        "o"
      ],
      [
        "a",
        "r"
      ],
      [
        "Ġ",
        "in"
      ],
      [
        "Ġ",
        "m"
      ],
      [
        "Ġo",
        "f"
      ],
      [
        "Ġ",
        "d"
      ],
      [
        "Ġ",
        "h"
      ],
      [
        "i",
        "c"
      ],
      [
        "Ġan",
        "d"
      ],
      [
        "a",
        "s"
      ],
      [
        "â",
        "Ģ"
      ],
      [
        "Ġt",
        "h"
      ],
      [
        "l",
        "e"
      ],
      [
        "i",
        "on"
      ],
      [
        "o",
        "m"
      ],
      [
        "l",
        "l"
      ],
      [
        "en",
        "t"
      ],
      [
        "Ġ",
        "n"
      ],
      [
        "Ġ",
        "l"
      ],
      [
        "Ġ",
        "re"
      ],
      [
        "s",
        "t"
      ],
      [
        "v",
        "e"
      ],
      [
        "Ġ",
        "e"
      ],
      [
        "l",
        "y"
      ],
      [
        "r",
        "o"
      ],
      [
        "Ġb",
        "e"
      ],
      [
        "Ġ",
        "g"
      ],
      [
        "i",
        "d"
      ],
      [
        "u",
        "t"
      ],
      [
        "a",
        "c"
      ],
      [
        "o",
        "t"
      ],
      [
        "Ġ",
        "T"
      ],
      [
        "Ġth",
        "at"
      ],
      [
        "Ġ",
        "I"
      ],
      [
        "Ġ",
        "on"
      ],
      [
        "a",
        "y"
      ],
      [
        "Ġ",
        "is"
      ],
      [
        "i",
        "m"
      ],
      [
        "Ġ",
        "S"
      ],
      [
        "s",
        "e"
      ],
      [
        "a",
        "m"
      ],
      [
        "a",
        "d"
      ],
      [
        "o",
        "w"
      ],
      [
        "Ġf",
        "or"
      ],
      [
        "i",
        "g"
      ],
      [
        "e",
        "t"
      ],
      [
        "âĢ",
        "Ļ"
      ],
      [
        "v",
        "er"
      ],
      [
        "Ġ",
        "A"
      ],
      [
        "c",
        "t"
      ],
      [
        "l",
        "d"
      ],
      [
        "u",
        "r"
      ],
      [
        "Ġ",
        "C"
      ],
      [
        "Ġs",
        "t"
      ],
      [
        "Ġ",
        "u"
      ],
      [
        "Ġ",
        "it"
      ],
      [
        "Ġ",
        "y"
      ],
      [
        "Ġ",
        "he"
      ],
      [
        "at",
        "ion"
      ],
      [
        "i",
        "r"
      ],
      [
        "it",
        "h"
      ],
      [
        "Ġw",
        "h"
      ],
      [
        "Ġ",
        "M"
      ],
      [
        "c",
        "e"
      ],
      [
        "o",
        "l"
      ],
      [
        "Ġw",
        "e"
      ],
      [
        "t",
        "er"
      ],
      [
        "i",
        "l"
      ],
      [
        "Ġa",
        "s"
      ],
      [
        "Ġw",
        "ith"
      ],
      [
        "Ġ",
        "B"
      ],
      [
        "c",
        "h"
      ],
      [
        "i",
        "ll"
      ],
      [
        "n",
        "d"
      ],
      [
        "Ġw",
        "as"
      ],
      [
        "Ġ",
        "P"
      ],
      [
        "er",
        "s"
      ],
      [
        "Ġc",
        "on"
      ],
      [
        "k",
        "e"
      ],
      [
        "Ġy",
        "ou"
      ],
      [
        "Ġ",
        "âĢ"
      ],
      [
        "Ġd",
        "e"
      ],
      [
        "i",
        "f"
      ],
      [
        "at",
        "e"
      ],
      [
        "Ġ",
        "r"
      ],
      [
        "he",
        "r"
      ],
      [
        "Ġa",
        "t"
      ],
      [
        "Ġh",
        "a"
      ],
      [
        "g",
        "e"
      ],
      [
        "Ġ",
        "H"
      ],
      [
        "Ġp",
        "ro"
      ],
      [
        "Ġ",
        "W"
      ],
      [
        "Ġs",
        "e"
      ],
      [
        "o",
        "re"
      ],
      [
        "p",
        "p"
      ],
      [
        "u",
        "l"
      ],
      [
        "is",
        "t"
      ],
      [
        "m",
        "ent"
      ],
      [
        "Ġa",
        "re"
      ],
      [
        "r",
        "i"
      ],
      [
        "Ġ",
        "1"
      ],
      [
        "Ġc",
        "om"
      ],
      [
        "Ġ",
        "D"
      ],
      [
        "an",
        "d"
      ],
      [
        "es",
        "t"
      ],
      [
        "Ġ",
        "("
      ],
      [
        "Ġ",
        "2"
      ],
      [
        "u",
        "s"
      ],
      [
        "or",
        "t"
      ],
      [
        "a",
        "in"
      ],
      [
        "Ġ",
        "R"
      ],
      [
        "o",
        "p"
      ],
      [
        "ĠT",
        "he"
      ],
      [
        "r",
        "om"
      ],
      [
        "ig",
        "h"
      ],
      [
        "e",
        "w"
      ],
      [
        "Ġe",
        "x"
      ],
      [
        "o",
        "d"
      ],
      [
        "a",
        "b"
      ],
      [
        "Ġ",
        "F"
      ],
      [
        "u",
        "n"
      ],
      [
        "u",
        "m"
      ],
      [
        "âĢ",
        "Ŀ"
      ],
      [
        "Ġn",
        "ot"
      ],
      [
        "re",
        "s"
      ],
      [
        "es",
        "s"
      ],
      [
        "it",
        "y"
      ],
      [
        "e",
        "m"
      ],
      [
        "Ġ",
        "N"
      ],
      [
        "ou",
        "ld"
      ],
      [
        "Ġha",
        "ve"
      ],
      [
        "ar",
        "t"
      ],
      [
        "Ġ",
        "v"
      ],
      [
        "Ġb",
        "y"
      ],
      [
        "an",
        "t"
      ],
      [
        "Ġo",
        "r"
      ],
      [
        "o",
        "s"
      ],
      [
        "i",
        "ve"
      ],
      [
        "Ġ",
        "G"
      ],
      [
        "'",
        "s"
      ],
      [
        "Ġf",
        "rom"
      ],
      [
        "Ġa",
        "l"
      ],
      [
        "o",
        "c"
      ],
      [
        "t",
        "h"
      ],
      [
        "Ġs",
        "u"
      ],
      [
        "e",
        "l"
      ],
      [
        "n",
        "t"
      ],
      [
        "Ġth",
        "is"
      ],
      [
        "Ġ",
        "L"
      ],
      [
        "q",
        "u"
      ],
      [
        "Ġs",
        "h"
      ],
      [
        "i",
        "es"
      ],
      [
        "u",
        "st"
      ],
      [
        "p",
        "e"
      ],
      [
        "Ġ",
        "E"
      ],
      [
        "Ġa",
        "b"
      ],
      [
        "igh",
        "t"
      ],
      [
        "Ġs",
        "a"
      ],
      [
        "en",
        "d"
      ],
      [
        "Ġ",
        "le"
      ],
      [
        "ou",
        "t"
      ],
      [
        "T",
        "he"
      ],
      [
        "0",
        "0"
      ],
      [
        "e",
        "ar"
      ],
      [
        "r",
        "a"
      ],
      [
        "Ġc",
        "h"
      ],
      [
        "re",
        "d"
      ],
      [
        "al",
        "ly"
      ],
      [
        "ĠâĢ",
        "ľ"
      ],
      [
        "al",
        "l"
      ],
      [
        "Ġh",
        "as"
      ],
      [
        "ac",
        "k"
      ],
      [
        "Ġ",
        "J"
      ],
      [
        "Ġg",
        "o"
      ],
      [
        "o",
        "st"
      ],
      [
        "Ġp",
        "l"
      ],
      [
        "i",
        "v"
      ],
      [
        "ar",
        "d"
      ],
      [
        "Ġ",
        "O"
      ],
      [
        "g",
        "h"
      ],
      [
        "u",
        "d"
      ],
      [
        "om",
        "e"
      ],
      [
        "Ġh",
        "is"
      ],
      [
        "Ġ",
        "j"
      ],
      [
        "as",
        "t"
      ],
      [
        "Ġd",
        "o"
      ],
      [
        "a",
        "k"
      ],
      [
        "r",
        "ou"
      ],
      [
        "ou",
        "r"
      ],
      [
        "Ġw",
        "or"
      ],
      [
        "Ġthe",
        "y"
      ],
      [
        "Ġsa",
        "id"
      ],
      [
        "Ġb",
        "ut"
      ],
      [
        "Ġ",
        "U"
      ],
      [
        "o",
        "k"
      ],
      [
        "Ġc",
        "an"
      ],
      [
        "Ġw",
        "ill"
      ],
      [
        "Ġw",
        "he"
      ],
      [
        "a",
        "p"
      ],
      [
        "Ġ",
        "k"
      ],
      [
        "ic",
        "h"
      ],
      [
        "a",
        "g"
      ],
      [
        "Ġa",
        "ll"
      ],
      [
        "Ġwh",
        "o"
      ],
      [
        "Ġ",
        "\""
      ],
      [
        "id",
        "e"
      ],
      [
        "Ġin",
        "t"
      ],
      [
        "i",
        "al"
      ],
      [
        "f",
        "f"
      ],
      [
        "an",
        "s"
      ],
      [
        "t",
        "her"
      ],
      [
        "Ġt",
        "r"
      ],
      [
        "Ġn",
        "e"
      ],
      [
        "i",
        "e"
      ],
      [
        "p",
        "l"
      ],
      [
        "Ġo",
        "ut"
      ],
      [
        "e",
        "ct"
      ],
      [
        "on",
        "g"
      ],
      [
        "u",
        "re"
      ],
      [
        "Ġthe",
        "ir"
      ],
      [
        "ic",
        "e"
      ],
      [
        "am",
        "e"
      ],
      [
        "Ġm",
        "ore"
      ],
      [
        "ou",
        "s"
      ],
      [
        "p",
        "t"
      ],
      [
        "ion",
        "s"
      ],
      [
        "ac",
        "t"
      ],
      [
        "on",
        "e"
      ],
      [
        "i",
        "ke"
      ],
      [
        "Ġm",
        "e"
      ],
      [
        "a",
        "ge"
      ],
      [
        "Ġa",
        "d"
      ],
      [
        "Ġu",
        "p"
      ],
      [
        "Ġab",
        "out"
      ],
      [
        "in",
        "e"
      ],
      [
        "at",
        "ed"
      ],
      [
        "b",
        "er"
      ],
      [
        "o",
        "g"
      ],
      [
        "im",
        "e"
      ],
      [
        "Ġwe",
        "re"
      ],
      [
        "Ġs",
        "o"
      ],
      [
        "Ġu",
        "s"
      ],
      [
        "Ġon",
        "e"
      ],
      [
        "e",
        "p"
      ],
      [
        "Ġh",
        "ad"
      ],
      [
        "Ġw",
        "ould"
      ],
      [
        "Ġ",
        "im"
      ],
      [
        "u",
        "b"
      ],
      [
        "Ġ2",
        "0"
      ],
      [
        "u",
        "e"
      ],
      [
        "Ġ",
        "K"
      ],
      [
        "Ġcon",
        "t"
      ],
      [
        "c",
        "c"
      ],
      [
        "a",
        "re"
      ],
      [
        "Ġcom",
        "p"
      ],
      [
        "i",
        "z"
      ],
      [
        "a",
        "ke"
      ],
      [
        "in",
        "d"
      ],
      [
        "i",
        "a"
      ],
      [
        "Ġc",
        "l"
      ],
      [
        "Ġwh",
        "ich"
      ],
      [
        "Ġof",
        "f"
      ],
      [
        "ĠS",
        "t"
      ],
      [
        "ver",
        "y"
      ],
      [
        "Ġa",
        "g"
      ],
      [
        "Ġbe",
        "en"
      ],
      [
        "Ġt",
        "e"
      ],
      [
        "ig",
        "n"
      ],
      [
        "Ġu",
        "n"
      ],
      [
        "Ġ",
        "en"
      ],
      [
        "p",
        "er"
      ],
      [
        "a",
        "u"
      ],
      [
        "ĠT",
        "h"
      ],
      [
        "s",
        "o"
      ],
      [
        "e",
        "re"
      ],
      [
        "ac",
        "e"
      ],
      [
        "ar",
        "y"
      ],
      [
        "Ġe",
        "v"
      ],
      [
        "Ġin",
        "c"
      ],
      [
        "o",
        "ok"
      ],
      [
        "Ġy",
        "ear"
      ],
      [
        "Ġl",
        "ike"
      ],
      [
        "ab",
        "le"
      ],
      [
        "o",
        "se"
      ],
      [
        "ay",
        "s"
      ],
      [
        "i",
        "p"
      ],
      [
        "Ġp",
        "er"
      ],
      [
        "p",
        "ort"
      ],
      [
        "Ġm",
        "an"
      ],
      [
        "Ġp",
        "e"
      ],
      [
        "Ġre",
        "s"
      ],
      [
        "it",
        "e"
      ],
      [
        "r",
        "y"
      ],
      [
        "i",
        "re"
      ],
      [
        "Ġo",
        "ther"
      ],
      [
        "or",
        "d"
      ],
      [
        "Ġ20",
        "1"
      ],
      [
        "en",
        "ce"
      ],
      [
        "ic",
        "al"
      ],
      [
        "i",
        "b"
      ],
      [
        "m",
        "er"
      ],
      [
        "ation",
        "s"
      ],
      [
        ".",
        "."
      ],
      [
        "Ġthe",
        "re"
      ],
      [
        "Ġs",
        "p"
      ],
      [
        "Ġo",
        "ver"
      ],
      [
        "ĠI",
        "n"
      ],
      [
        "k",
        "s"
      ],
      [
        "Ġn",
        "ew"
      ],
      [
        "Ġs",
        "ome"
      ],
      [
        "as",
        "s"
      ],
      [
        "Ġth",
        "an"
      ],
      [
        "ou",
        "nt"
      ],
      [
        "op",
        "le"
      ],
      [
        "ou",
        "gh"
      ],
      [
        "ul",
        "t"
      ],
      [
        "res",
        "s"
      ],
      [
        "Ġa",
        "r"
      ],
      [
        "in",
        "t"
      ],
      [
        "Ġd",
        "is"
      ],
      [
        "Ġal",
        "so"
      ],
      [
        "an",
        "ce"
      ],
      [
        "i",
        "le"
      ],
      [
        "Ġbe",
        "c"
      ],
      [
        "ow",
        "n"
      ],
      [
        "Ġp",
        "art"
      ],
      [
        "-",
        "-"
      ],
      [
        "on",
        "d"
      ],
      [
        "Ġa",
        "pp"
      ],
      [
        "r",
        "u"
      ],
      [
        "or",
        "m"
      ],
      [
        "f",
        "ter"
      ],
      [
        "Ġthe",
        "m"
      ],
      [
        "Ġwh",
        "at"
      ],
      [
        "Ġs",
        "c"
      ],
      [
        "ĠC",
        "h"
      ],
      [
        "Ġwhe",
        "n"
      ],
      [
        "Ġ",
        "qu"
      ],
      [
        "re",
        "e"
      ],
      [
        "a",
        "v"
      ],
      [
        "Ġan",
        "y"
      ],
      [
        "Ġpe",
        "ople"
      ],
      [
        "Ġ",
        "Y"
      ],
      [
        "a",
        "il"
      ],
      [
        "Ġt",
        "ime"
      ],
      [
        "Ġyou",
        "r"
      ],
      [
        "en",
        "s"
      ],
      [
        "Ġj",
        "ust"
      ],
      [
        "ĠI",
        "t"
      ],
      [
        "as",
        "e"
      ],
      [
        "Ġk",
        "n"
      ],
      [
        ".",
        "âĢĿ"
      ],
      [
        "d",
        "u"
      ],
      [
        "l",
        "ic"
      ],
      [
        "Ġit",
        "s"
      ],
      [
        "ac",
        "h"
      ],
      [
        "Ġ",
        "if"
      ],
      [
        "Ġre",
        "c"
      ],
      [
        "Ġwor",
        "k"
      ],
      [
        "i",
        "an"
      ],
      [
        "o",
        "b"
      ],
      [
        "Ġhe",
        "r"
      ],
      [
        "Ġm",
        "y"
      ],
      [
        "Ġ",
        "3"
      ],
      [
        "ir",
        "st"
      ],
      [
        "Ġg",
        "et"
      ],
      [
        "ct",
        "ion"
      ],
      [
        "Ġint",
        "o"
      ],
      [
        "ve",
        "l"
      ],
      [
        "re",
        "at"
      ],
      [
        "Ġt",
        "w"
      ],
      [
        "ou",
        "nd"
      ],
      [
        "or",
        "y"
      ],
      [
        "Ġ",
        "V"
      ],
      [
        "Ġo",
        "ur"
      ],
      [
        "Ġn",
        "o"
      ],
      [
        "it",
        "ion"
      ],
      [
        "or",
        "s"
      ],
      [
        "ing",
        "s"
      ],
      [
        "Ġc",
        "o"
      ],
      [
        "in",
        "k"
      ],
      [
        "Ġp",
        "re"
      ],
      [
        "at",
        "es"
      ],
      [
        "id",
        "ent"
      ],
      [
        "Ġp",
        "ol"
      ],
      [
        "ic",
        "k"
      ],
      [
        "ar",
        "k"
      ],
      [
        "i",
        "ous"
      ],
      [
        "au",
        "se"
      ],
      [
        "t",
        "e"
      ],
      [
        ",",
        "âĢĿ"
      ],
      [
        "a",
        "w"
      ],
      [
        "h",
        "ing"
      ],
      [
        "ver",
        "s"
      ],
      [
        "Ġpl",
        "ay"
      ],
      [
        "Ġa",
        "fter"
      ],
      [
        "ad",
        "e"
      ],
      [
        "Ġ1",
        "9"
      ],
      [
        "Ġ",
        "ro"
      ],
      [
        "an",
        "g"
      ],
      [
        "e",
        "ll"
      ],
      [
        "Ġs",
        "he"
      ],
      [
        "Ġc",
        "ould"
      ],
      [
        "am",
        "p"
      ],
      [
        "Ġa",
        "cc"
      ],
      [
        "on",
        "s"
      ],
      [
        "Ġf",
        "irst"
      ],
      [
        "o",
        "ve"
      ],
      [
        "ĠH",
        "e"
      ],
      [
        "nd",
        "er"
      ],
      [
        "w",
        "n"
      ],
      [
        "Ġp",
        "o"
      ],
      [
        "Ġh",
        "ow"
      ],
      [
        "er",
        "v"
      ],
      [
        "'",
        "t"
      ],
      [
        "ic",
        "t"
      ],
      [
        "i",
        "ld"
      ],
      [
        "Ġh",
        "im"
      ],
      [
        "n",
        "e"
      ],
      [
        "he",
        "d"
      ],
      [
        "âĢ",
        "ľ"
      ],
      [
        "Ġp",
        "r"
      ],
      [
        "o",
        "v"
      ],
      [
        "Ġat",
        "t"
      ],
      [
        "Ġtw",
        "o"
      ],
      [
        ".",
        "\""
      ],
      [
        "Ġon",
        "ly"
      ],
      [
        "r",
        "it"
      ],
      [
        "Ġbe",
        "t"
      ],
      [
        "Ġs",
        "pe"
      ],
      [
        "Ġa",
        "ct"
      ],
      [
        "is",
        "h"
      ],
      [
        "if",
        "f"
      ],
      [
        "f",
        "orm"
      ],
      [
        "f",
        "t"
      ],
      [
        "Ġcom",
        "m"
      ],
      [
        "Ġde",
        "c"
      ],
      [
        "Ġm",
        "ost"
      ],
      [
        "Ġcon",
        "s"
      ],
      [
        "Ġb",
        "l"
      ],
      [
        "n",
        "ing"
      ],
      [
        "c",
        "es"
      ],
      [
        "Ġd",
        "id"
      ],
      [
        "Ġa",
        "m"
      ],
      [
        "o",
        "od"
      ],
      [
        "u",
        "al"
      ],
      [
        "Ġb",
        "ack"
      ],
      [
        "rou",
        "nd"
      ],
      [
        "w",
        "e"
      ],
      [
        "Ġd",
        "es"
      ],
      [
        "o",
        "y"
      ],
      [
        "Ġ",
        "4"
      ],
      [
        "Ġ",
        "$"
      ],
      [
        "e",
        "c"
      ],
      [
        "m",
        "an"
      ],
      [
        "Ġf",
        "e"
      ],
      [
        "at",
        "er"
      ],
      [
        "Ġu",
        "nder"
      ],
      [
        "Ġw",
        "ant"
      ],
      [
        "l",
        "ud"
      ],
      [
        "rou",
        "gh"
      ],
      [
        "d",
        "ay"
      ],
      [
        "is",
        "e"
      ],
      [
        "ub",
        "lic"
      ],
      [
        "Ġin",
        "d"
      ],
      [
        "is",
        "s"
      ],
      [
        "ent",
        "s"
      ],
      [
        "Ġbec",
        "ause"
      ],
      [
        "Ġin",
        "v"
      ],
      [
        "Ġev",
        "en"
      ],
      [
        "c",
        "ed"
      ],
      [
        "ĠâĢ",
        "ĵ"
      ],
      [
        "Ġne",
        "ed"
      ],
      [
        "se",
        "l"
      ],
      [
        "Ġe",
        "m"
      ],
      [
        "Ġag",
        "ain"
      ],
      [
        "Ġin",
        "ter"
      ],
      [
        "c",
        "k"
      ],
      [
        "Ġkn",
        "ow"
      ],
      [
        "Ġyear",
        "s"
      ],
      [
        ",",
        "\""
      ],
      [
        "ĠâĢ",
        "Ķ"
      ],
      [
        "ĠU",
        "n"
      ],
      [
        "u",
        "ch"
      ],
      [
        "Ġad",
        "d"
      ],
      [
        "t",
        "ing"
      ],
      [
        "o",
        "ld"
      ],
      [
        "Ġse",
        "c"
      ],
      [
        "Ġn",
        "ow"
      ],
      [
        "u",
        "ll"
      ],
      [
        "p",
        "h"
      ],
      [
        "pe",
        "ct"
      ],
      [
        "ment",
        "s"
      ],
      [
        "Ġm",
        "ake"
      ],
      [
        "Ġse",
        "e"
      ],
      [
        "Ġsu",
        "pp"
      ],
      [
        "f",
        "ore"
      ],
      [
        "Ġe",
        "very"
      ],
      [
        "ur",
        "n"
      ],
      [
        "Ġthe",
        "se"
      ],
      [
        "oc",
        "k"
      ],
      [
        "j",
        "ect"
      ],
      [
        "I",
        "n"
      ],
      [
        "ation",
        "al"
      ],
      [
        "T",
        "h"
      ],
      [
        "Ġre",
        "l"
      ],
      [
        "os",
        "s"
      ],
      [
        "Ġd",
        "iff"
      ],
      [
        "Ġwhe",
        "re"
      ],
      [
        "ver",
        "n"
      ],
      [
        "Ġ",
        "5"
      ],
      [
        "at",
        "h"
      ],
      [
        "x",
        "t"
      ],
      [
        "o",
        "ll"
      ],
      [
        "Ġ",
        "-"
      ],
      [
        "ĠW",
        "e"
      ],
      [
        "ro",
        "w"
      ],
      [
        "âĢ",
        "Ķ"
      ],
      [
        "i",
        "ly"
      ],
      [
        "Ġw",
        "ay"
      ],
      [
        "le",
        "ct"
      ],
      [
        "Ġd",
        "on"
      ],
      [
        ")",
        "."
      ],
      [
        "Ġbe",
        "ing"
      ],
      [
        "l",
        "es"
      ],
      [
        "Ġl",
        "ook"
      ],
      [
        "Ġde",
        "f"
      ],
      [
        "Ġth",
        "ink"
      ],
      [
        "Ġthe",
        "n"
      ],
      [
        "Ġinc",
        "lud"
      ],
      [
        "i",
        "ew"
      ],
      [
        "i",
        "ed"
      ],
      [
        "at",
        "ive"
      ],
      [
        "at",
        "ing"
      ],
      [
        "as",
        "ed"
      ],
      [
        "mer",
        "ic"
      ],
      [
        "ri",
        "b"
      ],
      [
        "it",
        "ed"
      ],
      [
        "on",
        "t"
      ],
      [
        "ow",
        "er"
      ],
      [
        "Ġb",
        "u"
      ],
      [
        "Ġm",
        "ay"
      ],
      [
        "Ġman",
        "y"
      ],
      [
        "ar",
        "g"
      ],
      [
        "Ġr",
        "ight"
      ],
      [
        "Ġth",
        "ose"
      ],
      [
        "as",
        "on"
      ],
      [
        "Ġm",
        "uch"
      ],
      [
        "Ġp",
[...]
