{
  "version": "1.0",
  "truncation": null,
  "padding": null,
  "added_tokens": [
    {
      "id": 0,
      "content": "<pad>",
      "single_word": false,
      "lstrip": false,
      "rstrip": false,
      "normalized": false,
      "special": true
    },
    {
      "id": 1,
      "content": "<bos>",
      "single_word": false,
      "lstrip": false,
      "rstrip": false,
      "normalized": false,
      "special": true
    },
    {
      "id": 2,
      "content": "<eos>",
      "single_word": false,
      "lstrip": false,
      "rstrip": false,
      "normalized": false,
      "special": true
    },
    {
      "id": 3,
      "content": "<unk>",
      "single_word": false,
      "lstrip": false,
      "rstrip": false,
      "normalized": false,
      "special": true
    }
  ],
  "normalizer": {
    "type": "NFKC"
  },
  "pre_tokenizer": {
    "type": "ByteLevel",
    "add_prefix_space": false,
    "trim_offsets": true,
    "use_regex": true
  },
  "post_processor": {
    "type": "TemplateProcessing",
    "single": [
      {
        "SpecialToken": {
          "id": "<bos>",
          "type_id": 0
        }
      },
      {
        "Sequence": {
          "id": "A",
          "type_id": 0
        }
      },
      {
        "SpecialToken": {
          "id": "<eos>",
          "type_id": 0
        }
      }
    ],
    "pair": [
      {
        "SpecialToken": {
          "id": "<bos>",
          "type_id": 0
        }
      },
      {
        "Sequence": {
          "id": "A",
          "type_id": 0
        }
      },
      {
        "SpecialToken": {
          "id": "<eos>",
          "type_id": 0
        }
      },
      {
        "Sequence": {
          "id": "B",
          "type_id": 0
        }
      },
      {
        "SpecialToken": {
          "id": "<eos>",
          "type_id": 0
        }
      }
    ],
    "special_tokens": {
      "<bos>": {
        "id": "<bos>",
        "ids": [
          1
        ],
        "tokens": [
          "<bos>"
        ]
      },
      "<eos>": {
        "id": "<eos>",
        "ids": [
          2
        ],
        "tokens": [
          "<eos>"
        ]
      }
    }
  },
  "decoder": {
    "type": "ByteLevel",
    "add_prefix_space": true,
    "trim_offsets": true,
    "use_regex": true
  },
  "model": {
    "type": "BPE",
    "dropout": null,
    "unk_token": "<unk>",
    "continuing_subword_prefix": null,
    "end_of_word_suffix": null,
    "fuse_unk": false,
    "byte_fallback": false,
    "ignore_merges": false,
    "vocab": {
      "<pad>": 0,
      "<bos>": 1,
      "<eos>": 2,
      "<unk>": 3,
      "!": 4,
      "\"": 5,
      "#": 6,
      "$": 7,
      "%": 8,
      "&": 9,
      "'": 10,
      "(": 11,
      ")": 12,
      "*": 13,
      "+": 14,
      ",": 15,
      "-": 16,
      ".": 17,
      "/": 18,
      "0": 19,
      "1": 20,
      "2": 21,
      "3": 22,
      "4": 23,
      "5": 24,
      "6": 25,
      "7": 26,
      "8": 27,
      "9": 28,
      ":": 29,
      ";": 30,
      "<": 31,
      "=": 32,
      ">": 33,
      "?": 34,
      "@": 35,
      "A": 36,
      "B": 37,
      "C": 38,
      "D": 39,
      "E": 40,
      "F": 41,
      "G": 42,
      "H": 43,
      "I": 44,
      "J": 45,
      "K": 46,
      "L": 47,
      "M": 48,
      "N": 49,
      "O": 50,
      "P": 51,
      "Q": 52,
      "R": 53,
      "S": 54,
      "T": 55,
      "U": 56,
      "V": 57,
      "W": 58,
      "X": 59,
      "Y": 60,
      "Z": 61,
      "[": 62,
      "\\": 63,
      "]": 64,
      "^": 65,
      "_": 66,
      "`": 67,
      "a": 68,
      "b": 69,
      "c": 70,
      "d": 71,
      "e": 72,
      "f": 73,
      "g": 74,
      "h": 75,
      "i": 76,
      "j": 77,
      "k": 78,
      "l": 79,
      "m": 80,
      "n": 81,
      "o": 82,
      "p": 83,
      "q": 84,
      "r": 85,
      "s": 86,
      "t": 87,
      "u": 88,
      "v": 89,
      "w": 90,
      "x": 91,
      "y": 92,
      "z": 93,
      "{": 94,
      "|": 95,
      "}": 96,
      "~": 97,
      "¡": 98,
      "¢": 99,
      "£": 100,
      "¤": 101,
      "¥": 102,
      "¦": 103,
      "§": 104,
      "¨": 105,
      "©": 106,
      "ª": 107,
      "«": 108,
      "¬": 109,
      "®": 110,
      "¯": 111,
      "°": 112,
      "±": 113,
      "²": 114,
      "³": 115,
      "´": 116,
      "µ": 117,
      "¶": 118,
      "·": 119,
      "¸": 120,
      "¹": 121,
      "º": 122,
      "»": 123,
      "¼": 124,
      "½": 125,
      "¾": 126,
      "¿": 127,
      "À": 128,
      "Á": 129,
      "Â": 130,
      "Ã": 131,
      "Ä": 132,
      "Å": 133,
      "Æ": 134,
      "Ç": 135,
      "È": 136,
      "É": 137,
      "Ê": 138,
      "Ë": 139,
      "Ì": 140,
      "Í": 141,
      "Î": 142,
      "Ï": 143,
      "Ð": 144,
      "Ñ": 145,
      "Ò": 146,
      "Ó": 147,
      "Ô": 148,
      "Õ": 149,
      "Ö": 150,
      "×": 151,
      "Ø": 152,
      "Ù": 153,
      "Ú": 154,
      "Û": 155,
      "Ü": 156,
      "Ý": 157,
      "Þ": 158,
      "ß": 159,
      "à": 160,
      "á": 161,
      "â": 162,
      "ã": 163,
      "ä": 164,
      "å": 165,
      "æ": 166,
      "ç": 167,
      "è": 168,
      "é": 169,
      "ê": 170,
      "ë": 171,
      "ì": 172,
      "í": 173,
      "î": 174,
      "ï": 175,
      "ð": 176,
      "ñ": 177,
      "ò": 178,
      "ó": 179,
      "ô": 180,
      "õ": 181,
      "ö": 182,
      "÷": 183,
      "ø": 184,
      "ù": 185,
      "ú": 186,
      "û": 187,
      "ü": 188,
      "ý": 189,
      "þ": 190,
      "ÿ": 191,
      "Ā": 192,
      "ā": 193,
      "Ă": 194,
      "ă": 195,
      "Ą": 196,
      "ą": 197,
      "Ć": 198,
      "ć": 199,
      "Ĉ": 200,
      "ĉ": 201,
      "Ċ": 202,
      "ċ": 203,
      "Č": 204,
      "č": 205,
      "Ď": 206,
      "ď": 207,
      "Đ": 208,
      "đ": 209,
      "Ē": 210,
      "ē": 211,
      "Ĕ": 212,
      "ĕ": 213,
      "Ė": 214,
      "ė": 215,
      "Ę": 216,
      "ę": 217,
      "Ě": 218,
      "ě": 219,
      "Ĝ": 220,
      "ĝ": 221,
      "Ğ": 222,
      "ğ": 223,
      "Ġ": 224,
      "ġ": 225,
      "Ģ": 226,
      "ģ": 227,
      "Ĥ": 228,
      "ĥ": 229,
      "Ħ": 230,
      "ħ": 231,
      "Ĩ": 232,
      "ĩ": 233,
      "Ī": 234,
      "ī": 235,
      "Ĭ": 236,
      "ĭ": 237,
      "Į": 238,
      "į": 239,
      "İ": 240,
      "ı": 241,
      "Ĳ": 242,
      "ĳ": 243,
      "Ĵ": 244,
      "ĵ": 245,
      "Ķ": 246,
      "ķ": 247,
      "ĸ": 248,
      "Ĺ": 249,
      "ĺ": 250,
      "Ļ": 251,
      "ļ": 252,
      "Ľ": 253,
      "ľ": 254,
      "Ŀ": 255,
      "ŀ": 256,
      "Ł": 257,
      "ł": 258,
      "Ń": 259,
      "Ġt": 260,
      "he": 261,
      "Ġa": 262,
      "ou": 263,
      "Ġs": 264,
      "Ġm": 265,
      "in": 266,
      "Ġw": 267,
      "re": 268,
      "ha": 269,
      "Ġthe": 270,
      "nd": 271,
      "Ġb": 272,
      "is": 273,
      "or": 274,
      "Ġf": 275,
      "er": 276,
      "ll": 277,
      "it": 278,
      "on": 279,
      "Ġd": 280,
      "Ġc": 281,
      "Ġl": 282,
      "es": 283,
      "en": 284,
      "Ġn": 285,
      "Ġy": 286,
      "ar": 287,
      "Ġth": 288,
      "Ġh": 289,
      "Ġo": 290,
      "Ġto": 291,
      "Ġyou": 292,
      "Ġp": 293,
      "hat": 294,
      "Ġhe": 295,
      "ĠI": 296,
      "ve": 297,
      "ot": 298,
      "ing": 299,
      "ow": 300,
      "Ġand": 301,
      "st": 302,
      "an": 303,
      "Ġof": 304,
      "om": 305,
      "Ġg": 306,
      "at": 307,
      "Ġbe": 308,
      "se": 309,
      "Ġmy": 310,
      "ce": 311,
      "Ġin": 312,
      "Ġha": 313,
      "le": 314,
      "ay": 315,
      "ld": 316,
      "et": 317,
      "ir": 318,
      "ut": 319,
      "ed": 320,
      "im": 321,
      "Ġme": 322,
      "ith": 323,
      "'s": 324,
      "Ġnot": 325,
      "Ġthat": 326,
      "ch": 327,
      "gh": 328,
      "Ġis": 329,
      "our": 330,
      "Ġu": 331,
      "And": 332,
      "Ġfor": 333,
      "ke": 334,
      "Ġwe": 335,
      "oo": 336,
      "ill": 337,
      "Ġe": 338,
      "Ġwith": 339,
      "her": 340,
      "Ġyour": 341,
      "Ġit": 342,
      "ad": 343,
      "ent": 344,
      "ri": 345,
      "Ġst": 346,
      "ord": 347,
      "'d": 348,
      "Ġhis": 349,
      "Ġk": 350,
      "Ġthou": 351,
      "ome": 352,
      "EN": 353,
      "ght": 354,
      "ra": 355,
      "The": 356,
      "Ġhim": 357,
      "ly": 358,
      "Ġhave": 359,
      "Ġre": 360,
      "Ġli": 361,
      "ur": 362,
      "IN": 363,
      "id": 364,
      "as": 365,
      "Ġde": 366,
      "al": 367,
      "Ġthis": 368,
      "Ġso": 369,
      "Ġas": 370,
      "Ġon": 371,
      "ro": 372,
      "hi": 373,
      "AR": 374,
      "ore": 375,
      "ould": 376,
      "ood": 377,
      "ck": 378,
      "ain": 379,
      "ver": 380,
      "est": 381,
      "ess": 382,
      "Ġdo": 383,
      "Ġthy": 384,
      "Ġwill": 385,
      "Ġsha": 386,
      "ea": 387,
      "US": 388,
      "Ġno": 389,
      "am": 390,
      "IO": 391,
      "if": 392,
      "Ġbut": 393,
      "us": 394,
      "and": 395,
      "Ġse": 396,
      "ge": 397,
      "Th": 398,
      "To": 399,
      "Ġsu": 400,
      "ion": 401,
      "Ġall": 402,
      "th": 403,
      "ake": 404,
      "Ġlo": 405,
      "ue": 406,
      "Ġher": 407,
      "ear": 408,
      "Ġan": 409,
      "ter": 410,
      "ard": 411,
      "Ġsp": 412,
      "Ġour": 413,
      "han": 414,
      "ell": 415,
      "Ġfa": 416,
      "Ġby": 417,
      "ING": 418,
      "ĠR": 419,
      "Ġshall": 420,
      "OR": 421,
      "Ġthee": 422,
      "ĠC": 423,
      "rom": 424,
      "il": 425,
      "Ġare": 426,
      "ous": 427,
      "ho": 428,
      "ul": 429,
      "ES": 430,
      "ust": 431,
      "Ġv": 432,
      "Ġne": 433,
      "That": 434,
      "Ġkn": 435,
      "ight": 436,
      "Ġwhat": 437,
      "ER": 438,
      "Ġlord": 439,
      "ct": 440,
      "ath": 441,
      "UC": 442,
      "art": 443,
      "Ġsh": 444,
      "sel": 445,
      "Ġup": 446,
      "LA": 447,
      "Ġ'": 448,
      "But": 449,
      "ant": 450,
      "ast": 451,
      "row": 452,
      "hich": 453,
      "ĠM": 454,
      "nt": 455,
      "'ll": 456,
      "ET": 457,
      "Ġman": 458,
      "one": 459,
      "KING": 460,
      "Ġgood": 461,
      "ĠE": 462,
      "Ġpr": 463,
      "ven": 464,
      "ine": 465,
      "What": 466,
      "end": 467,
      "Ġwhe": 468,
      "ic": 469,
      "Ġam": 470,
      "Ġat": 471,
      "Ġcon": 472,
      "la": 473,
      "Ġcom": 474,
      "ong": 475,
      "IC": 476,
      "Ġfrom": 477,
      "Ġthem": 478,
      "ive": 479,
      "ry": 480,
      "od": 481,
      "For": 482,
      "ble": 483,
      "em": 484,
      "ie": 485,
      "out": 486,
      "He": 487,
      "other": 488,
      "ost": 489,
      "ol": 490,
      "Ġhat": 491,
      "ĠG": 492,
      "oth": 493,
      "IUS": 494,
      "Ġmore": 495,
      "Ġwould": 496,
      "ARD": 497,
      "ond": 498,
      "Ġbl": 499,
      "Ġnow": 500,
      "Ġshe": 501,
      "Ġwas": 502,
      "Ġif": 503,
      "ep": 504,
      "Ġthere": 505,
      "Ġcan": 506,
      "Ġtheir": 507,
      "ers": 508,
      "Ġknow": 509,
      "ind": 510,
      "Ġus": 511,
      "Ġking": 512,
      "self": 513,
      "res": 514,
      "Ġbr": 515,
      "Ġca": 516,
      "Ġlove": 517,
      "ĠO": 518,
      "Ġtr": 519,
      "--": 520,
      "Ġhere": 521,
      "Ġsw": 522,
      "ĠS": 523,
      "My": 524,
      "Ġsir": 525,
      "fe": 526,
      "KE": 527,
      "Ġar": 528,
      "Ġthan": 529,
      "ather": 530,
      "Ġun": 531,
      "ate": 532,
      "pp": 533,
      "um": 534,
      "Ġor": 535,
      "Ġthey": 536,
      "Ġthen": 537,
      "Ġsay": 538,
      "Ġlet": 539,
      "LI": 540,
      "ĠB": 541,
      "un": 542,
      "LO": 543,
      "ĠV": 544,
      "Ġgo": 545,
      "As": 546,
      "ort": 547,
      "ure": 548,
      "irst": 549,
      "qu": 550,
      "ĠL": 551,
      "ink": 552,
      "Ġwor": 553,
      "ĠH": 554,
      "hy": 555,
      "ig": 556,
      "Ġmay": 557,
      "Ġwell": 558,
      "ook": 559,
      "Ġr": 560,
      "ish": 561,
      "ves": 562,
      "ame": 563,
      "Ġj": 564,
      "Ġcome": 565,
      "Whe": 566,
      "Ġgra": 567,
      "fore": 568,
      "Ġhath": 569,
      "gain": 570,
      "Ġone": 571,
      "ak": 572,
      "You": 573,
      "ci": 574,
      "ound": 575,
      "ĠA": 576,
      "reat": 577,
      "Ġmust": 578,
      "el": 579,
      "Ġho": 580,
      "OM": 581,
      "Ġwere": 582,
      "Ġpro": 583,
      "Ġsee": 584,
      "Ġmake": 585,
      "Ġsa": 586,
      "Ġlike": 587,
      "eak": 588,
      "ity": 589,
      "Ġdeath": 590,
      "Ġhad": 591,
      "DU": 592,
      "man": 593,
      "ime": 594,
      "DUKE": 595,
      "ful": 596,
      "Ġshould": 597,
      "Ġupon": 598,
      "EO": 599,
      "ng": 600,
      "ICH": 601,
      "are": 602,
      "Ġen": 603,
      "OL": 604,
      "pe": 605,
      "Ġmad": 606,
      "ence": 607,
      "ice": 608,
      "Ġtoo": 609,
      "Ġdis": 610,
      "Ġfather": 611,
      "nce": 612,
      "Ġfri": 613,
      "TIO": 614,
      "ĠP": 615,
      "Ġdid": 616,
      "ward": 617,
      "ICHARD": 618,
      "Ġout": 619,
      "de": 620,
      "entle": 621,
      "own": 622,
      "Ġhand": 623,
      "Ġspeak": 624,
      "First": 625,
      "Ġpo": 626,
      "Ġwhich": 627,
      "Ġheart": 628,
      "ose": 629,
      "ĠY": 630,
      "Ġagain": 631,
      "au": 632,
      "We": 633,
      "ec": 634,
      "With": 635,
      "Ġyet": 636,
      "If": 637,
      "ies": 638,
      "ick": 639,
      "Which": 640,
      "pt": 641,
      "In": 642,
      "Ġhon": 643,
      "Ġhea": 644,
      "Ġwho": 645,
      "uch": 646,
      "CA": 647,
      "ĠW": 648,
      "Ġsome": 649,
      "orn": 650,
      "Ġhow": 651,
      "AB": 652,
      "INC": 653,
      "oy": 654,
      "Ġwhen": 655,
      "ince": 656,
      "Thou": 657,
      "Ġal": 658,
      "ign": 659,
      "IS": 660,
      "har": 661,
      "very": 662,
      "ire": 663,
      "Ġtime": 664,
      "ance": 665,
      "'t": 666,
      "ĠII": 667,
      "ĠRICHARD": 668,
      "Ġbrother": 669,
      "ving": 670,
      "urse": 671,
      "all": 672,
      "wn": 673,
      "RY": 674,
      "Ġmine": 675,
      "UE": 676,
      "Ġson": 677,
      "Ġblood": 678,
      "Ġsuch": 679,
      "Ġoff": 680,
      "Of": 681,
      "TER": 682,
      "Ġlook": 683,
      "Ġmar": 684,
      "Ġhear": 685,
      "ither": 686,
      "Ġab": 687,
      "ĠOF": 688,
      "EL": 689,
      "Ġro": 690,
      "Ġday": 691,
      "Ġfriend": 692,
      "GLO": 693,
      "So": 694,
      "Ġword": 695,
      "ESTER": 696,
      "UCESTER": 697,
      "LAN": 698,
      "GLOUCESTER": 699,
      "No": 700,
      "Ġgive": 701,
      "Ġear": 702,
      "ise": 703,
      "ady": 704,
      "ENTIO": 705,
      "eet": 706,
      "Ġthink": 707,
      "Why": 708,
      "oul": 709,
      "Ġfo": 710,
      "BR": 711,
      "Ġlife": 712,
      "not": 713,
      "Ġey": 714,
      "This": 715,
      "ness": 716,
      "Ġex": 717,
      "ENRY": 718,
      "ORK": 719,
      "Ġthese": 720,
      "Ġdes": 721,
      "rown": 722,
      "age": 723,
      "ther": 724,
      "Ġwhere": 725,
      "Ġhonour": 726,
      "Ġpl": 727,
      "Ġgentle": 728,
      "ings": 729,
      "Ġtake": 730,
      "Ġba": 731,
      "Ġtell": 732,
      "How": 733,
      "QUE": 734,
      "QUEEN": 735,
      "ef": 736,
      "NT": 737,
      "ist": 738,
      "ĠVINC": 739,
      "ĠVINCENTIO": 740,
      "way": 741,
      "Ġmost": 742,
      "Ġart": 743,
      "Ġwar": 744,
      "Ġfl": 745,
      "Ġfear": 746,
      "Ġqu": 747,
      "Ġmuch": 748,
      "Ġri": 749,
      "urn": 750,
      "Ġlea": 751,
      "Ġmade": 752,
      "AU": 753,
      "ough": 754,
      "ĠRome": 755,
      "Where": 756,
      "ower": 757,
      "ĠGod": 758,
      "Ġla": 759,
      "Ġbre": 760,
      "ation": 761,
      "Be": 762,
      "Is": 763,
      "ag": 764,
      "li": 765,
      "Ġbet": 766,
      "ss": 767,
      "Ġheaven": 768,
      "uke": 769,
      "Ġcou": 770,
      "tis": 771,
      "Your": 772,
      "ber": 773,
      "ee": 774,
      "cc": 775,
      "io": 776,
      "tle": 777,
      "Ġtw": 778,
      "ff": 779,
      "ple": 780,
      "Ġpart": 781,
      "Ġgreat": 782,
      "Now": 783,
      "Ġmen": 784,
      "Ġhast": 785,
      "iz": 786,
      "old": 787,
      "use": 788,
      "INIUS": 789,
      "Ġfair": 790,
      "orrow": 791,
      "igh": 792,
      "que": 793,
      "Ġnew": 794,
      "Or": 795,
      "ved": 796,
      "Ġnever": 797,
      "AN": 798,
      "ROM": 799,
      "Who": 800,
      "ROMEO": 801,
      "hing": 802,
      "ment": 803,
      "ĠT": 804,
      "ears": 805,
      "Ġcannot": 806,
      "Sec": 807,
      "Ġtrue": 808,
      "Second": 809,
      "UM": 810,
      "Ġnoble": 811,
      ",--": 812,
      "Come": 813,
      "ree": 814,
      "Ġdoth": 815,
      "ave": 816,
      "Ġbeen": 817,
      "lo": 818,
      "ud": 819,
      "ide": 820,
      "Ġdead": 821,
      "It": 822,
      "MEN": 823,
      "Ġpre": 824,
      "Ġstand": 825,
      "DW": 826,
      "Ġany": 827,
      "Ġcall": 828,
      "DWARD": 829,
      "ENIUS": 830,
      "MENENIUS": 831,
      "Ġra": 832,
      "Ġad": 833,
      "Ġsc": 834,
      "per": 835,
      "Ġwr": 836,
      "Ġpray": 837,
      "Ġsweet": 838,
      "land": 839,
      "Ġsoul": 840,
      "Ġname": 841,
      "Ġper": 842,
      "Ġhead": 843,
      "dward": 844,
      "ger": 845,
      "ouse": 846,
      "aint": 847,
      "ĠD": 848,
      "There": 849,
      "Ġarm": 850,
      "Ġque": 851,
      "ull": 852,
      "Ġnor": 853,
      "Ġcomm": 854,
      "erv": 855,
      "Ġqueen": 856,
      "HA": 857,
      "Ġnight": 858,
      "Ġown": 859,
      "Ġbear": 860,
      "IOLAN": 861,
      "ORIOLAN": 862,
      "ORIOLANUS": 863,
      "CORIOLANUS": 864,
      "red": 865,
      "Ġworld": 866,
      "Ġother": 867,
      "ans": 868,
      "Ġboth": 869,
      "Ġdone": 870,
      "Ġple": 871,
      "ife": 872,
      "ilt": 873,
      "Ġma": 874,
      "Ay": 875,
      "less": 876,
      "Ġpres": 877,
      "When": 878,
      "ase": 879,
      "uck": 880,
      "Ġdown": 881,
      "Ġgrace": 882,
      "Ġke": 883,
      "Ġmo": 884,
      "ass": 885,
      "By": 886,
      "to": 887,
      "Ġway": 888,
      "Ġchi": 889,
      "JU": 890,
      "Then": 891,
      "LIET": 892,
      "JULIET": 893,
      "ps": 894,
      "ĠEdward": 895,
      "Here": 896,
      "ite": 897,
      "Ġapp": 898,
      "Nor": 899,
      "Ġvery": 900,
      "ĠLord": 901,
      "ĠYORK": 902,
      "Let": 903,
      "Ġbefore": 904,
      "Ġrem": 905,
      "Than": 906,
      "able": 907,
      "eace": 908,
      "UCH": 909,
      "Ġeyes": 910,
      "Ġbeg": 911,
      "Ġmyself": 912,
      "aster": 913,
      "Ġleave": 914,
      "itiz": 915,
      "itizen": 916,
      "LUC": 917,
      "ĠF": 918,
      "ĠK": 919,
      "ghter": 920,
      "ĠJ": 921,
      "ABEL": 922,
      "ISABEL": 923,
      "ISABELLA": 924,
      "Ġwh": 925,
      "Ġlong": 926,
      "ĠIII": 927,
      "les": 928,
      "Ġthus": 929,
      "ction": 930,
      "ĠMar": 931,
      "Ġim": 932,
      "Ġmother": 933,
      "Ġbeing": 934,
      "Ġunt": 935,
      "Ġlive": 936,
      "Ġcons": 937,
      "Ġcont": 938,
      "ks": 939,
      "the": 940,
      "Ġdie": 941,
      "Ġpe": 942,
      "Ġever": 943,
      "Ġfriends": 944,
      "Ġstr": 945,
      "Ġpoor": 946,
      "Ġchild": 947,
      "LEO": 948,
      "come": 949,
      "NTES": 950,
      "LEONTES": 951,
      "erc": 952,
      "llow": 953,
      "Ġcl": 954,
      "oud": 955,
      "Ġwom": 956,
      "Ġthought": 957,
      "ĠEDWARD": 958,
      "for": 959,
      "sw": 960,
      "wick": 961,
      "Ġcrown": 962,
      "atter": 963,
      "Ġstay": 964,
      "Ġaway": 965,
      "She": 966,
      "Ġmight": 967,
      "Ġle": 968,
      "arwick": 969,
      "Ġlie": 970,
      "ford": 971,
      "Ġwife": 972,
      "ors": 973,
      "Ġrep": 974,
      "me": 975,
      "Ġtong": 976,
      "ardon": 977,
      "DY": 978,
      "well": 979,
      "rer": 980,
      "Ġgone": 981,
      "LADY": 982,
      "Ġmany": 983,
      "akes": 984,
      "CE": 985,
      "Ġset": 986,
      "nder": 987,
      "Ġnothing": 988,
      "ENCE": 989,
      "Not": 990,
      "ile": 991,
      "Ġaf": 992,
      "VOL": 993,
      "Ġcour": 994,
      "Ġhouse": 995,
      "hard": 996,
      "ought": 997,
      "ittle": 998,
      "Ġlords": 999,
      "Ġcomes": 1000,
      "ĠWarwick": 1001,
      "His": 1002,
      "rant": 1003,
      "Ġbetter": 1004,
      "ier": 1005,
      "ison": 1006,
      "ont": 1007,
      "Ġpower": 1008,
      "ĠCla": 1009,
      "ult": 1010,
      "Well": 1011,
      "ious": 1012,
      "ork": 1013,
      "atch": 1014,
      "Ġprince": 1015,
      "HENRY": 1016,
      "Ġent": 1017,
      "int": 1018,
      "iss": 1019,
      "Ġdau": 1020,
      "Ġshow": 1021,
      "Ġagainst": 1022,
      "Ġnews": 1023,
      "Ġkeep": 1024,
      "LUCIO": 1025,
      "Pro": 1026,
      "SIC": 1027,
      "Tis": 1028,
      "ap": 1029,
      "SICINIUS": 1030,
      "Ġcha": 1031,
      "Ġlady": 1032,
      "Ġthose": 1033,
      "Ġgri": 1034,
      "Ġhar": 1035,
      "ress": 1036,
      "ichard": 1037,
      "che": 1038,
      "os": 1039,
      "Ġacc": 1040,
      "Ġlittle": 1041,
      "Ġhour": 1042,
      "Ġold": 1043,
      "Ġface": 1044,
      "Ġpla": 1045,
      "Ġrest": 1046,
      "EY": 1047,
      "ret": 1048,
      "Ġpeace": 1049,
      "ĠYork": 1050,
      "ĠRomeo": 1051,
      "ces": 1052,
      "ft": 1053,
      "we": 1054,
      "Ġsm": 1055,
      "Ġyoung": 1056,
      "ason": 1057,
      "ousin": 1058,
      "Nurse": 1059,
      "Ġpa": 1060,
      "une": 1061,
      "Ġtongue": 1062,
      "Go": 1063,
      "TH": 1064,
      "rence": 1065,
      "cious": 1066,
      "NE": 1067,
      "On": 1068,
      "ople": 1069,
      "ark": 1070,
      "ield": 1071,
      "GE": 1072,
      "ew": 1073,
      "Ġbest": 1074,
      "Ġput": 1075,
      "Ġhence": 1076,
      "LET": 1077,
      "PU": 1078,
      "RI": 1079,
      "hall": 1080,
      "Ġthr": 1081,
      "ried": 1082,
      "Ġkind": 1083,
      "Ġres": 1084,
      "alk": 1085,
      "Ġwords": 1086,
      "PULET": 1087,
      "Ġsle": 1088,
      "Ġwit": 1089,
      "Ġstill": 1090,
      "Ġdear": 1091,
      "yal": 1092,
      "enry": 1093,
      "led": 1094,
      "Ġhimself": 1095,
      "Have": 1096,
      "Nay": 1097,
      "OKE": 1098,
      "ied": 1099,
      "ru": 1100,
      "ren": 1101,
      "Ġdre": 1102,
      "INGBR": 1103,
      "ĠBOL": 1104,
      "ĠVI": 1105,
      "INGBROKE": 1106,
      "ĠBOLINGBROKE": 1107,
      "ius": 1108,
      "ird": 1109,
      "urde": 1110,
      "ĠHENRY": 1111,
      "UT": 1112,
      "ray": 1113,
      "Ġtri": 1114,
      "iness": 1115,
      "Ġhel": 1116,
      "Ġcomp": 1117,
      "Ġback": 1118,
      "ZAB": 1119,
      "ins": 1120,
      "Ġduke": 1121,
      "Ġpur": 1122,
      "ETH": 1123,
      "ĠELI": 1124,
      "Ġearth": 1125,
      "Ġpeople": 1126,
      "Ġdaughter": 1127,
      "ZABETH": 1128,
      "ĠELIZABETH": 1129,
      "cle": 1130,
      "men": 1131,
      "Ġtill": 1132,
      "Ġtra": 1133,
      "Ġtears": 1134,
      "Ġthing": 1135,
      "Ġhus": 1136,
      "Ġhigh": 1137,
      "Ġgu": 1138,
      "Ġend": 1139,
      "ĠRichard": 1140,
      "Ġcount": 1141,
      "St": 1142,
      "band": 1143,
      "fort": 1144,
      "Ġban": 1145,
      "Ġbra": 1146,
      "Thy": 1147,
      "Ġsub": 1148,
      "Ġhands": 1149,
      "lse": 1150,
      "Ġfirst": 1151,
      "ert": 1152,
      "Ġcould": 1153,
      "uth": 1154,
      "hile": 1155,
      "ESS": 1156,
      "urderer": 1157,
      "Ġhusband": 1158,
      "be": 1159,
      "eed": 1160,
      "ect": 1161,
      "ged": 1162,
      "Ġthough": 1163,
      "LAU": 1164,
      "ĠHenry": 1165,
      "Ġlaw": 1166,
      "ab": 1167,
      "Ġco": 1168,
      "Ġpri": 1169,
      "ĠIV": 1170,
      "uty": 1171,
      "ool": 1172,
      "Ġseem": 1173,
      "ĠCitizen": 1174,
      "WAR": 1175,
      "WIC": 1176,
      "Ġtre": 1177,
      "ellow": 1178,
      "Ġhope": 1179,
      "WARWIC": 1180,
      "WARWICK": 1181,
      "Ġbid": 1182,
      "INA": 1183,
      "Ġneed": 1184,
      "eech": 1185,
      "Ġunto": 1186,
      "vost": 1187,
      "Ġche": 1188,
      "Ġthine": 1189,
      "Ġjoy": 1190,
      "Ġtwo": 1191,
      "HAM": 1192,
      "Good": 1193,
      "IL": 1194,
      "Will": 1195,
      "get": 1196,
      "ix": 1197,
      "iet": 1198,
      "ty": 1199,
      "Ġsl": 1200,
      "Ġwhy": 1201,
      "Ġfind": 1202,
      "Ġcousin": 1203,
      "Ġpardon": 1204,
      "Ġelse": 1205,
      "ervant": 1206,
      "Ġbod": 1207,
      "Ġlight": 1208,
      "Ġtherefore": 1209,
      "Ġmind": 1210,
      "eth": 1211,
      "Ġmean": 1212,
      "Ġforth": 1213,
      "roke": 1214,
      "Ġfollow": 1215,
      "Ġright": 1216,
      "Sir": 1217,
      "Ġchar": 1218,
      "Ġonce": 1219,
      "BRUT": 1220,
      "BRUTUS": 1221,
      "Lord": 1222,
      "Ġwo": 1223,
      "Ġhome": 1224,
      "UCKING": 1225,
      "Ġcause": 1226,
      "Ġenem": 1227,
      "ANGE": 1228,
      "Ġimp": 1229,
      "UCKINGHAM": 1230,
      "ANGELO": 1231,
      "BUCKINGHAM": 1232,
      "Our": 1233,
      "eel": 1234,
      "ORD": 1235,
      "Ġconf": 1236,
      "ach": 1237,
      "Ġdr": 1238,
      "vere": 1239,
      "Ġbring": 1240,
      "Ġjust": 1241,
      "Ġroyal": 1242,
      "vy": 1243,
      "Ġdou": 1244,
      "Ġchan": 1245,
      "Ġdep": 1246,
      "swer": 1247,
      "Un": 1248,
      "ister": 1249,
      "Ġnat": 1250,
      "Ġnone": 1251,
      "They": 1252,
      "Ġplace": 1253,
      "MIL": 1254,
      "bt": 1255,
      "mb": 1256,
      "orse": 1257,
      "Ġmeet": 1258,
      "Ġweep": 1259,
      "hip": 1260,
      "ĠMurderer": 1261,
      "Ġsaid": 1262,
      "All": 1263,
      "Do": 1264,
      "From": 1265,
      "arry": 1266,
      "anc": 1267,
      "Ġgl": 1268,
      "ates": 1269,
      "Ġfort": 1270,
      "Ġhate": 1271,
      "ĠAn": 1272,
      "Ġwhose": 1273,
      "iol": 1274,
      "lf": 1275,
      "sand": 1276,
      "Ġbes": 1277,
      "Ġboy": 1278,
      "ary": 1279,
      "Ġhapp": 1280,
      "DUCH": 1281,
      "GR": 1282,
      "LAR": 1283,
      "Shall": 1284,
      "ĠMAR": 1285,
      "DUCHESS": 1286,
      "LUS": 1287,
      "Yet": 1288,
      "ail": 1289,
      "ory": 1290,
      "Ġstate": 1291,
      "Ġthousand": 1292,
      "ESCA": 1293,
      "selves": 1294,
      "Ġmaid": 1295,
      "Ġhelp": 1296,
      "ESCALUS": 1297,
      "GAR": 1298,
      "Ġmis": 1299,
      "esty": 1300,
      "Ġanswer": 1301,
      "Ġhold": 1302,
      "Ġwrong": 1303,
      "Ġpresent": 1304,
      "ĠMARGAR": 1305,
      "ĠMARGARET": 1306,
      "lt": 1307,
      "Ġsorrow": 1308,
      "Ġmakes": 1309,
      "Ġfellow": 1310,
      "ons": 1311,
      "ati": 1312,
      "Ġuse": 1313,
      "ERC": 1314,
      "Ġlast": 1315,
      "Ġdev": 1316,
      "ices": 1317,
      "Ġgracious": 1318,
      "Ġbu": 1319,
      "Ġere": 1320,
      "Ġkill": 1321,
      "Ġcoun": 1322,
      "ON": 1323,
      "Ġsince": 1324,
      "Ġland": 1325,
      "Ġpass": 1326,
      "ceive": 1327,
      "Ġunder": 1328,
      "asure": 1329,
      "cius": 1330,
      "Ġeye": 1331,
      "FRI": 1332,
      "Hath": 1333,
      "Ġfull": 1334,
      "Ġcame": 1335,
      "ĠEng": 1336,
      "Ġplease": 1337,
      "FRIAR": 1338,
      "ild": 1339,
      "Ġwilt": 1340,
      "its": 1341,
      "Ġless": 1342,
      "Ġgod": 1343,
      "Ġevery": 1344,
      "lack": 1345,
      "Ġgentleman": 1346,
      "ĠDuke": 1347,
      "Ġwhom": 1348,
      "Ġbody": 1349,
      "YORK": 1350,
      "day": 1351,
      "Ġfar": 1352,
      "Ġheard": 1353,
      "alt": 1354,
      "Ġshame": 1355,
      "Ġwoman": 1356,
      "ĠClarence": 1357,
      "Up": 1358,
      "irt": 1359,
      "Ġstri": 1360,
      "Ġvo": 1361,
      "ĠKing": 1362,
      "Ġafter": 1363,
      "MIO": 1364,
      "pher": 1365,
      "Ġtalk": 1366,
      "ised": 1367,
      "erving": 1368,
      "Ġhither": 1369,
      "Ġover": 1370,
      "Ġinto": 1371,
      "imes": 1372,
      "Ġstre": 1373,
      "Ġsun": 1374,
      "Ġcomfort": 1375,
      "ump": 1376,
      "Ġworth": 1377,
      "Provost": 1378,
      "Ġgrief": 1379,
      "Sh": 1380,
      "Ġfal": 1381,
      "Ġgi": 1382,
      "Ġbed": 1383,
      "Ġeven": 1384,
      "Ġreven": 1385,
      "Ġdeed": 1386,
      "Third": 1387,
      "Ġfall": 1388,
      "Ġfault": 1389,
      "Ġsword": 1390,
      "Ġabout": 1391,
      "LAND": 1392,
      "An": 1393,
      "God": 1394,
      "ock": 1395,
      "unt": 1396,
      "Ġbri": 1397,
      "omet": 1398,
      "gelo": 1399,
      "Ġholy": 1400,
      "Ġprove": 1401,
      "Ġarms": 1402,
      "IA": 1403,
      "PET": 1404,
      "ling": 1405,
      "morrow": 1406,
      "Ġsound": 1407,
      "ition": 1408,
      "Ġgr": 1409,
      "Ġbanish": 1410,
      "Cl": 1411,
      "iv": 1412,
      "ject": 1413,
      "ove": 1414,
      "ĠWhat": 1415,
      "Ġta": 1416,
      "Ġsen": 1417,
      "ute": 1418,
      "ENES": 1419,
      "ĠMarcius": 1420,
      "BA": 1421,
      "NOR": 1422,
      "Ġturn": 1423,
      "ount": 1424,
      "Ġfight": 1425,
      "Ġfool": 1426,
      "Ġinst": 1427,
      "Ġsovere": 1428,
      "Ġdost": 1429,
      "Ġgrave": 1430,
      "CAMIL": 1431,
      "Ġcourt": 1432,
      "Ġsleep": 1433,
      "Ġtrait": 1434,
      "ĠAngelo": 1435,
      "CAMILLO": 1436,
      "cl": 1437,
      "Ġmatter": 1438,
      "Ġdra": 1439,
      "ows": 1440,
      "ator": 1441,
      "ury": 1442,
      "ĠServing": 1443,
      "ĠServingman": 1444,
      "Even": 1445,
      "MERC": 1446,
      "UTIO": 1447,
      "by": 1448,
      "Ġmerc": 1449,
      "Ġch": 1450,
      "Ġhum": 1451,
      "Ġhas": 1452,
      "Ġreason": 1453,
      "Ġtruth": 1454,
      "MERCUTIO": 1455,
      "MAR": 1456,
      "dd": 1457,
      "der": 1458,
      "ran": 1459,
      "Ġbus": 1460,
      "Ġwel": 1461,
      "Ġcountry": 1462,
      "Are": 1463,
      "BEN": 1464,
      "COM": 1465,
      "pen": 1466,
      "tw": 1467,
      "Ġwant": 1468,
      "ener": 1469,
      "ade": 1470,
      "Ġret": 1471,
      "Ġanother": 1472,
      "hold": 1473,
      "Ġatt": 1474,
      "VOLIO": 1475,
      "Ġdream": 1476,
      "Ġfortune": 1477,
      "Upon": 1478,
      "pherd": 1479,
      "BENVOLIO": 1480,
      "COMINIUS": 1481,
      ".'": 1482,
      "CUS": 1483,
      "TOL": 1484,
      "YCUS": 1485,
      "Ġsent": 1486,
      "Ġwish": 1487,
      "fect": 1488,
      "AUTOL": 1489,
      "Ġbreath": 1490,
      "AUTOLYCUS": 1491,
      "rance": 1492,
      "Ġprom": 1493,
      "Ġstra": 1494,
      "Ġsend": 1495,
      "Ġthank": 1496,
      "Ġrather": 1497,
      "Ġdisc": 1498,
      "deed": 1499,
      "Ġplay": 1500,
      "HAS": 1501,
      "Clown": 1502,
      "More": 1503,
      "air": 1504,
      "Ġser": 1505,
      "Ġpati": 1506,
      "Ġbel": 1507,
      "Ġsold": 1508,
      "Ġuncle": 1509,
      "gainst": 1510,
      "pect": 1511,
      "ause": 1512,
      "Ġdoubt": 1513,
      "LARENCE": 1514,
      "Ġfalse": 1515,
      "CLARENCE": 1516,
      "LE": 1517,
      "ian": 1518,
      "Ġmist": 1519,
      "enger": 1520,
      "Ġpity": 1521,
      "Ġlies": 1522,
      "Ġfare": 1523,
      "Ġvirt": 1524,
      "Ġhappy": 1525,
      "OLI": 1526,
      "POLI": 1527,
      "XENES": 1528,
      "ily": 1529,
      "Ġindeed": 1530,
      "eter": 1531,
      "illain": 1532,
      "ents": 1533,
      "ester": 1534,
      "essenger": 1535,
      "ieve": 1536,
      "ounds": 1537,
      "Ġbreak": 1538,
      "Ġsovereign": 1539,
      "POLIXENES": 1540,
      "At": 1541,
      "RENCE": 1542,
      "balt": 1543,
      "of": 1544,
      "ybalt": 1545,
      "ĠLAU": 1546,
      "Ġdan": 1547,
      "Ġcur": 1548,
      "Ġproud": 1549,
      "Ġru": 1550,
      "Were": 1551,
      "Ġadv": 1552,
      "ĠLAURENCE": 1553,
      "LINA": 1554,
      "PAU": 1555,
      "broke": 1556,
      "Ġi": 1557,
      "Ġsight": 1558,
      "Ġcra": 1559,
      "Ġonly": 1560,
      "Ġsec": 1561,
      "Ġenough": 1562,
      "GRE": 1563,
      "PAULINA": 1564,
      "CLI": 1565,
      "FF": 1566,
      "POM": 1567,
      "RUCH": 1568,
      "Would": 1569,
      "ĠNor": 1570,
      "ham": 1571,
      "Ġlay": 1572,
      "Ġint": 1573,
      "uliet": 1574,
      "Ġprison": 1575,
      "Ġswear": 1576,
      "Ġnature": 1577,
      "Ġbeseech": 1578,
      "PETRUCH": 1579,
      "CLIFF": 1580,
      "POMP": 1581,
      "PETRUCHIO": 1582,
      "Take": 1583,
      "eal": 1584,
      "ia": 1585,
      "hed": 1586,
      "Ġsin": 1587,
      "Ġsomet": 1588,
      "Ġyield": 1589,
      "Ġoath": 1590,
      "Ġhang": 1591,
      "Ġwelcome": 1592,
      ",'": 1593,
      "Ah": 1594,
      "up": 1595,
      "Ġtend": 1596,
      "ouch": 1597,
      "hal": 1598,
      "Ġbo": 1599,
      "itt": 1600,
      "Ġden": 1601,
      "ars": 1602,
      "Ġpers": 1603,
      "sed": 1604,
      "Ġmeans": 1605,
      "Ġlives": 1606,
      "Ġdef": 1607,
      "vers": 1608,
      "Ġspo": 1609,
      "Ġcare": 1610,
      "CAPULET": 1611,
      "Ġbloody": 1612,
      "Ġgods": 1613,
      "Ġbusiness": 1614,
      "POMPEY": 1615,
      "BER": 1616,
      "NIA": 1617,
      "pose": 1618,
      "ues": 1619,
      "Ġsla": 1620,
      "Ġyears": 1621,
      "any": 1622,
      "Ġget": 1623,
      "Ġbea": 1624,
      "ced": 1625,
      "Ġyourself": 1626,
      "usic": 1627,
      "Ġlooks": 1628,
      "UMNIA": 1629,
      "VOLUMNIA": 1630,
      "ches": 1631,
      "Ġmercy": 1632,
      "Ġwind": 1633,
      "Ġfree": 1634,
      "ery": 1635,
      "Ġlam": 1636,
      "Ġshalt": 1637,
      "ifford": 1638,
      "ĠCl": 1639,
      "Ġsave": 1640,
      "Ġmadam": 1641,
      "UMBER": 1642,
      "Ġmaj": 1643,
      "ĠJuliet": 1644,
      "Ġstran": 1645,
      "THUMBER": 1646,
      "ertain": 1647,
      "ĠEngland": 1648,
      "NORTHUMBER": 1649,
      "NORTHUMBERLAND": 1650,
      "BY": 1651,
      "Say": 1652,
      "ike": 1653,
      "ken": 1654,
      "Ġserv": 1655,
      "Ġwhile": 1656,
      "Ġnurse": 1657,
      "Ġthree": 1658,
      "ingbroke": 1659,
      "Ġgre": 1660,
      "Ġgener": 1661,
      "Ġyours": 1662,
      "Ġfaith": 1663,
      "olingbroke": 1664,
      "like": 1665,
      "TA": 1666,
      "dom": 1667,
      "sh": 1668,
      "Ġsister": 1669,
      "Ġmaster": 1670,
      "Ġcr": 1671,
      "Ġcond": 1672,
      "Ġcity": 1673,
      "Ġlate": 1674,
      "Ġwithin": 1675,
      "Ġspir": 1676,
      "Ġvillain": 1677,
      "ĠBolingbroke": 1678,
      "unes": 1679,
      "Ġcommand": 1680,
      "Ġmajesty": 1681,
      "ID": 1682,
      "NNE": 1683,
      "ict": 1684,
      "mer": 1685,
      "Ġwin": 1686,
      "Ġfoul": 1687,
      "Ġbeat": 1688,
      "Ġkiss": 1689,
      "ift": 1690,
      "Ġseen": 1691,
      "ĠANNE": 1692,
      "eft": 1693,
      "Therefore": 1694,
      "ĠClifford": 1695,
      "Fare": 1696,
      "Her": 1697,
      "PR": 1698,
      "Was": 1699,
      "bs": 1700,
      "ms": 1701,
      "Ġtem": 1702,
      "Ġaff": 1703,
      "Ġborn": 1704,
      "ens": 1705,
      "Ġval": 1706,
      "ĠMont": 1707,
      "INCE": 1708,
      "Ġthrough": 1709,
      "gether": 1710,
      "Ġwoe": 1711,
      "Ġtraitor": 1712,
      "Ġfarewell": 1713,
      "Ġdanger": 1714,
      "Ġtender": 1715,
      "PRINCE": 1716,
      "Al": 1717,
      "Look": 1718,
      "outh": 1719,
      "oriol": 1720,
      "Ġthings": 1721,
      "Ġgrow": 1722,
      "Ġass": 1723,
      "Ġsaw": 1724,
      "Ġheavy": 1725,
      "Though": 1726,
      "Ġcommon": 1727,
      "Ġremem": 1728,
      "Ġchildren": 1729,
      "Ġliege": 1730,
      "Ġsubject": 1731,
      "Had": 1732,
      "TING": 1733,
      "ior": 1734,
      "Ġrec": 1735,
      "Ġdeep": 1736,
      "Ġask": 1737,
      "ross": 1738,
      "Ġdisp": 1739,
      "Ġmark": 1740,
      "Whose": 1741,
      "TINGS": 1742,
      "APULET": 1743,
      "bl": 1744,
      "hes": 1745,
      "Ġsad": 1746,
      "rem": 1747,
      "ceed": 1748,
      "Ġwithout": 1749,
      "ĠCAPULET": 1750,
      "laim": 1751,
      "Ġfriar": 1752,
      "Should": 1753,
      "HASTINGS": 1754,
      "ĠMontag": 1755,
      "Give": 1756,
      "ning": 1757,
      "Ġmer": 1758,
      "Ġmon": 1759,
      "Ġnear": 1760,
      "enty": 1761,
      "Ġrequ": 1762,
      "ides": 1763,
      "Ġsoon": 1764,
      "ains": 1765,
      "Ġdays": 1766,
      "Ġdeser": 1767,
      "Ġpluck": 1768,
      "Ġhaste": 1769,
      "Ġcontent": 1770,
      "Did": 1771,
      "HOR": 1772,
      "May": 1773,
      "TR": 1774,
      "pl": 1775,
      "xt": 1776,
      "Ġtimes": 1777,
      "Ġmet": 1778,
      "Ġmur": 1779,
      "Ġleft": 1780,
      "enator": 1781,
      "Ġtold": 1782,
      "ets": 1783,
      "Ġloss": 1784,
      "ters": 1785,
      "ĠSenator": 1786,
      "Ġgold": 1787,
      "Ġdesire": 1788,
      "form": 1789,
      "Ġjustice": 1790,
      "Ġground": 1791,
      "Ġreturn": 1792,
      "FID": 1793,
      "RICHARD": 1794,
      "Wh": 1795,
      "bed": 1796,
      "gs": 1797,
      "ges": 1798,
      "oint": 1799,
      "vour": 1800,
      "wd": 1801,
      "Ġill": 1802,
      "Ġaw": 1803,
      "Ġsit": 1804,
      "Ġfire": 1805,
      "Ġheir": 1806,
      "These": 1807,
      "amill": 1808,
      "Ġlose": 1809,
      "onder": 1810,
      "umber": 1811,
      "AUFID": 1812,
      "udio": 1813,
      "Ġslain": 1814,
      "Ġrevenge": 1815,
      "Ġstraight": 1816,
      "AUFIDIUS": 1817,
      "FL": 1818,
      "IZ": 1819,
      "VER": 1820,
      "so": 1821,
      "Ġsea": 1822,
      "rel": 1823,
      "Ġbat": 1824,
      "Ġcho": 1825,
      "Ġhell": 1826,
      "Ġsupp": 1827,
      "Ġspeed": 1828,
      "ORIZ": 1829,
      "ERLE": 1830,
      "ĠAUM": 1831,
      "Ġwarrant": 1832,
      "ĠTybalt": 1833,
      "ĠFrance": 1834,
      "Ġenemy": 1835,
      "Ġstrange": 1836,
      "FLORIZ": 1837,
      "ĠAUMERLE": 1838,
      "FLORIZEL": 1839,
      "Pray": 1840,
      "cher": 1841,
      "ever": 1842,
      "ial": 1843,
      "lou": 1844,
      "Ġair": 1845,
      "Ġbos": 1846,
      "Ġcold": 1847,
      "oman": 1848,
      "Ġdeli": 1849,
      "alm": 1850,
      "ush": 1851,
      "Ġsuff": 1852,
      "Ġalone": 1853,
      "Ġreport": 1854,
      "amillo": 1855,
      "louc": 1856,
      "Ġbosom": 1857,
      "Can": 1858,
      "OW": 1859,
      "bour": 1860,
      "no": 1861,
      "ring": 1862,
      "ten": 1863,
      "Ġsil": 1864,
      "Ġmorn": 1865,
      "Ġwat": 1866,
      "Ġwoo": 1867,
      "ĠIs": 1868,
      "Ġitself": 1869,
      "Ġthyself": 1870,
      "Ġsuit": 1871,
      "ĠRi": 1872,
      "Ġsays": 1873,
      "entleman": 1874,
      "Ġposs": 1875,
      "Ġpoint": 1876,
      "Ġears": 1877,
      "Ġfoot": 1878,
      "Ġfearful": 1879,
      "ixt": 1880,
      "Ġenemies": 1881,
      "Ġcounsel": 1882,
      "Ġvoices": 1883,
      "Ġgeneral": 1884,
      "Farewell": 1885,
      "Against": 1886,
      "Some": 1887,
      "Tell": 1888,
      "Ġter": 1889,
      "ined": 1890,
      "Ġbold": 1891,
      "Ġfly": 1892,
      "Ġfound": 1893,
      "ones": 1894,
      "Ġdare": 1895,
      "Ġcurse": 1896,
      "Ġlear": 1897,
      "Ġye": 1898,
      "Ġtogether": 1899,
      "Ġpost": 1900,
      "ingham": 1901,
      "Ġgrant": 1902,
      "let": 1903,
      "Ġsure": 1904,
      "Ġlost": 1905,
      "aunt": 1906,
      "Ġpurpose": 1907,
      "Ġspirit": 1908,
      "ĠMontague": 1909,
      "Bec": 1910,
      "HER": 1911,
      "gu": 1912,
      "iers": 1913,
      "sue": 1914,
      "ship": 1915,
      "ĠHere": 1916,
      "Ġage": 1917,
      "ĠCoriol": 1918,
      "Ġvis": 1919,
      "Ġshort": 1920,
      "olk": 1921,
      "Ġjud": 1922,
      "uckingham": 1923,
      "Ġstrong": 1924,
      "ĠClaudio": 1925,
      "Ġhours": 1926,
      "were": 1927,
      "One": 1928,
      "Ġperson": 1929,
      "loucester": 1930,
      "Like": 1931,
      "OP": 1932,
      "Sp": 1933,
      "Tw": 1934,
      "ses": 1935,
      "rest": 1936,
      "Ġfeel": 1937,
      "Ġpar": 1938,
      "Ġpast": 1939,
      "Ġbehold": 1940,
      "ution": 1941,
      "Ġdoes": 1942,
      "ĠCome": 1943,
      "Ġtrust": 1944,
      "ortal": 1945,
      "Ġquick": 1946,
      "Ġtwenty": 1947,
      "Ġconfess": 1948,
      "Ġdevil": 1949,
      "Ġbelieve": 1950,
      "Ġbeauty": 1951,
      "Com": 1952,
      "DIO": 1953,
      "Ha": 1954,
      "com": 1955,
      "folk": 1956,
      "ner": 1957,
      "Ġcry": 1958,
      "cept": 1959,
      "Ġinf": 1960,
      "Ġwear": 1961,
      "ĠBuckingham": 1962,
      "Ġprof": 1963,
      "Ġmarried": 1964,
      "Ġdesp": 1965,
      "Ġmock": 1966,
      "Ġthoughts": 1967,
      "Shepherd": 1968,
      "Ġstreng": 1969,
      "gue": 1970,
      "pare": 1971,
      "Ġtit": 1972,
      "Ġfore": 1973,
      "Ġlad": 1974,
      "Ġyouth": 1975,
      "Ġfast": 1976,
      "Ġrun": 1977,
      "Ġexec": 1978,
      "Ġquar": 1979,
      "Ġstands": 1980,
      "Ġhard": 1981,
      "Ġcharge": 1982,
      "Ġstrike": 1983,
      "MIONE": 1984,
      "Ġworthy": 1985,
      "CLIFFORD": 1986,
      "Ġservice": 1987,
      "Ġremember": 1988,
      "Ġmurder": 1989,
      "HERMIONE": 1990,
      "EDWARD": 1991,
      "cess": 1992,
      "night": 1993,
      "sc": 1994,
      "vo": 1995,
      "Ġord": 1996,
      "Ġside": 1997,
      "Ġwret": 1998,
      "Ġdiv": 1999,
      "Thus": 2000,
      "ols": 2001,
      "ĠGloucester": 2002,
      "Ġknows": 2003,
      "Ġbrought": 2004,
      "ured": 2005,
      "ĠLanc": 2006,
      "inks": 2007,
      "aking": 2008,
      "itizens": 2009,
      "Ġclose": 2010,
      "Ġguilt": 2011,
      "Ġchee": 2012,
      "ĠLancaster": 2013,
      "!'": 2014,
      "CIUS": 2015,
      "Most": 2016,
      "eep": 2017,
      "ught": 2018,
      "Ġsing": 2019,
      "Ġmin": 2020,
      "Ġbreat": 2021,
      "Ġfield": 2022,
      "Ġopen": 2023,
      "Ġhalf": 2024,
      "adam": 2025,
      "Ġread": 2026,
      "Ġknown": 2027,
      "Ġmarry": 2028,
      "Ġheavens": 2029,
      "Ġbegg": 2030,
      "Ġlead": 2031,
      "Ġenter": 2032,
      "Ġpale": 2033,
      "Ġattend": 2034,
      "Ġsomething": 2035,
      "CLAU": 2036,
      "LORD": 2037,
      "Messenger": 2038,
      "vent": 2039,
      "Ġten": 2040,
      "Ġfit": 2041,
      "Ġcar": 2042,
      "Ġhorse": 2043,
      "Ġtoward": 2044,
      "chm": 2045,
      "oop": 2046,
      "Ġem": 2047,
      "ĠCap": 2048,
      "astings": 2049,
      "ĠGentleman": 2050,
      "Ġcanst": 2051,
      "Ġdist": 2052,
      "Ġsouls": 2053,
      "Ġcloud": 2054,
      "Ġcourse": 2055,
      "Ġpatience": 2056,
      "ĠHereford": 2057,
      "CLAUDIO": 2058,
      "Away": 2059,
      "LT": 2060,
      "See": 2061,
      "hood": 2062,
      "po": 2063,
      "und": 2064,
      "ĠBut": 2065,
      "Ġty": 2066,
      "Ġtouch": 2067,
      "Ġsame": 2068,
      "Ġbound": 2069,
      "Ġblack": 2070,
      "Ġfur": 2071,
      "Ġcor": 2072,
      "oward": 2073,
      "Ġbecome": 2074,
      "Ġinc": 2075,
      "race": 2076,
      "Ġlips": 2077,
      "Ġdel": 2078,
      "Ġsum": 2079,
      "Ġwork": 2080,
      "ĠHastings": 2081,
      "Ġseek": 2082,
      "Ġpret": 2083,
      "Ġmove": 2084,
      "Ġentreat": 2085,
      "Ġgrie": 2086,
      "Ġharm": 2087,
      "BALT": 2088,
      "MARCIUS": 2089,
      "ĠNorfolk": 2090,
      "Ġlearn": 2091,
      "Marry": 2092,
      "Till": 2093,
      "TEN": 2094,
      "bly": 2095,
      "Ġmouth": 2096,
      "Ġwounds": 2097,
      "Ġissue": 2098,
      "Ġstir": 2099,
      "ĠCamillo": 2100,
      "Ġthemselves": 2101,
      "unk": 2102,
      "Ġhearts": 2103,
      "Ġabs": 2104,
      "ween": 2105,
      "Ġresol": 2106,
      "Ġgiven": 2107,
      "Ġdraw": 2108,
      "HORTEN": 2109,
      "Ġdeliver": 2110,
      "Ġstrength": 2111,
      "Ġtitle": 2112,
      "chmond": 2113,
      "HORTENS": 2114,
      "IAN": 2115,
      "Re": 2116,
      "ack": 2117,
      "bunes": 2118,
      "fid": 2119,
      "twere": 2120,
      "with": 2121,
      "ĠTh": 2122,
      "Ġact": 2123,
      "Ġsat": 2124,
      "Ġwa": 2125,
      "Ġwis": 2126,
      "Ġwid": 2127,
      "Ġwhi": 2128,
      "ready": 2129,
      "Ġbit": 2130,
      "ished": 2131,
      "Ġdish": 2132,
      "oof": 2133,
      "Ġeither": 2134,
      "Ġeach": 2135,
      "riage": 2136,
      "urp": 2137,
      "Ġloving": 2138,
      "Ġnext": 2139,
      "rows": 2140,
      "Ġhonest": 2141,
      "Ġalong": 2142,
      "Ġplain": 2143,
      "Ġcham": 2144,
      "Ġhighness": 2145,
      "Ġbuy": 2146,
      "twas": 2147,
      "Ġserve": 2148,
      "Ġmistress": 2149,
      "Ġspoke": 2150,
      "Alas": 2151,
      "Ġbattle": 2152,
      "Ġsuffer": 2153,
      "Ġmorning": 2154,
      "HORTENSIO": 2155,
      "ATH": 2156,
      "KATH": 2157,
      "Servant": 2158,
      "Unt": 2159,
      "az": 2160,
      "cent": 2161,
      "most": 2162,
      "su": 2163,
      "Ġsk": 2164,
      "Ġmusic": 2165,
      "Ġburn": 2166,
      "Ġfet": 2167,
      "Ġfour": 2168,
      "lly": 2169,
      "Ġduty": 2170,
      "Ġcast": 2171,
      "arl": 2172,
      "Ġpra": 2173,
      "Ġsto": 2174,
      "alth": 2175,
      "ARINA": 2176,
      "Ġknew": 2177,
      "ondon": 2178,
      "ĠServant": 2179,
      "ĠLondon": 2180,
      "Ġsac": 2181,
      "ĠPom": 2182,
      "Ġalready": 2183,
      "ignior": 2184,
      "ally": 2185,
      "Ġfoe": 2186,
      "Ġbreast": 2187,
      "Before": 2188,
      "ments": 2189,
      "ched": 2190,
      "Ġbrave": 2191,
      "ceived": 2192,
      "dden": 2193,
      "GREMIO": 2194,
      "KATHARINA": 2195,
      "IR": 2196,
      "LY": 2197,
      "PAR": 2198,
      "Tr": 2199,
      "chan": 2200,
      "ible": 2201,
      "now": 2202,
      "ufid": 2203,
      "Ġsake": 2204,
      "onour": 2205,
      "Ġpay": 2206,
      "owers": 2207,
      "stand": 2208,
      "anus": 2209,
      "Ġgates": 2210,
      "Ġforb": 2211,
      "Ġforg": 2212,
      "ries": 2213,
      "Ġready": 2214,
      "Ġvict": 2215,
      "fection": 2216,
      "Ġthanks": 2217,
      "Ġpoison": 2218,
      "Being": 2219,
      "Ġconsul": 2220,
      "ethinks": 2221,
      "Ġchange": 2222,
      "Ġsoldiers": 2223,
      "Because": 2224,
      "PARIS": 2225,
      "ufidius": 2226,
      "BOW": 2227,
      "Madam": 2228,
      "SA": 2229,
      "TES": 2230,
      "kes": 2231,
      "lst": 2232,
      "ne": 2233,
      "rist": 2234,
      "ting": 2235,
      "hee": 2236,
      "Ġsick": 2237,
      "ina": 2238,
      "Ġwast": 2239,
      "esh": 2240,
      "aris": 2241,
      "otion": 2242,
      "Ġgot": 2243,
      "Ġemb": 2244,
      "Their": 2245,
      "Ġreb": 2246,
      "Ġred": 2247,
      "Ġself": 2248,
      "Ġsucc": 2249,
      "Ġven": 2250,
      "Ġsworn": 2251,
      "els": 2252,
      "elcome": 2253,
      "CATES": 2254,
      "Ġmarriage": 2255,
      "ELBOW": 2256,
      "Ġgentlemen": 2257,
      "ANIO": 2258,
      "Ġwomen": 2259,
      "Ġthrone": 2260,
      "Unless": 2261,
      "Ġlament": 2262,
      "TRANIO": 2263,
      "ĠRichmond": 2264,
      "Ġquarrel": 2265,
      "CATESBY": 2266,
      "Rome": 2267,
      "Since": 2268,
      "ale": 2269,
      "cy": 2270,
      "claim": 2271,
      "gg": 2272,
      "ires": 2273,
      "ures": 2274,
      "you": 2275,
      "ithee": 2276,
      "ona": 2277,
      "Ġdam": 2278,
      "Ġhaving": 2279,
      "Ġforget": 2280,
      "oose": 2281,
      "Ġev": 2282,
      "rah": 2283,
      "Ġsoft": 2284,
      "each": 2285,
      "Ġseat": 2286,
      "ils": 2287,
      "Ġviol": 2288,
      "Ġprop": 2289,
      "Ġtook": 2290,
      "Ġsons": 2291,
      "ĠTower": 2292,
      "Ġpleasure": 2293,
      "Ġpresence": 2294,
      "Ġappro": 2295,
      "Ġcompany": 2296,
      "Ġtale": 2297,
      "Ġdangerous": 2298,
      "ĠIsab": 2299,
      "Ġfurther": 2300,
      "HN": 2301,
      "Lest": 2302,
      "OHN": 2303,
      "TY": 2304,
      "Welcome": 2305,
      "fter": 2306,
      "ives": 2307,
      "ns": 2308,
      "Ġve": 2309,
      "Ġmortal": 2310,
      "isf": 2311,
      "orge": 2312,
      "Ġfrown": 2313,
      "Ġdark": 2314,
      "Ġcut": 2315,
      "ench": 2316,
      "Ġthri": 2317,
      "irth": 2318,
      "Ġreg": 2319,
      "east": 2320,
      "Ġloves": 2321,
      "Ġfavour": 2322,
      "ĠCh": 2323,
      "Ġworse": 2324,
      "Ġjest": 2325,
      "ĠAufidius": 2326,
      "ĠParis": 2327,
      "Ġexp": 2328,
      "Ġflatter": 2329,
      "Ġrich": 2330,
      "Ġprayers": 2331,
      "force": 2332,
      "MARIAN": 2333,
      "Ġvirtue": 2334,
      "VERS": 2335,
      "Ġpossess": 2336,
      "Ġorder": 2337,
      "MARIANA": 2338,
      "Call": 2339,
      "Such": 2340,
      "SON": 2341,
      "gry": 2342,
      "king": 2343,
      "mand": 2344,
      "over": 2345,
      "pes": 2346,
      "rum": 2347,
      "uous": 2348,
      "ĠHe": 2349,
      "oun": 2350,
      "Ġsign": 2351,
      "Ġsaint": 2352,
      "Ġwall": 2353,
      "Ġwise": 2354,
      "Ġbad": 2355,
      "Ġcoward": 2356,
      "Ġhur": 2357,
      "Ġgro": 2358,
      "Ġgave": 2359,
      "Ġliving": 2360,
      "Ġsudden": 2361,
      "ions": 2362,
      "ends": 2363,
      "empt": 2364,
      "Ġbless": 2365,
      "ĠVols": 2366,
      "cient": 2367,
      "BRA": 2368,
      "Ġbetween": 2369,
      "used": 2370,
      "Ġheads": 2371,
      "Ġappear": 2372,
      "RIVERS": 2373,
      "Ġpriv": 2374,
      "Ġrequest": 2375,
      "Speak": 2376,
      "Romeo": 2377,
      "Both": 2378,
      "DI": 2379,
      "Must": 2380,
      "PER": 2381,
      "Peace": 2382,
      "Sw": 2383,
      "but": 2384,
      "ees": 2385,
      "gare": 2386,
      "oin": 2387,
      "xford": 2388,
      "ĠKING": 2389,
      "ĠYou": 2390,
      "hem": 2391,
      "Ġble": 2392,
      "Ġfeast": 2393,
      "Ġdire": 2394,
      "Ġcle": 2395,
      "Ġtown": 2396,
      "Ġinter": 2397,
      "irm": 2398,
      "Ġweak": 2399,
      "right": 2400,
      "Ġkins": 2401,
      "Ġliber": 2402,
      "als": 2403,
      "cks": 2404,
      "iff": 2405,
      "thy": 2406,
      "Ġvow": 2407,
      "icer": 2408,
      "emn": 2409,
      "Ġkings": 2410,
      "Ġkingdom": 2411,
      "Ġgoes": 2412,
      "osed": 2413,
      "Ġext": 2414,
      "Ġbawd": 2415,
      "Ġwars": 2416,
      "Ġrage": 2417,
      "Ġscorn": 2418,
      "Ġbegin": 2419,
      "Ġmighty": 2420,
      "Ġwithal": 2421,
      "Ġdread": 2422,
      "Ġdepart": 2423,
      "Ġdefend": 2424,
      "Ġsatisf": 2425,
      "Ġbitter": 2426,
      "Ġchamber": 2427,
      "Ġfetch": 2428,
      "DITA": 2429,
      "PERDITA": 2430,
      "garet": 2431,
      "AG": 2432,
      "Ab": 2433,
      "Make": 2434,
      "ONT": 2435,
      "SLY": 2436,
      "Yes": 2437,
      "eorge": 2438,
      "iant": 2439,
      "she": 2440,
      "te": 2441,
      "ua": 2442,
      "ura": 2443,
      "ughter": 2444,
      "Ġid": 2445,
      "Ġest": 2446,
      "Ġac": 2447,
      "Ġsho": 2448,
      "Ġsland": 2449,
      "Ġwatch": 2450,
      "Ġbar": 2451,
      "Ġbur": 2452,
      "Ġda": 2453,
      "Ġlim": 2454,
      "Ġpu": 2455,
      "Ġpie": 2456,
      "ley": 2457,
      "ided": 2458,
      "Ġancient": 2459,
      "antag": 2460,
      "Ġprot": 2461,
      "ĠGeorge": 2462,
      "umb": 2463,
      "ĠLady": 2464,
      "Ġenc": 2465,
      "ĠPl": 2466,
      "Ġoffice": 2467,
      "Ġprepare": 2468,
      "Ġscar": 2469,
      "Ġsmall": 2470,
      "Ġvoice": 2471,
      "Ġdeeds": 2472,
      "Whom": 2473,
      "Ġwidow": 2474,
      "Ġsuccess": 2475,
      "AGUE": 2476,
      "ONTAGUE": 2477,
      "Ar": 2478,
      "Hold": 2479,
      "ILI": 2480,
      "joy": 2481,
      "lish": 2482,
      "nown": 2483,
      "that": 2484,
      "Ġag": 2485,
      "Ġaction": 2486,
      "Ġwed": 2487,
      "Ġbook": 2488,
      "Ġbeast": 2489,
      "Ġnoise": 2490,
      "thumber": 2491,
      "Ġneither": 2492,
      "Ġknee": 2493,
      "antage": 2494,
      "olour": 2495,
      "pey": 2496,
      "ĠMargaret": 2497,
      "Ġconsent": 2498,
      "Ġprincely": 2499,
      "Ġrespect": 2500,
      "Ġtriump": 2501,
      "Ġtribunes": 2502,
      "Ġlawful": 2503,
      "Ġseems": 2504,
      "Ġcheer": 2505,
      "Ġbanishment": 2506,
      "ranio": 2507,
      "Ġpromise": 2508,
      "Ġsecret": 2509,
      "Ġdeny": 2510,
      "Ġslaughter": 2511,
      "Ġvaliant": 2512,
      "Ġmerry": 2513,
      "ILIA": 2514,
      "thumberland": 2515,
      "JOHN": 2516,
      "MONTAGUE": 2517,
      "REY": 2518,
      "ace": 2519,
      "ging": 2520,
      "hind": 2521,
      "ls": 2522,
      "ĠN": 2523,
      "ĠThe": 2524,
      "Ġsigh": 2525,
      "Ġmal": 2526,
      "Ġwonder": 2527,
      "isure": 2528,
      "Ġfill": 2529,
      "Ġfam": 2530,
      "Ġfond": 2531,
      "Ġcreat": 2532,
      "Ġcross": 2533,
      "arn": 2534,
      "Ġthither": 2535,
      "Ġhot": 2536,
      "Ġpit": 2537,
      "Ġund": 2538,
      "raw": 2539,
      "Ġdoom": 2540,
      "Ġspeech": 2541,
      "astard": 2542,
      "oney": 2543,
      "Ġwash": 2544,
      "ĠOxford": 2545,
      "Ġtrou": 2546,
      "Ġtrump": 2547,
      "aked": 2548,
      "cience": 2549,
      "Ġflesh": 2550,
      "ainted": 2551,
      "Ġweeping": 2552,
      "Ġbrief": 2553,
      "Ġpatient": 2554,
      "Ġdispatch": 2555,
      "ĠCoriolanus": 2556,
      "Ġvisit": 2557,
      "Ġbreathe": 2558,
      "ĠChrist": 2559,
      "Ere": 2560,
      "PT": 2561,
      "Whi": 2562,
      "Yea": 2563,
      "ffect": 2564,
      "house": 2565,
      "iest": 2566,
      "oor": 2567,
      "ohem": 2568,
      "vest": 2569,
      "Ġign": 2570,
      "Ġtor": 2571,
      "Ġtear": 2572,
      "Ġservant": 2573,
      "ines": 2574,
      "rey": 2575,
      "Ġben": 2576,
      "Ġfra": 2577,
      "Ġdro": 2578,
      "Ġthrow": 2579,
      "Ġpen": 2580,
      "ats": 2581,
      "Ġinj": 2582,
      "Ġeas": 2583,
      "Ġeffect": 2584,
      "ustom": 2585,
      "ĠMerc": 2586,
      "ETER": 2587,
      "Ġwhence": 2588,
      "Ġcoming": 2589,
      "Ġusurp": 2590,
      "Ġcase": 2591,
      "Ġthence": 2592,
      "Ġrough": 2593,
      "aken": 2594,
      "Ġproceed": 2595,
      "Ġsafe": 2596,
      "ISTA": 2597,
      "Ġoffence": 2598,
      "Ġmarch": 2599,
      "Ġwrit": 2600,
      "ully": 2601,
      "Ġleisure": 2602,
      "Ġcompl": 2603,
      "BAPT": 2604,
      "Ġsoldier": 2605,
      "itted": 2606,
      "BAPTISTA": 2607,
      "aul": 2608,
      "eem": 2609,
      "ror": 2610,
      "will": 2611,
      "ying": 2612,
      "Ġut": 2613,
      "Ġmod": 2614,
      "Ġwound": 2615,
      "Ġbro": 2616,
      "Ġfier": 2617,
      "Ġdest": 2618,
      "Ġlow": 2619,
      "Ġthreat": 2620,
      "ĠIf": 2621,
      "Ġoften": 2622,
      "Ġbend": 2623,
      "eds": 2624,
      "Ġmeasure": 2625,
      "Ġur": 2626,
      "Ġstood": 2627,
      "Ġsteel": 2628,
      "Ġreign": 2629,
      "Ġdog": 2630,
      "Ġshad": 2631,
      "Think": 2632,
      "host": 2633,
      "Ġgoodly": 2634,
      "Ġprin": 2635,
      "ĠGAU": 2636,
      "Ġloved": 2637,
      "ĠSaint": 2638,
      "feit": 2639,
      "Ġunc": 2640,
      "Ġworship": 2641,
      "Ġlack": 2642,
      "Ġadm": 2643,
      "perate": 2644,
      "Ġremed": 2645,
      "ĠKate": 2646,
      "Ġlonger": 2647,
      "Ġdrum": 2648,
      "Ġdrunk": 2649,
      "Ġpresently": 2650,
      "Ġfaults": 2651,
      "unts": 2652,
      "Ġwater": 2653,
      "Ġquickly": 2654,
      "Ġladies": 2655,
      "Ġguilty": 2656,
      "Ġvictory": 2657,
      "ĠIsabel": 2658,
      "ural": 2659,
      "antagen": 2660,
      "ohemia": 2661,
      "ĠGAUNT": 2662,
      "Bes": 2663,
      "EX": 2664,
      "GILIA": 2665,
      "Hear": 2666,
      "RA": 2667,
      "VIR": 2668,
      "apt": 2669,
      "gr": 2670,
      "pir": 2671,
      "sper": 2672,
      "Ġap": 2673,
      "Ġsour": 2674,
      "Ġsur": 2675,
      "Ġmild": 2676,
      "Ġwild": 2677,
      "Ġbow": 2678,
      "Ġbirth": 2679,
      "Ġdu": 2680,
      "Ġcertain": 2681,
      "Ġcolour": 2682,
      "Ġnay": 2683,
      "Ġopp": 2684,
      "Ġins": 2685,
      "utio": 2686,
      "ords": 2687,
      "urs": 2688,
      "Ġsole": 2689,
      "though": 2690,
      "Ġknees": 2691,
      "lace": 2692,
      "Ġblow": 2693,
      "Ġblows": 2694,
      "ĠSt": 2695,
      "ĠPaul": 2696,
      "Ġdidst": 2697,
      "ired": 2698,
      "Ġconscience": 2699,
      "osition": 2700,
      "Ġslew": 2701,
      "Ġwitness": 2702,
      "Stay": 2703,
      "Stand": 2704,
      "Ġtreason": 2705,
      "Ġchance": 2706,
      "Ġvirtuous": 2707,
      "Ġcondemn": 2708,
      "Ġdeserved": 2709,
      "Ġawhile": 2710,
      "Ġexecution": 2711,
      "Ġclouds": 2712,
      "Ġwisdom": 2713,
      "Ġdishonour": 2714,
      "ĠPompey": 2715,
      "Ġforbid": 2716,
      "Ġslander": 2717,
      "VIRGILIA": 2718,
      "!--": 2719,
      "De": 2720,
      "Int": 2721,
      "Mar": 2722,
      "Too": 2723,
      "bb": 2724,
      "ience": 2725,
      "ze": 2726,
      "ĠFor": 2727,
      "Ġtent": 2728,
      "rew": 2729,
      "Ġbroke": 2730,
      "Ġdeter": 2731,
      "Ġlen": 2732,
      "Ġhide": 2733,
      "ots": 2734,
      "inger": 2735,
      "ingly": 2736,
      "Ġbec": 2737,
      "Ġbehind": 2738,
      "Ġinno": 2739,
      "Ġref": 2740,
      "urch": 2741,
      "ament": 2742,
      "Ġangry": 2743,
      "iles": 2744,
      "ĠEarl": 2745,
      "ĠGaunt": 2746,
      "ĠSir": 2747,
      "Ġunf": 2748,
      "Ġletters": 2749,
      "Ġworst": 2750,
      "Ġspeaks": 2751,
      "Ġleast": 2752,
      "Ġlaid": 2753,
      "ations": 2754,
      "Ġgreater": 2755,
      "lock": 2756,
      "LUCENTIO": 2757,
      "ledge": 2758,
      "Ġinstru": 2759,
      "Ġsubjects": 2760,
      "Ġsummer": 2761,
      "ounter": 2762,
      "Sweet": 2763,
      "Ġkinsman": 2764,
      "antagenet": 2765,
      "Ġdeterm": 2766,
      ";'": 2767,
      "ANT": 2768,
      "Doth": 2769,
      "GON": 2770,
      "IGON": 2771,
      "Pl": 2772,
      "SET": 2773,
      "aid": 2774,
      "acle": 2775,
      "bit": 2776,
      "fully": 2777,
      "ler": 2778,
      "med": 2779,
      "ts": 2780,
      "vol": 2781,
      "Ġay": 2782,
      "Ġsus": 2783,
      "Ġmed": 2784,
      "Ġbones": 2785,
      "Ġbastard": 2786,
      "Ġfled": 2787,
      "llo": 2788,
      "ities": 2789,
      "Ġob": 2790,
      "Ġgar": 2791,
      "Ġgall": 2792,
      "ators": 2793,
      "set": 2794,
      "Ġyourselves": 2795,
      "Ġdoing": 2796,
      "Ġourselves": 2797,
      "ular": 2798,
      "Ġvain": 2799,
      "Ġkneel": 2800,
      "Ġknock": 2801,
      "ĠGREY": 2802,
      "Ġwouldst": 2803,
      "Ġswift": 2804,
      "ppy": 2805,
      "Ġletter": 2806,
      "ĠLu": 2807,
      "Ġhadst": 2808,
      "ĠPr": 2809,
      "Ġalive": 2810,
      "Ġabove": 2811,
      "Ġperform": 2812,
      "Ġremain": 2813,
      "Ġwomb": 2814,
      "rupt": 2815,
      "Ġdrink": 2816,
      "Ġglad": 2817,
      "ĠEnglish": 2818,
      "Ġsense": 2819,
      "Ġpromised": 2820,
      "Ġsecond": 2821,
      "ĠNorthumberland": 2822,
      "eeper": 2823,
      "Ġpretty": 2824,
      "TYBALT": 2825,
      "Ġignor": 2826,
      "ANTIGON": 2827,
      "ANTIGONUS": 2828,
      "DOR": 2829,
      "Me": 2830,
      "ault": 2831,
      "bury": 2832,
      "den": 2833,
      "gment": 2834,
      "oss": 2835,
      "sp": 2836,
      "ulet": 2837,
      "your": 2838,
      "Ġaid": 2839,
      "Ġsim": 2840,
      "Ġshi": 2841,
      "Ġsli": 2842,
      "Ġmount": 2843,
      "inius": 2844,
      "Ġwon": 2845,
      "Ġwert": 2846,
      "Ġfat": 2847,
      "Ġfie": 2848,
      "erle": 2849,
      "Ġdry": 2850,
      "Ġdance": 2851,
      "Ġcorse": 2852,
      "Ġodd": 2853,
      "Ġpet": 2854,
      "Ġpain": 2855,
      "Ġhealth": 2856,
      "vey": 2857,
      "ceit": 2858,
      "lease": 2859,
      "irl": 2860,
      "Ġform": 2861,
      "ads": 2862,
      "Ġstain": 2863,
      "Ġsteal": 2864,
      "ider": 2865,
      "Ġdemand": 2866,
      "eaven": 2867,
      "Ġseal": 2868,
      "uel": 2869,
      "Ġanon": 2870,
      "ĠRoman": 2871,
      "asters": 2872,
      "Ġmanner": 2873,
      "ended": 2874,
      "icious": 2875,
      "Ġshed": 2876,
      "Ġshepherd": 2877,
      "Ġthereof": 2878,
      "ĠSignior": 2879,
      "Ġunk": 2880,
      "ĠBohemia": 2881,
      "Ġgoing": 2882,
      "Ġran": 2883,
      "Ġhollow": 2884,
      "Ġprosper": 2885,
      "Ġenjoy": 2886,
      "Ġhearing": 2887,
      "Ġabro": 2888,
      "Ġdesperate": 2889,
      "Ġbase": 2890,
      "ways": 2891,
      "Ġwarm": 2892,
      "Ġlabour": 2893,
      "ize": 2894,
      "Ġadd": 2895,
      "Ġarmy": 2896,
      "Ġpleas": 2897,
      "Ġshows": 2898,
      "bey": 2899,
      "Ġdouble": 2900,
      "Ġdeputy": 2901,
      "atesby": 2902,
      "Ġlands": 2903,
      "Ġsentence": 2904,
      "Ġprisoner": 2905,
      "Ġgreet": 2906,
      "Ġgolden": 2907,
      "Ġjudge": 2908,
      "Ġcheeks": 2909,
      "Ġbeggar": 2910,
      "ĠCapulet": 2911,
      "Ġdamn": 2912,
      "ĠMercutio": 2913,
      ":'": 2914,
      "BU": 2915,
      "Con": 2916,
      "Hark": 2917,
      "LEY": 2918,
      "Pr": 2919,
      "TIUS": 2920,
      "fa": 2921,
      "hn": 2922,
      "ient": 2923,
      "iance": 2924,
      "ohn": 2925,
      "zen": 2926,
      "Ġmut": 2927,
      "Ġmid": 2928,
      "Ġwalk": 2929,
      "rent": 2930,
      "Ġfive": 2931,
      "Ġfaint": 2932,
      "Ġcitizens": 2933,
      "essed": 2934,
      "eness": 2935,
      "Ġyear": 2936,
      "aring": 2937,
      "Ġheld": 2938,
      "Ġind": 2939,
      "Ġforward": 2940,
      "Ġeld": 2941,
      "Ġstone": 2942,
      "Ġlived": 2943,
      "vern": 2944,
      "Ġnob": 2945,
      "Ġours": 2946,
      "cted": 2947,
      "Ġamong": 2948,
      "Ġcapt": 2949,
      "Ġtru": 2950,
      "ume": 2951,
      "umerle": 2952,
      "ĠBi": 2953,
      "Ġalmost": 2954,
      "Ġoffer": 2955,
      "Ġroot": 2956,
      "Ġflowers": 2957,
      "ĠTranio": 2958,
      "Ġdeadly": 2959,
      "ontent": 2960,
      "Ġentertain": 2961,
      "Ġkindred": 2962,
      "rench": 2963,
      "Ġpride": 2964,
      "Ġglory": 2965,
      "LARTIUS": 2966,
      "Ġunderstand": 2967,
      "Ġdreams": 2968,
      "Ġcruel": 2969,
      "Ġtemp": 2970,
      "Ġdespair": 2971,
      "Unto": 2972,
      "Ġsacred": 2973,
      "True": 2974,
      "Ġencounter": 2975,
      "Ġremedy": 2976,
      "Ġbecause": 2977,
      "BURY": 2978,
      "AS": 2979,
      "Bid": 2980,
      "Bel": 2981,
      "Citizens": 2982,
      "Dis": 2983,
      "En": 2984,
      "Gentle": 2985,
      "Out": 2986,
      "Pardon": 2987,
      "Poor": 2988,
      "TCLIFF": 2989,
      "een": 2990,
      "him": 2991,
      "ians": 2992,
      "lb": 2993,
      "rous": 2994,
      "vious": 2995,
      "vail": 2996,
      "ĠX": 2997,
      "ĠThis": 2998,
      "Ġmour": 2999,
      "read": 3000,
      "orious": 3001,
      "orthy": 3002,
      "erona": 3003,
      "Ġcorn": 3004,
      "enes": 3005,
      "Ġpal": 3006,
      "Ġpun": 3007,
      "ster": 3008,
      "ang": 3009,
      "Ġoft": 3010,
      "Ġhap": 3011,
      "ety": 3012,
      "Ġforsw": 3013,
      "Ġreve": 3014,
      "Ġaside": 3015,
      "hire": 3016,
      "estion": 3017,
      "ease": 3018,
      "ames": 3019,
      "ify": 3020,
      "iful": 3021,
      "Ġsever": 3022,
      "Ġspe": 3023,
      "ĠCa": 3024,
      "ĠMy": 3025,
      "Ġprithee": 3026,
      "Ġwhether": 3027,
      "Ġconqu": 3028,
      "ieu": 3029,
      "ĠGo": 3030,
      "Ġgovern": 3031,
      "Ġjoin": 3032,
      "Ġproclaim": 3033,
      "Ġsaf": 3034,
      "ĠWatch": 3035,
      "Ġearly": 3036,
      "Ġexc": 3037,
      "Ġhonours": 3038,
      "Ġprecious": 3039,
      "then": 3040,
      "Ġstruck": 3041,
      "Ġchast": 3042,
      "uthor": 3043,
      "Ġneeds": 3044,
      "Ġwoes": 3045,
      "Ġhumble": 3046,
      "Ġwanton": 3047,
      "Ġwinter": 3048,
      "Ġvalour": 3049,
      "ointed": 3050,
      "Ġwretch": 3051,
      "pollo": 3052,
      "Ġforgot": 3053,
      "Ġliberty": 3054,
      "Ġscarce": 3055,
      "RATCLIFF": 3056,
      "ĠWatchman": 3057,
      "?'": 3058,
      "EW": 3059,
      "Mine": 3060,
      "Master": 3061,
      "Ne": 3062,
      "Su": 3063,
      "bes": 3064,
      "bray": 3065,
      "good": 3066,
      "mit": 3067,
      "under": 3068,
      "Ġteach": 3069,
      "head": 3070,
      "Ġauthor": 3071,
      "ounce": 3072,
      "Ġmorrow": 3073,
      "Ġwail": 3074,
      "reed": 3075,
      "haps": 3076,
      "ited": 3077,
      "Ġlau": 3078,
      "Ġyea": 3079,
      "Ġobey": 3080,
      "owbray": 3081,
      "Ġgift": 3082,
      "atri": 3083,
      "cell": 3084,
      "iment": 3085,
      "Ġnote": 3086,
      "Ġforce": 3087,
      "riar": 3088,
      "Ġstor": 3089,
      "ask": 3090,
      "Ġshake": 3091,
      "Ġherself": 3092,
      "Ġfaire": 3093,
      "ility": 3094,
      "Ġvie": 3095,
      "Ġneck": 3096,
      "Ġshr": 3097,
      "aste": 3098,
      "ief": 3099,
      "Ġknowledge": 3100,
      "resh": 3101,
      "Ġoracle": 3102,
      "ĠLEW": 3103,
      "Ġjoint": 3104,
      "Ġgrand": 3105,
      "arent": 3106,
      "Ġdism": 3107,
      "Within": 3108,
      "Ġhonourable": 3109,
      "Ġplant": 3110,
      "Ġrid": 3111,
      "Ġparty": 3112,
      "ighbour": 3113,
      "Ġothers": 3114,
      "ĠKeeper": 3115,
      "ĠJohn": 3116,
      "Ġwhite": 3117,
      "ĠMars": 3118,
      "Ġcontin": 3119,
      "iled": 3120,
      "Ġaffection": 3121,
      "Ġlordship": 3122,
      "Ġguest": 3123,
      "Ġguess": 3124,
      "Ġsubst": 3125,
      "Ġbids": 3126,
      "Ġwoful": 3127,
      "Ġburied": 3128,
      "Ġcounter": 3129,
      "Ġgives": 3130,
      "Ġsenate": 3131,
      "Ġinstrum": 3132,
      "rann": 3133,
      "Ġcrave": 3134,
      "Ġwretched": 3135,
      "Ġtowards": 3136,
      "Ġtyrant": 3137,
      "Ġvenge": 3138,
      "ĠVolsces": 3139,
      "Ġidle": 3140,
      "Ġpiece": 3141,
      "Ġtriumph": 3142,
      "Ġbenef": 3143,
      "Ġabroad": 3144,
      "ĠXI": 3145,
      "Ġview": 3146,
      "ĠLEWIS": 3147,
      "'re": 3148,
      ":--": 3149,
      "Br": 3150,
      "Either": 3151,
      "Fa": 3152,
      "KEN": 3153,
      "MP": 3154,
      "Turn": 3155,
      "While": 3156,
      "ac": 3157,
      "aw": 3158,
      "dle": 3159,
      "dge": 3160,
      "ey": 3161,
      "ead": 3162,
      "ners": 3163,
      "shall": 3164,
      "ual": 3165,
      "ude": 3166,
      "uff": 3167,
      "whe": 3168,
      "Ġtry": 3169,
      "heart": 3170,
      "Ġmethinks": 3171,
      "Ġmoney": 3172,
      "ining": 3173,
      "Ġwings": 3174,
      "have": 3175,
      "Ġfe": 3176,
      "Ġfought": 3177,
      "Ġfew": 3178,
      "Ġfru": 3179,
      "Ġdrown": 3180,
      "Ġdied": 3181,
      "Ġcre": 3182,
      "Ġcal": 3183,
      "Ġcried": 3184,
      "Ġlest": 3185,
      "Ġlust": 3186,
      "Ġocc": 3187,
      "Ġpil": 3188,
      "anley": 3189,
      "omas": 3190,
      "Ġgross": 3191,
      "ated": 3192,
      "Ġbelly": 3193,
      "etr": 3194,
      "Ġweeds": 3195,
      "Ġeat": 3196,
      "Ġstab": 3197,
      "Ġdec": 3198,
      "Ġdeg": 3199,
      "ander": 3200,
      "Ġallow": 3201,
      "Ġspake": 3202,
      "Ġsport": 3203,
      "ĠCom": 3204,
      "Ġknight": 3205,
      "ĠMowbray": 3206,
      "Ġconcl": 3207,
      "Ġconvey": 3208,
      "law": 3209,
      "Ġblame": 3210,
      "Ġunha": 3211,
      "ĠBarn": 3212,
      "ung": 3213,
      "ĠVerona": 3214,
      "ortens": 3215,
      "Ġrot": 3216,
      "Ġrise": 3217,
      "Ġprov": 3218,
      "Ġprovost": 3219,
      "Ġfoes": 3220,
      "Ġwherein": 3221,
      "ista": 3222,
      "Ġquiet": 3223,
      "Ġtwice": 3224,
      "Ġbears": 3225,
      "Ġplead": 3226,
      "Ġkept": 3227,
      "Ġcontr": 3228,
      "ethought": 3229,
      "Ġcharity": 3230,
      "anca": 3231,
      "Ġbright": 3232,
      "Ġtraitors": 3233,
      "Ġchoose": 3234,
      "Ġchurch": 3235,
      "Ġreasons": 3236,
      "Ġslave": 3237,
      "Ġaffair": 3238,
      "Ġjudgment": 3239,
      "comes": 3240,
      "undred": 3241,
      "SAMP": 3242,
      "BRAKEN": 3243,
      "Ġprivate": 3244,
      "Ġtrouble": 3245,
      "Whilst": 3246,
      "Ġeasy": 3247,
      "untsman": 3248,
      "aptista": 3249,
      "ĠPrince": 3250,
      "ortensio": 3251,
      "SAMPSON": 3252,
      "BRAKENBURY": 3253,
      "Am": 3254,
      "AMIL": 3255,
      "Could": 3256,
      "Fear": 3257,
      "LIUS": 3258,
      "MAMIL": 3259,
      "RO": 3260,
      "Sc": 3261,
      "TAN": 3262,
      "Under": 3263,
      "ape": 3264,
      "ding": 3265,
      "draw": 3266,
      "eous": 3267,
      "fall": 3268,
      "ip": 3269,
      "ked": 3270,
      "pr": 3271,
      "par": 3272,
      "pro": 3273,
      "which": 3274,
      "ĠThou": 3275,
      "Ġtaken": 3276,
      "Ġsort": 3277,
      "Ġmatch": 3278,
      "inous": 3279,
      "rees": 3280,
      "Ġbrows": 3281,
      "orous": 3282,
      "Ġfine": 3283,
      "ites": 3284,
      "ony": 3285,
      "Ġdet": 3286,
      "Ġdull": 3287,
      "Ġdwell": 3288,
      "Ġcries": 3289,
      "Ġnumber": 3290,
      "ott": 3291,
      "ane": 3292,
      "anch": 3293,
      "Ġgrown": 3294,
      "Ġbeha": 3295,
      "utland": 3296,
      "Ġweary": 3297,
      "ently": 3298,
      "Ġstat": 3299,
      "Ġstud": 3300,
      "Ġreceived": 3301,
      "ident": 3302,
      "idings": 3303,
      "ash": 3304,
      "amp": 3305,
      "Ġloyal": 3306,
      "Ġspent": 3307,
      "Ġspring": 3308,
      "ĠRutland": 3309,
      "ĠCatesby": 3310,
      "ĠMaster": 3311,
      "ongs": 3312,
      "Ġblest": 3313,
      "unning": 3314,
      "ĠAnt": 3315,
      "ĠAumerle": 3316,
      "Ġbrothers": 3317,
      "ursed": 3318,
      "Ġflower": 3319,
      "UMIO": 3320,
      "Ġcalls": 3321,
      "Ġmoon": 3322,
      "Ġimag": 3323,
      "Ġsmo": 3324,
      "ewis": 3325,
      "Ġcover": 3326,
      "Sirrah": 3327,
      "Ġglass": 3328,
      "GRUMIO": 3329,
      "Ġmaids": 3330,
      "Ġused": 3331,
      "Ġrude": 3332,
      "Ġmonth": 3333,
      "ĠCorioli": 3334,
      "Ġcheek": 3335,
      "Ġtyrann": 3336,
      "Ġdelight": 3337,
      "Ġcastle": 3338,
      "Ġwalls": 3339,
      "Ġextrem": 3340,
      "Ġsatisfied": 3341,
      "Ġacqu": 3342,
      "ĠPlantagenet": 3343,
      "Ġthreaten": 3344,
      "ĠPaulina": 3345,
      "Ġtruly": 3346,
      "MAMILLIUS": 3347,
      "TANLEY": 3348,
      "'?": 3349,
      "Alack": 3350,
      "BIS": 3351,
      "Cousin": 3352,
      "DO": 3353,
      "Hence": 3354,
      "HOP": 3355,
      "Heaven": 3356,
      "MIS": 3357,
      "MON": 3358,
      "Methinks": 3359,
      "Once": 3360,
      "RICH": 3361,
      "acher": 3362,
      "con": 3363,
      "ds": 3364,
      "eld": 3365,
      "gra": 3366,
      "lp": 3367,
      "mble": 3368,
      "oly": 3369,
      "pet": 3370,
      "port": 3371,
      "wixt": 3372,
      "Ġed": 3373,
      "Ġsch": 3374,
      "Ġmasters": 3375,
      "Ġbird": 3376,
      "orry": 3377,
      "Ġfury": 3378,
      "ern": 3379,
      "Ġdust": 3380,
      "Ġcell": 3381,
      "Ġclaim": 3382,
      "Ġcustom": 3383,
      "enen": 3384,
      "Ġhol": 3385,
      "Ġhundred": 3386,
      "Ġpains": 3387,
      "stant": 3388,
      "Ġgaz": 3389,
      "Ġghost": 3390,
      "Ġgirl": 3391,
      "Ġhair": 3392,
      "utes": 3393,
      "Ġformer": 3394,
      "rift": 3395,
      "Ġsteed": 3396,
      "Ġstars": 3397,
      "Ġstones": 3398,
      "Ġrel": 3399,
      "Ġdeal": 3400,
      "roy": 3401,
      "Ġbutcher": 3402,
      "Ġseven": 3403,
      "Ġloath": 3404,
      "arden": 3405,
      "ardine": 3406,
      "ilia": 3407,
      "Ġblind": 3408,
      "Ġbrook": 3409,
      "ĠOVER": 3410,
      "Ġtroth": 3411,
      "Ġunb": 3412,
      "Ġuns": 3413,
      "Ġunw": 3414,
      "ĠBaptista": 3415,
      "ĠLewis": 3416,
      "ĠHarry": 3417,
      "Ġmayst": 3418,
      "Ġenvy": 3419,
      "Ġwhole": 3420,
      "uchio": 3421,
      "allow": 3422,
      "Off": 3423,
      "Ġflat": 3424,
      "Ġquestion": 3425,
      "Ġprayer": 3426,
      "Ġmoved": 3427,
      "Ġwhither": 3428,
      "there": 3429,
      "Ġlean": 3430,
      "Ġtongues": 3431,
      "Ġaccount": 3432,
      "Ġsmile": 3433,
      "Ġresign": 3434,
      "Ġtrial": 3435,
      "Ġguard": 3436,
      "Ġmiser": 3437,
      "Ġwrongs": 3438,
      "Ġundert": 3439,
      "Show": 3440,
      "Ġswords": 3441,
      "Ġhumour": 3442,
      "Ġcondu": 3443,
      "Ġassist": 3444,
      "TRESS": 3445,
      "Ġsilver": 3446,
      "ĠThomas": 3447,
      "Ġembrace": 3448,
      "Ġevil": 3449,
      "Ġhurt": 3450,
      "Ġprotect": 3451,
      "EXETER": 3452,
      "Ġleng": 3453,
      "Ġignorant": 3454,
      "Ġfatal": 3455,
      "ĠBianca": 3456,
      "Ġspeci": 3457,
      "Ġexcuse": 3458,
      "Ġvengeance": 3459,
      "Faith": 3460,
      "etruchio": 3461,
      "ĠCominius": 3462,
      "ĠBarnardine": 3463,
      "Ġaffairs": 3464,
      "BISHOP": 3465,
      "DONE": 3466,
      "MISTRESS": 3467,
      "MOND": 3468,
      "RICHMOND": 3469,
      "enenius": 3470,
      "ĠOVERDONE": 3471,
      "AL": 3472,
      "Ad": 3473,
      "After": 3474,
      "Bl": 3475,
      "Bet": 3476,
      "BUS": 3477,
      "Boy": 3478,
      "Cla": 3479,
      "DER": 3480,
      "Dost": 3481,
      "Ex": 3482,
      "Edward": 3483,
      "HY": 3484,
      "Lo": 3485,
      "Made": 3486,
      "MOP": 3487,
      "Never": 3488,
      "Put": 3489,
      "Res": 3490,
      "Tut": 3491,
      "Tybalt": 3492,
      "mn": 3493,
      "mp": 3494,
      "nat": 3495,
      "pin": 3496,
      "sic": 3497,
      "ued": 3498,
      "vish": 3499,
      "would": 3500,
      "woman": 3501,
      "Ġtidings": 3502,
      "Ġsits": 3503,
      "Ġwre": 3504,
      "Ġwives": 3505,
      "Ġbig": 3506,
      "Ġbark": 3507,
      "Ġfirm": 3508,
      "erset": 3509,
      "llen": 3510,
      "Ġcred": 3511,
      "Ġlist": 3512,
      "Ġobed": 3513,
      "othe": 3514,
      "omerset": 3515,
      "Ġgarden": 3516,
      "cend": 3517,
      "Ġincl": 3518,
      "utation": 3519,
      "Ġeag": 3520,
      "Ġease": 3521,
      "Ġreceive": 3522,
      "asion": 3523,
      "Ġnose": 3524,
      "think": 3525,
      "ouses": 3526,
      "ustice": 3527,
      "Ġvault": 3528,
      "Ġneighbour": 3529,
      "ctise": 3530,
      "antua": 3531,
      "ĠMessenger": 3532,
      "ĠMantua": 3533,
      "Ġproof": 3534,
      "ĠGrey": 3535,
      "othing": 3536,
      "Ġblessed": 3537,
      "Ġkingly": 3538,
      "ĠSic": 3539,
      "Ġsirrah": 3540,
      "ĠLet": 3541,
      "ĠHer": 3542,
      "hysic": 3543,
      "OMAS": 3544,
      "Ġproper": 3545,
      "Ġenvious": 3546,
      "Ġfright": 3547,
      "aught": 3548,
      "Ġhonesty": 3549,
      "Ġalas": 3550,
      "Ġalways": 3551,
      "Ġrock": 3552,
      "Ġbabe": 3553,
      "Ġflight": 3554,
      "Ġquoth": 3555,
      "Ġleaves": 3556,
      "Wherein": 3557,
      "loved": 3558,
      "udge": 3559,
      "Ġrepent": 3560,
      "Ġaffect": 3561,
      "Ġplague": 3562,
      "Ġthrust": 3563,
      "Ġimport": 3564,
      "Ġhateful": 3565,
      "Ġbride": 3566,
      "Ġfools": 3567,
      "Ġdrawn": 3568,
      "HASAR": 3569,
      "Ġruin": 3570,
      "usician": 3571,
      "remio": 3572,
      "Ġdeserve": 3573,
      "Twas": 3574,
      "scal": 3575,
      "Ġminister": 3576,
      "Ġempt": 3577,
      "BALTHASAR": 3578,
      "Ġwhilst": 3579,
      "Ġpractise": 3580,
      "Ġstop": 3581,
      "Ġviolent": 3582,
      "Ġprophe": 3583,
      "Ġtrumpets": 3584,
      "Ġutter": 3585,
      "Ġfiery": 3586,
      "ursday": 3587,
      "Death": 3588,
      "Ġsimple": 3589,
      "atrici": 3590,
      "Brother": 3591,
      "Ġfruit": 3592,
      "BUSHY": 3593,
      "DERBY": 3594,
      "MOPSA": 3595,
      "Des": 3596,
      "FOL": 3597,
      "Ind": 3598,
      "Per": 3599,
      "Richard": 3600,
      "VAL": 3601,
      "cha": 3602,
      "his": 3603,
      "mion": 3604,
      "rison": 3605,
      "Ġver": 3606,
      "ĠWe": 3607,
      "Ġted": 3608,
      "Ġtaste": 3609,
      "Ġavo": 3610,
      "Ġaught": 3611,
      "Ġsorry": 3612,
      "Ġmile": 3613,
      "Ġwot": 3614,
      "Ġwont": 3615,
      "Ġbrow": 3616,
      "Ġbare": 3617,
      "Ġfain": 3618,
      "Ġfresh": 3619,
      "itol": 3620,
      "Ġdin": 3621,
      "Ġdue": 3622,
      "Ġcir": 3623,
      "Ġcarry": 3624,
      "Ġcunning": 3625,
      "esy": 3626,
      "enn": 3627,
      "Ġnine": 3628,
      "Ġyonder": 3629,
      "Ġthro": 3630,
      "Ġthunder": 3631,
      "Ġpol": 3632,
      "ating": 3633,
      "semb": 3634,
      "Ġinform": 3635,
      "ldom": 3636,
      "Ġequ": 3637,
      "Ġanger": 3638,
      "Ġfares": 3639,
      "Ġfaces": 3640,
      "Ġvan": 3641,
      "Ġvice": 3642,
      "Ġvile": 3643,
      "Ġvantage": 3644,
      "ERIA": 3645,
      "Ġshore": 3646,
      "ĠMenenius": 3647,
      "ĠMusician": 3648,
      "Ġcomest": 3649,
      "olix": 3650,
      "Ġtrans": 3651,
      "ĠSomerset": 3652,
      "Ġarri": 3653,
      "icked": 3654,
      "ĠWill": 3655,
      "ĠWhy": 3656,
      "Ġoffend": 3657,
      "Ġroom": 3658,
      "Ġthinks": 3659,
      "Ġexcell": 3660,
      "Ġwherefore": 3661,
      "Ġflies": 3662,
      "Ġquite": 3663,
      "Ġprevail": 3664,
      "Ġadieu": 3665,
      "Ġperil": 3666,
      "Ġperceive": 3667,
      "iteous": 3668,
      "ĠFrench": 3669,
      "Ġuntil": 3670,
      "Ġchair": 3671,
      "Only": 3672,
      "Ġkindly": 3673,
      "Ġbanished": 3674,
      "Ġtread": 3675,
      "Ġfollows": 3676,
      "Lords": 3677,
      "Ġimprison": 3678,
      "Ġchanged": 3679,
      "Ġdeposed": 3680,
      "Ġhappiness": 3681,
      "Ġdevise": 3682,
      "NORFOL": 3683,
      "Ġfoolish": 3684,
      "twixt": 3685,
      "ealous": 3686,
      "Ġcondition": 3687,
      "Ġtempt": 3688,
      "blic": 3689,
      "Ġchoice": 3690,
      "Ġterror": 3691,
      "Comm": 3692,
      "Having": 3693,
      "Ġdespite": 3694,
      "ĠCapitol": 3695,
      "Ġabsence": 3696,
      "ĠThursday": 3697,
      "change": 3698,
      "Ġthrive": 3699,
      "Ġdreadful": 3700,
      "Art": 3701,
      "Ġmalice": 3702,
      "Ġpenit": 3703,
      "Besides": 3704,
      "Into": 3705,
      "Ġpunish": 3706,
      "Ġsafety": 3707,
      "Ġrotten": 3708,
      "Indeed": 3709,
      "VALERIA": 3710,
      "mione": 3711,
      "Ġtedious": 3712,
      "olixenes": 3713,
      "NORFOLK": 3714,
      "Ed": 3715,
      "GOR": 3716,
      "Great": 3717,
      "Rep": 3718,
      "STANLEY": 3719,
      "aff": 3720,
      "after": 3721,
      "gle": 3722,
      "lar": 3723,
      "more": 3724,
      "oot": 3725,
      "oard": 3726,
      "ope": 3727,
      "pass": 3728,
      "pardon": 3729,
      "place": 3730,
      "ron": 3731,
      "rust": 3732,
      "sing": 3733,
      "ta": 3734,
      "wise": 3735,
      "Ġir": 3736,
      "Ġmotion": 3737,
      "Ġwicked": 3738,
      "rehe": 3739,
      "Ġbite": 3740,
      "Ġfell": 3741,
      "Ġfeed": 3742,
      "onounce": 3743,
      "Ġdies": 3744,
      "Ġcure": 3745,
      "Ġlan": 3746,
      "ene": 3747,
      "Ġhid": 3748,
      "Ġhouses": 3749,
      "Ġtomb": 3750,
      "Ġpainted": 3751,
      "Ġphysic": 3752,
      "Ġpiteous": 3753,
      "vell": 3754,
      "omp": 3755,
      "Ġbelike": 3756,
      "Ġbeloved": 3757,
      "eding": 3758,
      "Ġele": 3759,
      "Ġeast": 3760,
      "Ġstore": 3761,
      "Ġstock": 3762,
      "Ġstoop": 3763,
      "Ġkin": 3764,
      "ract": 3765,
      "Ġreward": 3766,
      "Ġliest": 3767,
      "Ġdew": 3768,
      "eave": 3769,
      "iffe": 3770,
      "usion": 3771,
      "Ġseize": 3772,
      "hop": 3773,
      "Ġnecess": 3774,
      "Ġamb": 3775,
      "Ġconj": 3776,
      "Ġhatred": 3777,
      "ĠGremio": 3778,
      "Ġsheep": 3779,
      "Ġtherein": 3780,
      "Ġbrings": 3781,
      "Myself": 3782,
      "Ġunnat": 3783,
      "ĠHow": 3784,
      "Ġmayor": 3785,
      "cio": 3786,
      "ĠApollo": 3787,
      "Ġseeing": 3788,
      "imely": 3789,
      "ĠPERC": 3790,
      "ĠPolixenes": 3791,
      "Ġoutward": 3792,
      "Ġheav": 3793,
      "Ġofficer": 3794,
      "Ġlooking": 3795,
      "Ġearn": 3796,
      "Ġexile": 3797,
      "istress": 3798,
      "Ġquench": 3799,
      "liament": 3800,
      "Ġprey": 3801,
      "Ġprevent": 3802,
      "Ġremains": 3803,
      "Ġlegs": 3804,
      "orses": 3805,
      "ission": 3806,
      "Ġkeeps": 3807,
      "Ġaccus": 3808,
      "Ġaccuse": 3809,
      "Ġpair": 3810,
      "Ġpack": 3811,
      "Ġpaper": 3812,
      "Ġkindness": 3813,
      "Ġwits": 3814,
      "Ġendure": 3815,
      "Ġtremb": 3816,
      "Ġtreacher": 3817,
      "Ġjoys": 3818,
      "Ġfollowers": 3819,
      "Ġfellows": 3820,
      "Ġrevenged": 3821,
      "ounty": 3822,
      "Ġcourtesy": 3823,
      "Ġchide": 3824,
      "Ġdiscontent": 3825,
      "GREEN": 3826,
      "GREGOR": 3827,
      "Ġintend": 3828,
      "Ġboot": 3829,
      "Ġdenied": 3830,
      "Ġlamb": 3831,
      "Ġgreen": 3832,
      "Ġsilence": 3833,
      "Ġparliament": 3834,
      "Ġprofess": 3835,
      "Ġdivine": 3836,
      "Ġgriev": 3837,
      "Ġexpress": 3838,
      "About": 3839,
      "Ġpublic": 3840,
      "Ġsighs": 3841,
      "Ġcreature": 3842,
      "Ġundone": 3843,
      "Ġdrop": 3844,
      "Ġbroken": 3845,
      "Ġdrums": 3846,
      "Ġpalace": 3847,
      "Ġconquer": 3848,
      "Ġbenefit": 3849,
      "Ġunhappy": 3850,
      "Ġdetest": 3851,
      "pinion": 3852,
      "Ġcirc": 3853,
      "ĠPERCY": 3854,
      "GREGORY": 3855,
      "AEd": 3856,
      "CH": 3857,
      "FORD": 3858,
      "Has": 3859,
      "OX": 3860,
      "Ret": 3861,
      "SOM": 3862,
      "Wilt": 3863,
      "act": 3864,
      "bear": 3865,
      "ek": 3866,
      "father": 3867,
      "grace": 3868,
      "mity": 3869,
      "oe": 3870,
      "ping": 3871,
      "pic": 3872,
      "roth": 3873,
      "rate": 3874,
      "yard": 3875,
      "Ġes": 3876,
      "ĠAnd": 3877,
      "Ġtort": 3878,
      "Ġaim": 3879,
      "Ġscept": 3880,
      "Ġmurderer": 3881,
      "Ġwent": 3882,
      "Ġwander": 3883,
      "rease": 3884,
      "Ġbas": 3885,
      "Ġbond": 3886,
      "Ġball": 3887,
      "Ġfinger": 3888,
      "ita": 3889,
      "Ġdag": 3890,
      "Ġclo": 3891,
      "Ġcup": 3892,
      "Ġlar": 3893,
      "Ġlend": 3894,
      "Ġlark": 3895,
      "ency": 3896,
      "Ġnaked": 3897,
      "arch": 3898,
      "Ġhost": 3899,
      "Ġpure": 3900,
      "vel": 3901,
      "Ġgage": 3902,
      "athar": 3903,
      "leep": 3904,
      "irg": 3905,
      "Ġmere": 3906,
      "ourish": 3907,
      "ills": 3908,
      "rious": 3909,
      "Ġstep": 3910,
      "ghters": 3911,
      "Ġrenown": 3912,
      "Ġlion": 3913,
      "Ġdeceived": 3914,
      "Ġshar": 3915,
      "Ġsup": 3916,
      "Ġspr": 3917,
      "Ġspite": 3918,
      "ellion": 3919,
      "ĠCons": 3920,
      "ERSET": 3921,
      "Ġshut": 3922,
      "Ġshun": 3923,
      "ĠMOW": 3924,
      "Ġgoodness": 3925,
      "icy": 3926,
      "Ġamaz": 3927,
      "outs": 3928,
      "Ġcap": 3929,
      "Ġworn": 3930,
      "ĠHuntsman": 3931,
      "ĠHortensio": 3932,
      "Ġjealous": 3933,
      "Ġsail": 3934,
      "ared": 3935,
      "ABHOR": 3936,
      "eeth": 3937,
      "Ġdesign": 3938,
      "Ġbetwixt": 3939,
      "oldier": 3940,
      "Ġwrite": 3941,
      "Ġperforce": 3942,
      "Ġperhaps": 3943,
      "aints": 3944,
      "Ġcommend": 3945,
      "Ġchief": 3946,
      "Thanks": 3947,
      "Ġbegins": 3948,
      "ĠFriar": 3949,
      "ĠJove": 3950,
      "ctions": 3951,
      "Ġcourage": 3952,
      "Ġdaughters": 3953,
      "Ġpawn": 3954,
      "THOMAS": 3955,
      "ruly": 3956,
      "Ġcompan": 3957,
      "Ġpursu": 3958,
      "Still": 3959,
      "Ġbrain": 3960,
      "Ġseeming": 3961,
      "iety": 3962,
      "Uncle": 3963,
      "Ġgiving": 3964,
      "PETER": 3965,
      "Ġsenators": 3966,
      "Ġhumbly": 3967,
      "Ġadvantage": 3968,
      "Ġsometime": 3969,
      "Ġservices": 3970,
      "Ġdisposition": 3971,
      "Ġwaters": 3972,
      "ĠRivers": 3973,
      "Ġcorrupt": 3974,
      "Ġprett": 3975,
      "Ġabsent": 3976,
      "Ġvenom": 3977,
      "Ġapproach": 3978,
      "BRAY": 3979,
      "Ġclear": 3980,
      "Ġdares": 3981,
      "Ġprepared": 3982,
      "Ġshadow": 3983,
      "grim": 3984,
      "Ġsolemn": 3985,
      "ĠStanley": 3986,
      "Ġinnocent": 3987,
      "Ġunknown": 3988,
      "Ġnobles": 3989,
      "lbow": 3990,
      "Ġmourn": 3991,
      "Ġauthority": 3992,
      "Ġlaugh": 3993,
      "Ġstorm": 3994,
      "ĠMarshal": 3995,
      "hearted": 3996,
      "Ġpilgrim": 3997,
      "Ġcontrary": 3998,
      "Ġschool": 3999,
      "Ġconduct": 4000,
      "Ġexcellent": 4001,
      "Ġunnatural": 4002,
      "OXFORD": 4003,
      "SOMERSET": 4004,
      "picion": 4005,
      "atharina": 4006,
      "ĠConspir": 4007,
      "ĠMOWBRAY": 4008,
      "ABHORSON": 4009,
      "Amen": 4010,
      "Bear": 4011,
      "Came": 4012,
      "Dear": 4013,
      "Fie": 4014,
      "Hast": 4015,
      "None": 4016,
      "OS": 4017,
      "Pre": 4018,
      "Please": 4019,
      "Rem": 4020,
      "RUT": 4021,
      "Signior": 4022,
      "dis": 4023,
      "fl": 4024,
      "gl": 4025,
      "just": 4026,
      "look": 4027,
      "ped": 4028,
      "zard": 4029,
      "ĠThey": 4030,
      "Ġalack": 4031,
      "Ġaunt": 4032,
      "Ġsan": 4033,
      "Ġsix": 4034,
      "Ġwood": 4035,
      "Ġwort": 4036,
      "Ġwither": 4037,
      "reland": 4038,
      "Ġband": 4039,
      "ises": 4040,
      "isbury": 4041,
      "ishop": 4042,
      "orough": 4043,
      "Ġfle": 4044,
      "Ġfig": 4045,
      "Ġfeet": 4046,
      "Ġfee": 4047,
      "erves": 4048,
      "erved": 4049,
      "itation": 4050,
      "Ġdur": 4051,
      "Ġcalm": 4052,
      "ences": 4053,
      "Ġnames": 4054,
      "Ġhunt": 4055,
      "Ġhorses": 4056,
      "Ġtop": 4057,
      "Ġpurse": 4058,
      "Ġpier": 4059,
      "Ġpowers": 4060,
      "ĠIreland": 4061,
      "ote": 4062,
      "omen": 4063,
      "omans": 4064,
      "Ġgate": 4065,
      "Ġglo": 4066,
      "Ġbecomes": 4067,
      "ourage": 4068,
      "Ġweight": 4069,
      "Ġweigh": 4070,
      "Ġweap": 4071,
      "adua": 4072,
      "Ġsting": 4073,
      "rand": 4074,
      "Ġrealm": 4075,
      "Ġlip": 4076,
      "Ġdeare": 4077,
      "ales": 4078,
      "alisbury": 4079,
      "Ġdoor": 4080,
      "Ġseas": 4081,
      "Three": 4082,
      "thou": 4083,
      "this": 4084,
      "Ġlod": 4085,
      "hant": 4086,
      "Ġfail": 4087,
      "ĠROS": 4088,
      "ĠRomans": 4089,
      "Ġvirg": 4090,
      "Ġknave": 4091,
      "ants": 4092,
      "ĠMay": 4093,
      "Ġmanners": 4094,
      "Ġamen": 4095,
      "Ġconc": 4096,
      "ement": 4097,
      "ieved": 4098,
      "Ġblock": 4099,
      "Ġcares": 4100,
      "Ġsway": 4101,
      "ĠSoldier": 4102,
      "ument": 4103,
      "ĠBona": 4104,
      "eless": 4105,
      "Ġhopes": 4106,
      "Ġenforce": 4107,
      "Ġdisd": 4108,
      "Ġdiss": 4109,
      "ĠPeter": 4110,
      "ĠPadua": 4111,
      "CAS": 4112,
      "Ġalter": 4113,
      "Ġabh": 4114,
      "Ġrose": 4115,
      "Ġfriendly": 4116,
      "Ġexpect": 4117,
      "Ġgentlewoman": 4118,
      "Ġquit": 4119,
      "ages": 4120,
      "tled": 4121,
      "Ġtwain": 4122,
      "Ġparts": 4123,
      "Ġrash": 4124,
      "Ġadvers": 4125,
      "Ġwrath": 4126,
      "Ġwrought": 4127,
      "Ġperpet": 4128,
      "Ġarmour": 4129,
      "ilts": 4130,
      "Ġkey": 4131,
      "ĠKatharina": 4132,
      "Ġimm": 4133,
      "Ġuntimely": 4134,
      "ression": 4135,
      "Ġaccord": 4136,
      "Ġaccess": 4137,
      "Ġsmiles": 4138,
      "Ġpurcha": 4139,
      "Ġends": 4140,
      "Ġpriest": 4141,
      "Ġslow": 4142,
      "Ġbodies": 4143,
      "Ġnatural": 4144,
      "orset": 4145,
      "Ġmeeting": 4146,
      "ancy": 4147,
      "Ġmaiden": 4148,
      "Ġmisery": 4149,
      "Ġholds": 4150,
      "atience": 4151,
      "Ġpassage": 4152,
      "Ġstreets": 4153,
      "Ġinstant": 4154,
      "Ġcurses": 4155,
      "Ġadvance": 4156,
      "Ġcrack": 4157,
      "Ġintent": 4158,
      "Ġhanged": 4159,
      "itting": 4160,
      "Ġtemper": 4161,
      "Ġafford": 4162,
      "Ġborne": 4163,
      "Ġgrows": 4164,
      "ploy": 4165,
      "Ġpossible": 4166,
      "Ġterms": 4167,
      "Ġgranted": 4168,
      "Ġshortly": 4169,
      "Two": 4170,
      "Ġdelay": 4171,
      "Ġgrieve": 4172,
      "Ġresolve": 4173,
      "centio": 4174,
      "Ġgroan": 4175,
      "Ġgroans": 4176,
      "Ġfamous": 4177,
      "ĠChristian": 4178,
      "Ġwounded": 4179,
      "Ġsuspicion": 4180,
      "ĠLucio": 4181,
      "DORCAS": 4182,
      "Ġpleasant": 4183,
      "Ġcaptain": 4184,
      "Believe": 4185,
      "Ġseveral": 4186,
      "ĠCaius": 4187,
      "Ġfairest": 4188,
      "Ġcontinue": 4189,
      "Ġinstruments": 4190,
      "Ġdegree": 4191,
      "Ġmiserable": 4192,
      "Ġundertake": 4193,
      "Ġprotector": 4194,
      "Ġcredit": 4195,
      "Ġempty": 4196,
      "Ġpolicy": 4197,
      "AEdile": 4198,
      "Ġsceptre": 4199,
      "Ġdagger": 4200,
      "RUTLAND": 4201,
      "Ġsanct": 4202,
      "Ġworthi": 4203,
      "ĠROSS": 4204,
      "App": 4205,
      "Bring": 4206,
      "Hail": 4207,
      "Makes": 4208,
      "Mark": 4209,
      "Post": 4210,
      "Sha": 4211,
      "Worthy": 4212,
      "aves": 4213,
      "born": 4214,
      "clock": 4215,
      "fer": 4216,
      "fret": 4217,
      "fellow": 4218,
      "hore": 4219,
      "ienn": 4220,
      "pul": 4221,
      "sa": 4222,
      "some": 4223,
      "same": 4224,
      "ties": 4225,
      "tune": 4226,
      "ub": 4227,
      "uce": 4228,
      "uary": 4229,
      "urious": 4230,
      "val": 4231,
      "what": 4232,
      "ĠThere": 4233,
      "held": 4234,
      "Ġach": 4235,
      "Ġapt": 4236,
      "Ġsqu": 4237,
      "Ġsins": 4238,
      "ination": 4239,
      "Ġwake": 4240,
      "Ġwine": 4241,
      "Ġwol": 4242,
      "Ġwond": 4243,
      "Ġwakes": 4244,
      "reen": 4245,
      "Ġbury": 4246,
      "ising": 4247,
      "isper": 4248,
      "Ġfart": 4249,
      "Ġfires": 4250,
      "erns": 4251,
      "itus": 4252,
      "itude": 4253,
      "Ġdri": 4254,
      "Ġce": 4255,
      "Ġcens": 4256,
      "Ġloud": 4257,
      "Ġnought": 4258,
      "Ġhit": 4259,
      "Ġow": 4260,
      "Ġowe": 4261,
      "Ġobs": 4262,
      "Ġopinion": 4263,
      "Ġport": 4264,
      "Ġgain": 4265,
      "atcl": 4266,
      "Ġbeard": 4267,
      "sequ": 4268,
      "Ġinfect": 4269,
      "uted": 4270,
      "Ġmend": 4271,
      "ourth": 4272,
      "Ġwept": 4273,
      "ades": 4274,
      "Ġstol": 4275,
      "Ġstory": 4276,
      "Ġrepe": 4277,
      "ashi": 4278,
      "Ġones": 4279,
      "ARCH": 4280,
      "Ġwillingly": 4281,
      "Ġnobl": 4282,
      "ifest": 4283,
      "uses": 4284,
      "andal": 4285,
      "Thr": 4286,
      "Ġsuck": 4287,
      "Ġange": 4288,
      "Ġspl": 4289,
      "Ġspend": 4290,
      "ellig": 4291,
      "ĠCo": 4292,
      "arts": 4293,
      "Ġpronounce": 4294,
      "icular": 4295,
      "Ġconceit": 4296,
      "Ġtheirs": 4297,
      "Ġtrade": 4298,
      "ĠSalisbury": 4299,
      "Ġunless": 4300,
      "umble": 4301,
      "Ġring": 4302,
      "Ġround": 4303,
      "Ġruth": 4304,
      "Ġjour": 4305,
      "Ġjew": 4306,
      "Ġgraves": 4307,
      "Ġmuster": 4308,
      "elt": 4309,
      "Ġenmity": 4310,
      "Ġfathers": 4311,
      "ĠPetruchio": 4312,
      "Without": 4313,
      "ĠWho": 4314,
      "Ġfolly": 4315,
      "Ġdesert": 4316,
      "Ġplot": 4317,
      "Ġwarlike": 4318,
      "Ġparting": 4319,
      "Ġrap": 4320,
      "Ġrain": 4321,
      "Ġraise": 4322,
      "Ġado": 4323,
      "Ġscene": 4324,
      "Ġperish": 4325,
      "aintain": 4326,
      "ĠDe": 4327,
      "Ġnorth": 4328,
      "Ġcommitted": 4329,
      "Ġpress": 4330,
      "ased": 4331,
      "ĠJack": 4332,
      "lesome": 4333,
      "Ġconsider": 4334,
      "they": 4335,
      "Ġhark": 4336,
      "Ġsmell": 4337,
      "Ġcounty": 4338,
      "Stri": 4339,
      "fortune": 4340,
      "Ġbrace": 4341,
      "Ġtreasure": 4342,
      "Ġneedful": 4343,
      "Ġjoyful": 4344,
      "Ġslay": 4345,
      "Ġfinds": 4346,
      "Ġcharged": 4347,
      "Ġweeps": 4348,
      "Ġglorious": 4349,
      "Ġpassing": 4350,
      "Anon": 4351,
      "clam": 4352,
      "Ġattempt": 4353,
      "Ġdiscour": 4354,
      "Ġcurrent": 4355,
      "Ġadvice": 4356,
      "Ġadvise": 4357,
      "Ġoaths": 4358,
      "Ġhanging": 4359,
      "Ġfreely": 4360,
      "Ġspirits": 4361,
      "Ġcommanded": 4362,
      "Ġassured": 4363,
      "Ġrememb": 4364,
      "Ġrecord": 4365,
      "Ġmarket": 4366,
      "Ġdeserves": 4367,
      "Ġawake": 4368,
      "Ġcursed": 4369,
      "Ġfeeling": 4370,
      "Ġleads": 4371,
      "Ġemploy": 4372,
      "Ġcorre": 4373,
      "Ġincrease": 4374,
      "Ġresolved": 4375,
      "Ġsky": 4376,
      "ĠPomfret": 4377,
      "ney": 4378,
      "Ġrebellion": 4379,
      "Ġprivile": 4380,
      "Ġdaily": 4381,
      "Ġprotest": 4382,
      "Ġbeasts": 4383,
      "eeming": 4384,
      "Ġurged": 4385,
      "Ġprinces": 4386,
      "Ġprincess": 4387,
      "Ġcolours": 4388,
      "Ġinstruct": 4389,
      "Ġdetermined": 4390,
      "Ġpetition": 4391,
      "Ġprosperous": 4392,
      "Ġdamned": 4393,
      "Ġforsworn": 4394,
      "Ġreverence": 4395,
      "Ġjoints": 4396,
      "Ġcounterfeit": 4397,
      "Ġbehalf": 4398,
      "Ġstatue": 4399,
      "Ġsmooth": 4400,
      "Ġflatte": 4401,
      "Ġspecial": 4402,
      "Ġthroat": 4403,
      "Ġearnest": 4404,
      "Ġgrievous": 4405,
      "ienna": 4406,
      "atcliff": 4407,
      "?--": 4408,
      "Acc": 4409,
      "Cons": 4410,
      "Camillo": 4411,
      "CRO": 4412,
      "Down": 4413,
      "EP": 4414,
      "GH": 4415,
      "HEN": 4416,
      "Hie": 4417,
      "Lay": 4418,
      "Long": 4419,
      "Leave": 4420,
      "Might": 4421,
      "Methought": 4422,
      "Oh": 4423,
      "Page": 4424,
      "Right": 4425,
      "Save": 4426,
      "Somet": 4427,
      "SIR": 4428,
      "Tush": 4429,
      "TEP": 4430,
      "Very": 4431,
      "Ye": 4432,
      "aol": 4433,
      "ban": 4434,
      "bri": 4435,
      "bation": 4436,
      "cr": 4437,
      "can": 4438,
      "cure": 4439,
      "cary": 4440,
      "do": 4441,
      "dy": 4442,
      "ex": 4443,
      "eve": 4444,
      "ered": 4445,
      "give": 4446,
      "iar": 4447,
      "iven": 4448,
      "ipe": 4449,
      "lanch": 4450,
      "my": 4451,
      "mon": 4452,
      "nal": 4453,
      "oke": 4454,
      "oved": 4455,
      "rt": 4456,
      "sha": 4457,
      "vior": 4458,
      "wife": 4459,
      "xeter": 4460,
      "yr": 4461,
      "yond": 4462,
      "Ġer": 4463,
      "ĠTo": 4464,
      "ĠWhere": 4465,
      "ĠWhen": 4466,
      "Ġtut": 4467,
      "Ġtim": 4468,
      "Ġtest": 4469,
      "Ġtres": 4470,
      "Ġtable": 4471,
      "Ġtap": 4472,
      "Ġtaunt": 4473,
      "Ġtask": 4474,
      "Ġteeth": 4475,
      "Ġale": 4476,
      "Ġsal": 4477,
      "Ġsouth": 4478,
      "Ġmat": 4479,
      "Ġmessenger": 4480,
      "reme": 4481,
      "ories": 4482,
      "Ġfla": 4483,
      "Ġfun": 4484,
      "erd": 4485,
      "erve": 4486,
      "erate": 4487,
      "erby": 4488,
      "onci": 4489,
      "Ġdim": 4490,
      "Ġdig": 4491,
      "Ġdign": 4492,
      "Ġdying": 4493,
      "Ġcam": 4494,
      "Ġcatch": 4495,
      "Ġcease": 4496,
      "Ġled": 4497,
      "Ġline": 4498,
      "Ġnap": 4499,
      "Ġyon": 4500,
      "aries": 4501,
      "Ġthorn": 4502,
      "Ġthief": 4503,
      "Ġpot": 4504,
      "Ġpalm": 4505,
      "atic": 4506,
      "Ġbew": 4507,
      "Ġbethink": 4508,
      "Ġbeheld": 4509,
      "sell": 4510,
      "Ġmelanch": 4511,
      "herit": 4512,
      "adv": 4513,
      "enture": 4514,
      "Ġstar": 4515,
      "Ġstret": 4516,
      "Ġstamp": 4517,
      "rac": 4518,
      "rain": 4519,
      "Ġrej": 4520,
      "Ġdebt": 4521,
      "Ġsore": 4522,
      "roll": 4523,
      "room": 4524,
      "earer": 4525,
      "ams": 4526,
      "amour": 4527,
      "ushy": 4528,
      "Ġseason": 4529,
      "Ġspur": 4530,
      "ĠCan": 4531,
      "Ġvows": 4532,
      "artius": 4533,
      "Ġmanage": 4534,
      "ĠElbow": 4535,
      "ĠExeter": 4536,
      "ical": 4537,
      "Ġconce": 4538,
      "Ġcomb": 4539,
      "Ġcomple": 4540,
      "ember": 4541,
      "olute": 4542,
      "Ġblush": 4543,
      "Ġhereafter": 4544,
      "Ġswell": 4545,
      "Ġswallow": 4546,
      "ĠSee": 4547,
      "ĠSCRO": 4548,
      "ĠSTEP": 4549,
      "Ġunse": 4550,
      "Ġunjust": 4551,
      "Ġsaying": 4552,
      "ĠVienna": 4553,
      "ĠLartius": 4554,
      "Ġrust": 4555,
      "akest": 4556,
      "Young": 4557,
      "elve": 4558,
      "Ġshouldst": 4559,
      "Ġdisper": 4560,
      "ĠPETER": 4561,
      "deem": 4562,
      "ĠYet": 4563,
      "ĠYour": 4564,
      "Ġalike": 4565,
      "Ġdescend": 4566,
      "Ġwhereof": 4567,
      "Ġtells": 4568,
      "Ġflood": 4569,
      "Ġpartly": 4570,
      "Ġparticular": 4571,
      "Ġgreatest": 4572,
      "Ġadver": 4573,
      "Ġscatter": 4574,
      "Ġscope": 4575,
      "ĠDerby": 4576,
      "Ġcommons": 4577,
      "Ġappeal": 4578,
      "Ġapprehe": 4579,
      "ĠFl": 4580,
      "Ġwhisper": 4581,
      "forth": 4582,
      "Ġrepair": 4583,
      "Ġsets": 4584,
      "Ġpowerful": 4585,
      "Ġaccused": 4586,
      "Ġaccursed": 4587,
      "Ġputs": 4588,
      "Ġslept": 4589,
      "ruction": 4590,
      "Ġhelm": 4591,
      "Ġcompass": 4592,
      "Ġcock": 4593,
      "Ġprize": 4594,
      "Ġtremble": 4595,
      "Ġmeaning": 4596,
      "verend": 4597,
      "Ġnative": 4598,
      "Ġfortunes": 4599,
      "Ġboys": 4600,
      "Ġpleased": 4601,
      "Ġstrew": 4602,
      "Ġsoundly": 4603,
      "uteous": 4604,
      "Ġturns": 4605,
      "Ġsends": 4606,
      "Ġdiscover": 4607,
      "Ġmistake": 4608,
      "Ġcurst": 4609,
      "Ġcraft": 4610,
      "Ġinte": 4611,
      "Ġboar": 4612,
      "Ġpersu": 4613,
      "Ġspoken": 4614,
      "Ġslaves": 4615,
      "Ġreconci": 4616,
      "Ġmerit": 4617,
      "Whither": 4618,
      "Cannot": 4619,
      "noon": 4620,
      "Ġvisage": 4621,
      "Ġbeholding": 4622,
      "Ġsingle": 4623,
      "Ġbreathed": 4624,
      "Ġwait": 4625,
      "Ġwhiles": 4626,
      "Until": 4627,
      "Ġpraise": 4628,
      "Ġstopp": 4629,
      "chance": 4630,
      "Ġwaste": 4631,
      "Ġredress": 4632,
      "Ġveins": 4633,
      "Ġfrowns": 4634,
      "Ġthrice": 4635,
      "Ġdirect": 4636,
      "Ġaccept": 4637,
      "Ġburthen": 4638,
      "Ġwedding": 4639,
      "Ġrespected": 4640,
      "Ġtrumpet": 4641,
      "Ġtorch": 4642,
      "Ġtorment": 4643,
      "Ġframe": 4644,
      "Ġcomplain": 4645,
      "Ġfierce": 4646,
      "Ġshadows": 4647,
      "Ġinnoc": 4648,
      "Ġdetermine": 4649,
      "Ġsuspect": 4650,
      "DORSET": 4651,
      "Ġodds": 4652,
      "Prithee": 4653,
      "faced": 4654,
      "Ġhaply": 4655,
      "Ġgovernment": 4656,
      "Ġoccasion": 4657,
      "Ġstabb": 4658,
      "Ġgaze": 4659,
      "Ġsteeds": 4660,
      "Clarence": 4661,
      "Ġobedience": 4662,
      "othecary": 4663,
      "ĠHermione": 4664,
      "Ġavoid": 4665,
      "Ġdinner": 4666,
      "Ġlangu": 4667,
      "Ġtreacherous": 4668,
      "Ġcircum": 4669,
      "Ġlarge": 4670,
      "Ġamazed": 4671,
      "Ġprettiest": 4672,
      "ĠConspirator": 4673,
      "Ġpierce": 4674,
      "Ġvirgin": 4675,
      "ĠMayor": 4676,
      "Ġdisdain": 4677,
      "Ġabhor": 4678,
      "Ġaccording": 4679,
      "Ġflatterer": 4680,
      "Ġtrespass": 4681,
      "Ġmelancholy": 4682,
      "ĠSCROOP": 4683,
      "ĠSTEPHEN": 4684,
      "Cry": 4685,
      "CLE": 4686,
      "Coriol": 4687,
      "Each": 4688,
      "Father": 4689,
      "Ghost": 4690,
      "Know": 4691,
      "Lady": 4692,
      "Nothing": 4693,
      "RR": 4694,
      "Roman": 4695,
      "Set": 4696,
      "UR": 4697,
      "Wr": 4698,
      "ares": 4699,
      "aure": 4700,
      "cceed": 4701,
      "dig": 4702,
      "fold": 4703,
      "ghan": 4704,
      "iam": 4705,
      "kin": 4706,
      "maid": 4707,
      "oc": 4708,
      "oice": 4709,
      "ratch": 4710,
      "son": 4711,
      "than": 4712,
      "tic": 4713,
      "tles": 4714,
      "vive": 4715,
      "war": 4716,
      "wear": 4717,
      "Ġz": 4718,
      "Ġing": 4719,
      "ĠNow": 4720,
      "Ġtide": 4721,
      "Ġtakes": 4722,
      "Ġtail": 4723,
      "Ġable": 4724,
      "Ġsy": 4725,
      "Ġship": 4726,
      "Ġsnow": 4727,
      "Ġmor": 4728,
      "Ġmess": 4729,
      "Ġmult": 4730,
      "Ġmaintain": 4731,
      "ino": 4732,
      "Ġwing": 4733,
      "had": 4734,
      "Ġbade": 4735,
      "Ġfame": 4736,
      "Ġfancy": 4737,
      "Ġfashi": 4738,
      "erity": 4739,
      "ithal": 4740,
      "Ġdow": 4741,
      "Ġdate": 4742,
      "Ġdiffe": 4743,
      "Ġcost": 4744,
      "esar": 4745,
      "enant": 4746,
      "Ġyes": 4747,
      "Ġyond": 4748,
      "Ġthird": 4749,
      "Ġhie": 4750,
      "Ġhun": 4751,
      "Ġhire": 4752,
      "Ġtooth": 4753,
      "Ġpin": 4754,
      "Ġped": 4755,
      "Ġpound": 4756,
      "Ġpage": 4757,
      "Ġpatrici": 4758,
      "othes": 4759,
      "stable": 4760,
      "strous": 4761,
      "aning": 4762,
      "Ġgently": 4763,
      "atest": 4764,
      "ative": 4765,
      "Ġbef": 4766,
      "Ġbere": 4767,
      "Ġbeyond": 4768,
      "Ġinqu": 4769,
      "Ġhaught": 4770,
      "etite": 4771,
      "utenant": 4772,
      "Ġmelt": 4773,
      "Ġfors": 4774,
      "Ġforfeit": 4775,
      "Ġwithdraw": 4776,
      "Ġits": 4777,
      "rif": 4778,
      "Ġste": 4779,
      "Ġstro": 4780,
      "Ġstout": 4781,
      "Ġstroke": 4782,
      "Ġstuff": 4783,
      "Ġrevol": 4784,
      "Ġredeem": 4785,
      "ases": 4786,
      "alse": 4787,
      "aline": 4788,
      "Ġasleep": 4789,
      "Ġshape": 4790,
      "Ġnobly": 4791,
      "amed": 4792,
      "ified": 4793,
      "Ġsell": 4794,
      "Ġsees": 4795,
      "Thine": 4796,
      "Those": 4797,
      "Ġsue": 4798,
      "Ġsucceed": 4799,
      "Ġalliance": 4800,
      "Ġlover": 4801,
      "Ġspare": 4802,
      "Ġfawn": 4803,
      "ĠRos": 4804,
      "Ġshallow": 4805,
      "iliar": 4806,
      "Ġknife": 4807,
      "seless": 4808,
      "Ġmanifest": 4809,
      "Ġconfe": 4810,
      "Ġconstant": 4811,
      "ongst": 4812,
      "Help": 4813,
      "olved": 4814,
      "Ġhated": 4815,
      "ĠGive": 4816,
      "Ġblus": 4817,
      "ersu": 4818,
      "ĠSo": 4819,
      "Ġsirs": 4820,
      "Ġarg": 4821,
      "LIS": 4822,
      "ĠBl": 4823,
      "ĠBer": 4824,
      "ĠLaure": 4825,
      "Ġwors": 4826,
      "Whether": 4827,
      "OMENES": 4828,
      "Ġprovo": 4829,
      "Ġproclam": 4830,
      "Ġdisple": 4831,
      "Ġdisgrace": 4832,
      "ĠPerd": 4833,
      "aughan": 4834,
      "ĠWell": 4835,
      "ĠWilts": 4836,
      "Ġalthough": 4837,
      "harged": 4838,
      "Ġoffic": 4839,
      "Ġabide": 4840,
      "Ġrob": 4841,
      "Ġrogue": 4842,
      "Noble": 4843,
      "Ġflint": 4844,
      "Whereto": 4845,
      "Ġbetray": 4846,
      "Ġtwelve": 4847,
      "Ġrare": 4848,
      "Ġwrink": 4849,
      "Ġsweeter": 4850,
      "Ġperj": 4851,
      "Ġperfect": 4852,
      "ullus": 4853,
      "Ġcommission": 4854,
      "Ġbearing": 4855,
      "Ġapparent": 4856,
      "Ġappetite": 4857,
      "Ġbegan": 4858,
      "ĠFroth": 4859,
      "ĠMarian": 4860,
      "Ġimage": 4861,
      "Ġconsort": 4862,
      "Ġcontract": 4863,
      "Ġpeer": 4864,
      "Ġpeers": 4865,
      "Ġchildish": 4866,
      "ercy": 4867,
      "Ġclothes": 4868,
      "Ġentrance": 4869,
      "Ġchase": 4870,
      "Ġcharac": 4871,
      "Ġbacks": 4872,
      "Ġcounten": 4873,
      "Ġbraw": 4874,
      "ables": 4875,
      "Ġrights": 4876,
      "Ġimposs": 4877,
      "Ġbuild": 4878,
      "Ġgriefs": 4879,
      "Ġgrat": 4880,
      "Ġwants": 4881,
      "Ġserves": 4882,
      "Ġvirtues": 4883,
      "Ġcraves": 4884,
      "Ġintellig": 4885,
      "upon": 4886,
      "upid": 4887,
      "Ġdefence": 4888,
      "Ġgrey": 4889,
      "Ġfaithful": 4890,
      "Ġaffli": 4891,
      "Ġrecom": 4892,
      "Ġmonument": 4893,
      "Ġsooner": 4894,
      "Ġheirs": 4895,
      "Ġsupposed": 4896,
      "Ġsilent": 4897,
      "Ġtrusty": 4898,
      "Ġprofane": 4899,
      "Ġforeign": 4900,
      "Ġhardly": 4901,
      "Ġresolution": 4902,
      "Ġburns": 4903,
      "Ġsacrif": 4904,
      "Ġforbear": 4905,
      "Ġforgive": 4906,
      "Ġsickness": 4907,
      "Ġrebels": 4908,
      "TYRR": 4909,
      "Ġvex": 4910,
      "Ġregal": 4911,
      "Ġpossession": 4912,
      "Ġsaints": 4913,
      "ĠVolsci": 4914,
      "Ġestate": 4915,
      "Ġshoes": 4916,
      "Ġbarren": 4917,
      "Ġpieces": 4918,
      "umbling": 4919,
      "Ġdrops": 4920,
      "Ġmodest": 4921,
      "Ġmodesty": 4922,
      "Ġdestroy": 4923,
      "Ġuncles": 4924,
      "Beseech": 4925,
      "Ġoppos": 4926,
      "Ġobject": 4927,
      "Ġgarland": 4928,
      "Ġshield": 4929,
      "Ġslip": 4930,
      "Ġelder": 4931,
      "Ġentertainment": 4932,
      "Ġtempest": 4933,
      "Supp": 4934,
      "Ġshroud": 4935,
      "Ġdismal": 4936,
      "Ġsubstance": 4937,
      "Ġchurchyard": 4938,
      "Ġstudy": 4939,
      "ĠAnti": 4940,
      "Ġtyranny": 4941,
      "Ġacquaint": 4942,
      "Ġthreatening": 4943,
      "Ġedge": 4944,
      "Ġeagle": 4945,
      "ĠSicilia": 4946,
      "Ġequal": 4947,
      "Ġimprisonment": 4948,
      "Commend": 4949,
      "Ġtrembling": 4950,
      "Ġesc": 4951,
      "Ġtorture": 4952,
      "Ġsharp": 4953,
      "Ġdurst": 4954,
      "Ġperpetual": 4955,
      "Ġsanctuary": 4956,
      "Ġfarther": 4957,
      "Ġremembrance": 4958,
      "Ġprivilege": 4959,
      "aoler": 4960,
      "CLEOMENES": 4961,
      "Ġstrokes": 4962,
      "Ġconference": 4963,
      "ĠLaurence": 4964,
      "ĠPerdita": 4965,
      "ĠWiltshire": 4966,
      "TYRREL": 4967,
      ".--": 4968,
      "GO": 4969,
      "Get": 4970,
      "Ho": 4971,
      "IT": 4972,
      "Im": 4973,
      "King": 4974,
      "Love": 4975,
      "Men": 4976,
      "Many": 4977,
      "Name": 4978,
      "Ri": 4979,
      "Rel": 4980,
      "TON": 4981,
      "UGH": 4982,
      "Vols": 4983,
      "app": 4984,
      "acc": 4985,
      "action": 4986,
      "cra": 4987,
      "ded": 4988,
      "ders": 4989,
      "eat": 4990,
      "ext": 4991,
      "fess": 4992,
      "gn": 4993,
      "go": 4994,
      "gy": 4995,
      "got": 4996,
      "great": 4997,
      "iver": 4998,
      "iving": 4999,
      "ips": 5000,
      "ker": 5001,
      "kind": 5002,
      "ny": 5003,
      "new": 5004,
      "nicious": 5005,
      "op": 5006,
      "oes": 5007,
      "rs": 5008,
      "run": 5009,
      "ront": 5010,
      "say": 5011,
      "time": 5012,
      "uc": 5013,
      "upt": 5014,
      "uries": 5015,
      "ĠNay": 5016,
      "ĠTherefore": 5017,
      "Ġtard": 5018,
      "Ġtune": 5019,
      "hest": 5020,
      "Ġages": 5021,
      "Ġsed": 5022,
      "Ġsink": 5023,
      "Ġsire": 5024,
      "Ġsought": 5025,
      "Ġmil": 5026,
      "Ġmag": 5027,
      "Ġmiss": 5028,
      "Ġmaking": 5029,
      "Ġmethought": 5030,
      "iny": 5031,
      "iner": 5032,
      "Ġwhip": 5033,
      "Ġwaked": 5034,
      "rewd": 5035,
      "Ġbuck": 5036,
      "ishes": 5037,
      "Ġfi": 5038,
      "Ġfood": 5039,
      "itute": 5040,
      "onation": 5041,
      "Ġdress": 5042,
      "Ġcat": 5043,
      "Ġcher": 5044,
      "Ġcrow": 5045,
      "Ġciv": 5046,
      "Ġcords": 5047,
      "Ġlour": 5048,
      "Ġlent": 5049,
      "Ġlur": 5050,
      "Ġlun": 5051,
      "Ġnest": 5052,
      "Ġnail": 5053,
      "Ġnumb": 5054,
      "Ġyoke": 5055,
      "arried": 5056,
      "Ġthir": 5057,
      "Ġhor": 5058,
      "Ġhind": 5059,
      "Ġope": 5060,
      "Ġpi": 5061,
      "Ġpath": 5062,
      "Ġparent": 5063,
      "Ġheels": 5064,
      "owl": 5065,
      "stery": 5066,
      "ances": 5067,
      "ature": 5068,
      "sey": 5069,
      "Ġmystery": 5070,
      "Ġink": 5071,
      "Ġmem": 5072,
      "Ġmeat": 5073,
      "Ġmeant": 5074,
      "chief": 5075,
      "Ġforced": 5076,
      "keley": 5077,
      "Ġwealth": 5078,
      "rick": 5079,
      "ribunes": 5080,
      "Ġstick": 5081,
      "rage": 5082,
      "Ġreck": 5083,
      "Ġreverend": 5084,
      "Ġlivery": 5085,
      "Ġliken": 5086,
      "idence": 5087,
      "Ġdeb": 5088,
      "Ġdeceit": 5089,
      "Ġdozen": 5090,
      "Ġwills": 5091,
      "Ġwilling": 5092,
      "Ġsham": 5093,
      "Ġseest": 5094,
      "Ġsepul": 5095,
      "Ġlovest": 5096,
      "Ġherd": 5097,
      "Ġanch": 5098,
      "Ġanointed": 5099,
      "Ġsple": 5100,
      "Ġfact": 5101,
      "ĠCounty": 5102,
      "iling": 5103,
      "ilful": 5104,
      "ilence": 5105,
      "Ġvill": 5106,
      "Ġvouch": 5107,
      "Ġneat": 5108,
      "Ġshrewd": 5109,
      "nty": 5110,
      "icles": 5111,
      "iece": 5112,
      "ĠGree": 5113,
      "ĠGreen": 5114,
      "Ġblast": 5115,
      "ĠOff": 5116,
      "ĠSly": 5117,
      "Ġunm": 5118,
      "pping": 5119,
      "ĠBushy": 5120,
      "LOUGH": 5121,
      "ĠVal": 5122,
      "ĠVaughan": 5123,
      "ĠLe": 5124,
      "ignty": 5125,
      "Ġsack": 5126,
      "Ġdeaths": 5127,
      "arel": 5128,
      "ĠPro": 5129,
      "ĠWIL": 5130,
      "Ġalms": 5131,
      "harge": 5132,
      "irect": 5133,
      "Ġmarks": 5134,
      "Ġroar": 5135,
      "Ġdescent": 5136,
      "Ġdesires": 5137,
      "Ġbabes": 5138,
      "Ġwarri": 5139,
      "Ġfears": 5140,
      "Ġqual": 5141,
      "Ġlap": 5142,
      "Ġbred": 5143,
      "Ġbreed": 5144,
      "aged": 5145,
      "Ġbetimes": 5146,
      "Ġheavenly": 5147,
      "Ġparted": 5148,
      "Ġhasty": 5149,
      "ized": 5150,
      "Ġfairly": 5151,
      "Ġnewly": 5152,
      "ĠTar": 5153,
      "ĠTitus": 5154,
      "love": 5155,
      "Ġraised": 5156,
      "Ġrascal": 5157,
      "Ġscold": 5158,
      "Ġscandal": 5159,
      "Ġpernicious": 5160,
      "ĠDo": 5161,
      "ĠDorset": 5162,
      "Ġnighting": 5163,
      "Ġremorse": 5164,
      "Ġremove": 5165,
      "Ġbegu": 5166,
      "Ġbegun": 5167,
      "ĠFare": 5168,
      "Ġwhit": 5169,
      "Ġcontempt": 5170,
      "Ġclim": 5171,
      "Ġstays": 5172,
      "Proceed": 5173,
      "osing": 5174,
      "Ġaccident": 5175,
      "Ġrestore": 5176,
      "Ġyoungest": 5177,
      "Ġpaid": 5178,
      "Ġwitch": 5179,
      "ably": 5180,
      "Ġcoff": 5181,
      "Ġcheap": 5182,
      "Ġlightning": 5183,
      "Ġminds": 5184,
      "Ġdepend": 5185,
      "Does": 5186,
      "Ġmisfortune": 5187,
      "Ġdevotion": 5188,
      "Ġcounc": 5189,
      "Ġcounsell": 5190,
      "Ġpassion": 5191,
      "Ġafternoon": 5192,
      "Ġsenseless": 5193,
      "BAGO": 5194,
      "Ġsovereignty": 5195,
      "Ġcourteous": 5196,
      "Ġsleeping": 5197,
      "Ġcountrymen": 5198,
      "Ġserp": 5199,
      "Ġbelow": 5200,
      "Ġdoubtful": 5201,
      "Ġfalsehood": 5202,
      "Ġmistrust": 5203,
      "Ġcurt": 5204,
      "Ġrule": 5205,
      "Ġruled": 5206,
      "Ġsights": 5207,
      "Ġsometimes": 5208,
      "Ġyielded": 5209,
      "itten": 5210,
      "Ġwinds": 5211,
      "should": 5212,
      "Ġkisses": 5213,
      "Ġcontented": 5214,
      "Didst": 5215,
      "soever": 5216,
      "Ġsupper": 5217,
      "Ġsuitor": 5218,
      "gued": 5219,
      "guard": 5220,
      "Ġexecuted": 5221,
      "Ġmouths": 5222,
      "Ġabsolute": 5223,
      "Ġskill": 5224,
      "Ġfourte": 5225,
      "Ġselfsame": 5226,
      "Ġlamentable": 5227,
      "Ġviolence": 5228,
      "Ġproport": 5229,
      "rumio": 5230,
      "Ġblem": 5231,
      "Ġdeparture": 5232,
      "Ġbitterly": 5233,
      "Above": 5234,
      "Ġestim": 5235,
      "Ġesteem": 5236,
      "Ġtriumphant": 5237,
      "Ġfamiliar": 5238,
      "Ġpitch": 5239,
      "Ġpitiful": 5240,
      "Ġservants": 5241,
      "EXTON": 5242,
      "Ġduked": 5243,
      "March": 5244,
      "Ġrefuse": 5245,
      "Ġunfold": 5246,
      "Ġbastards": 5247,
      "ĠLucentio": 5248,
      "Ġrank": 5249,
      "Ġeldest": 5250,
      "Gentlemen": 5251,
      "Ġchaste": 5252,
      "Neither": 5253,
      "Ġgrandam": 5254,
      "Ġaffections": 5255,
      "otted": 5256,
      "Ġmonths": 5257,
      "Ġbirds": 5258,
      "Ġholp": 5259,
      "Officer": 5260,
      "Ġlength": 5261,
      "Better": 5262,
      "Ġwreck": 5263,
      "Ġprophet": 5264,
      "Ġpenitent": 5265,
      "Ġiron": 5266,
      "Return": 5267,
      "Ġballad": 5268,
      "Ġcompanion": 5269,
      "Remember": 5270,
      "Ġadversaries": 5271,
      "Ġwondrous": 5272,
      "Ġcerem": 5273,
      "Ġrepeal": 5274,
      "Ġruthless": 5275,
      "Ġjourney": 5276,
      "Ġrapier": 5277,
      "yrrel": 5278,
      "Ġtapster": 5279,
      "Ġstretch": 5280,
      "Ġconceal": 5281,
      "Ġdowry": 5282,
      "Ġpatricians": 5283,
      "ĠRosaline": 5284,
      "ĠBerkeley": 5285,
      "Ġproclamation": 5286,
      "ĠMariana": 5287,
      "Volsce": 5288,
      "Ġcivil": 5289,
      "Ġthirty": 5290,
      "Ġsepulch": 5291,
      "ĠOfficer": 5292,
      "LOUGHBY": 5293,
      "ĠWILLOUGHBY": 5294,
      "BAGOT": 5295,
      "Ġfourteen": 5296,
      "Ġdukedom": 5297,
      "Bra": 5298,
      "Cond": 5299,
      "Courage": 5300,
      "Draw": 5301,
      "Fl": 5302,
      "Fore": 5303,
      "Find": 5304,
      "Fair": 5305,
      "FRO": 5306,
      "Henry": 5307,
      "Kn": 5308,
      "Keep": 5309,
      "Lie": 5310,
      "Mis": 5311,
      "Making": 5312,
      "Persu": 5313,
      "Qu": 5314,
      "Sm": 5315,
      "Saw": 5316,
      "Toward": 5317,
      "Tranio": 5318,
      "Warwick": 5319,
      "ait": 5320,
      "awn": 5321,
      "bus": 5322,
      "bod": 5323,
      "cus": 5324,
      "done": 5325,
      "gar": 5326,
      "gers": 5327,
      "gentle": 5328,
      "how": 5329,
      "ib": 5330,
      "iate": 5331,
      "mas": 5332,
      "nes": 5333,
      "phy": 5334,
      "rim": 5335,
      "sist": 5336,
      "sues": 5337,
      "ted": 5338,
      "tend": 5339,
      "ugg": 5340,
      "wer": 5341,
      "wing": 5342,
      "xe": 5343,
      "Ġought": 5344,
      "Ġtou": 5345,
      "Ġtrow": 5346,
      "Ġtig": 5347,
      "Ġtarry": 5348,
      "here": 5349,
      "Ġah": 5350,
      "Ġaxe": 5351,
      "oubt": 5352,
      "Ġmill": 5353,
      "Ġmood": 5354,
      "Ġmain": 5355,
      "Ġmirth": 5356,
      "inate": 5357,
      "Ġwest": 5358,
      "Ġward": 5359,
      "Ġwide": 5360,
      "Ġwench": 5361,
      "hand": 5362,
      "Ġbla": 5363,
      "Ġbott": 5364,
      "orth": 5365,
      "Ġfro": 5366,
      "Ġfant": 5367,
      "Ġfurn": 5368,
      "Ġfix": 5369,
      "Ġfreed": 5370,
      "ital": 5371,
      "itable": 5372,
      "itiff": 5373,
      "onest": 5374,
      "Ġdaint": 5375,
      "Ġclock": 5376,
      "Ġluck": 5377,
      "Ġlute": 5378,
      "esu": 5379,
      "enches": 5380,
      "envol": 5381,
      "Ġnim": 5382,
      "arm": 5383,
      "Ġthick": 5384,
      "Ġthumb": 5385,
      "Ġhom": 5386,
      "Ġhig": 5387,
      "Ġhoney": 5388,
      "Ġhung": 5389,
      "Ġoak": 5390,
      "Ġtoad": 5391,
      "Ġpow": 5392,
      "Ġpent": 5393,
      "Ġpick": 5394,
      "Ġpause": 5395,
      "Ġpomp": 5396,
      "Ġheed": 5397,
      "Ġhera": 5398,
      "Ġheigh": 5399,
      "ĠIta": 5400,
      "ingers": 5401,
      "Ġgn": 5402,
      "Ġgent": 5403,
      "Ġgap": 5404,
      "Ġbell": 5405,
      "Ġbeams": 5406,
      "Ġinfection": 5407,
      "Ġhazard": 5408,
      "utch": 5409,
      "Ġnoted": 5410,
      "Ġnotice": 5411,
      "ours": 5412,
      "Ġweather": 5413,
      "oops": 5414,
      "illy": 5415,
      "illing": 5416,
      "hern": 5417,
      "rial": 5418,
      "rible": 5419,
      "Ġstern": 5420,
      "Ġstumble": 5421,
      "order": 5422,
      "Ġrece": 5423,
      "Ġreap": 5424,
      "Ġlift": 5425,
      "urrey": 5426,
      "Ġdece": 5427,
      "Ġdecl": 5428,
      "Ġsooth": 5429,
      "aming": 5430,
      "amity": 5431,
      "Ġsevere": 5432,
      "Ġsuper": 5433,
      "Ġsullen": 5434,
      "three": 5435,
      "Ġspy": 5436,
      "Ġourself": 5437,
      "ella": 5438,
      "ĠCupid": 5439,
      "ulf": 5440,
      "ulate": 5441,
      "Ġvar": 5442,
      "Ġvent": 5443,
      "Ġvol": 5444,
      "Ġnegle": 5445,
      "Ġshri": 5446,
      "Ġgoods": 5447,
      "ĠEm": 5448,
      "ĠGood": 5449,
      "Ġblunt": 5450,
      "Ġbran": 5451,
      "Ġbrat": 5452,
      "Ġcaught": 5453,
      "Ġcaitiff": 5454,
      "Ġtroops": 5455,
      "Ġswain": 5456,
      "Ġarrest": 5457,
      "Ġorn": 5458,
      "ĠBr": 5459,
      "ĠBur": 5460,
      "unken": 5461,
      "Ġgoss": 5462,
      "Ġworm": 5463,
      "Ġrans": 5464,
      "Ġjot": 5465,
      "cies": 5466,
      "ĠAd": 5467,
      "ĠAlb": 5468,
      "Ġsav": 5469,
      "Ġlikely": 5470,
      "Ġeng": 5471,
      "iced": 5472,
      "Ġoutrage": 5473,
      "Ġwholesome": 5474,
      "Ġoffices": 5475,
      "Ġoffended": 5476,
      "Ġmarvell": 5477,
      "Ġabuse": 5478,
      "Ġabused": 5479,
      "Ġaboard": 5480,
      "Ġrobb": 5481,
      "Soft": 5482,
      "Ġthinking": 5483,
      "Ġfoll": 5484,
      "Ġexam": 5485,
      "Ġexcept": 5486,
      "Ġexchange": 5487,
      "Ġflow": 5488,
      "Ġripe": 5489,
      "Ġleague": 5490,
      "agot": 5491,
      "Ġbetide": 5492,
      "Ġparties": 5493,
      "ĠTyrrel": 5494,
      "Ġstanding": 5495,
      "Ġcalled": 5496,
      "Ġrail": 5497,
      "Ġscratch": 5498,
      "ulls": 5499,
      "Ġnights": 5500,
      "Ġapparel": 5501,
      "thee": 5502,
      "them": 5503,
      "Ġcrowns": 5504,
      "Ġreply": 5505,
      "Ġreputation": 5506,
      "Ġhousehold": 5507,
      "ontes": 5508,
      "Ġkeeper": 5509,
      "Prove": 5510,
      "Proclaim": 5511,
      "Ġyounger": 5512,
      "Ġdearly": 5513,
      "Ġdrew": 5514,
      "Ġtrick": 5515,
      "Ġended": 5516,
      "Ġprice": 5517,
      "Ġhopeful": 5518,
      "Ġcheque": 5519,
      "Ġslight": 5520,
      "Ġconfirm": 5521,
      "Ġdrunken": 5522,
      "ancing": 5523,
      "ĠAnne": 5524,
      "GREY": 5525,
      "Ġlesser": 5526,
      "Ġdrag": 5527,
      "Ġretire": 5528,
      "Ġbreathing": 5529,
      "Ġthankful": 5530,
      "Ġserved": 5531,
      "Ġadventure": 5532,
      "Ġsecure": 5533,
      "Ġyields": 5534,
      "Ġboast": 5535,
      "Ġboots": 5536,
      "Ġspoil": 5537,
      "Ġbeauteous": 5538,
      "Ġwindows": 5539,
      "Ġcrim": 5540,
      "Ġbeaten": 5541,
      "Ġgrowing": 5542,
      "Ġcommonwe": 5543,
      "blood": 5544,
      "Ġmonstrous": 5545,
      "Ġcholer": 5546,
      "Ġsuitors": 5547,
      "Ġterm": 5548,
      "Ġdarest": 5549,
      "Ġsurely": 5550,
      "Ġstronger": 5551,
      "Ġdevilish": 5552,
      "Ġinfer": 5553,
      "Ġinfant": 5554,
      "Ġlads": 5555,
      "Ġexecute": 5556,
      "Ġsingular": 5557,
      "Ġminute": 5558,
      "Ġcarried": 5559,
      "Ġdistress": 5560,
      "Ġcoronation": 5561,
      "Ġincen": 5562,
      "Ġplainly": 5563,
      "Ġmusicians": 5564,
      "Ġburning": 5565,
      "Ġembra": 5566,
      "Ġapprobation": 5567,
      "ĠIsabella": 5568,
      "Ġregard": 5569,
      "Ġfavours": 5570,
      "Ġflattering": 5571,
      "Ġsignify": 5572,
      "Ġcowardly": 5573,
      "Ġblessing": 5574,
      "Ġbleeding": 5575,
      "Ġdirection": 5576,
      "Ġsatisfy": 5577,
      "Ġlimbs": 5578,
      "Ġago": 5579,
      "Ġactions": 5580,
      "Ġbooks": 5581,
      "Ġinjury": 5582,
      "Ġsafeguard": 5583,
      "Ġwriting": 5584,
      "Ġbending": 5585,
      "Ġurge": 5586,
      "grity": 5587,
      "Ġapace": 5588,
      "Ġtreasons": 5589,
      "Ġexecutioner": 5590,
      "Marcius": 5591,
      "Ġlenity": 5592,
      "Ġinstruction": 5593,
      "Play": 5594,
      "Ġgarments": 5595,
      "Ġgallant": 5596,
      "Ġpetty": 5597,
      "Ġpleasing": 5598,
      "Ġgreeting": 5599,
      "Ġamongst": 5600,
      "ĠCaesar": 5601,
      "Ġfairer": 5602,
      "Ġinstrument": 5603,
      "Ġfeather": 5604,
      "Ġcalamity": 5605,
      "Ġconclud": 5606,
      "Ġcovert": 5607,
      "Ġtyrannous": 5608,
      "Ġloathsome": 5609,
      "scalus": 5610,
      "Ġvanity": 5611,
      "Ġtransport": 5612,
      "ĠWilliam": 5613,
      "Ġdiscontented": 5614,
      "Ġsteps": 5615,
      "Ġpilgrimage": 5616,
      "Ġfigure": 5617,
      "Ġdearest": 5618,
      "Ġimmortal": 5619,
      "Ġpurchase": 5620,
      "Ġinstantly": 5621,
      "Ġadvanced": 5622,
      "Ġwolf": 5623,
      "Ġcensure": 5624,
      "Through": 5625,
      "Ġjewel": 5626,
      "Ġdiscourse": 5627,
      "banished": 5628,
      "Ġdignity": 5629,
      "Ġcamest": 5630,
      "advised": 5631,
      "Ġrejoice": 5632,
      "Ġcomplex": 5633,
      "Ġintegrity": 5634,
      "Ġreconcile": 5635,
      "Ġlanguage": 5636,
      "Ġcircumst": 5637,
      "Coriolanus": 5638,
      "Ġzeal": 5639,
      "Ġofficers": 5640,
      "Ġcharacter": 5641,
      "Ġcountenance": 5642,
      "Ġimpossible": 5643,
      "Ġcherish": 5644,
      "Ġlikeness": 5645,
      "Ġwarriors": 5646,
      "Ġproportion": 5647,
      "Ġsepulchre": 5648,
      "FROTH": 5649,
      "Towards": 5650,
      "Ġbottom": 5651,
      "envolio": 5652,
      "Ġherald": 5653,
      "ĠItaly": 5654,
      "AM": 5655,
      "ATER": 5656,
      "Add": 5657,
      "Apollo": 5658,
      "Bre": 5659,
      "BAR": 5660,
      "Cut": 5661,
      "Dep": 5662,
      "Dare": 5663,
      "ELAND": 5664,
      "Fo": 5665,
      "False": 5666,
      "Gard": 5667,
      "Grace": 5668,
      "Live": 5669,
      "Lies": 5670,
      "Lead": 5671,
      "MOR": 5672,
      "NARD": 5673,
      "Pur": 5674,
      "Part": 5675,
      "Patience": 5676,
      "Que": 5677,
      "Rather": 5678,
      "Ratcliff": 5679,
      "Son": 5680,
      "TMOR": 5681,
      "Virt": 5682,
      "Villain": 5683,
      "WES": 5684,
      "Woe": 5685,
      "WATER": 5686,
      "Zounds": 5687,
      "ZWATER": 5688,
      "af": 5689,
      "acy": 5690,
      "bra": 5691,
      "dess": 5692,
      "duke": 5693,
      "eg": 5694,
      "even": 5695,
      "foot": 5696,
      "horse": 5697,
      "honour": 5698,
      "jud": 5699,
      "last": 5700,
      "made": 5701,
      "opher": 5702,
      "pre": 5703,
      "pret": 5704,
      "pray": 5705,
      "pothecary": 5706,
      "rue": 5707,
      "sen": 5708,
      "sion": 5709,
      "trees": 5710,
      "uild": 5711,
      "vided": 5712,
      "women": 5713,
      "zed": 5714,
      "Ġeter": 5715,
      "Ġtro": 5716,
      "Ġtren": 5717,
      "Ġtaught": 5718,
      "Ġaud": 5719,
      "Ġsess": 5720,
      "Ġsings": 5721,
      "Ġsalt": 5722,
      "Ġsixt": 5723,
      "Ġsurp": 5724,
      "Ġwink": 5725,
      "Ġwag": 5726,
      "Ġwaking": 5727,
      "reet": 5728,
      "reason": 5729,
      "has": 5730,
      "nds": 5731,
      "Ġbent": 5732,
      "Ġbore": 5733,
      "Ġbul": 5734,
      "Ġborrow": 5735,
      "Ġbalm": 5736,
      "Ġbudge": 5737,
      "isa": 5738,
      "isement": 5739,
      "Ġfin": 5740,
      "Ġfan": 5741,
      "Ġfif": 5742,
      "Ġfray": 5743,
      "Ġfift": 5744,
      "Ġfever": 5745,
      "erp": 5746,
      "ering": 5747,
      "iter": 5748,
      "oned": 5749,
      "onious": 5750,
      "Ġdi": 5751,
      "Ġdancing": 5752,
      "Ġlance": 5753,
      "Ġlower": 5754,
      "essel": 5755,
      "Ġnet": 5756,
      "Ġnice": 5757,
      "Ġnupt": 5758,
      "Ġthin": 5759,
      "Ġthie": 5760,
      "Ġthirst": 5761,
      "Ġhorn": 5762,
      "Ġtoy": 5763,
      "Ġtops": 5764,
      "Ġphi": 5765,
      "Ġpest": 5766,
      "Ġpee": 5767,
      "Ġpict": 5768,
      "Ġpush": 5769,
      "Ġheat": 5770,
      "Ġheight": 5771,
      "Ġheinous": 5772,
      "vet": 5773,
      "ank": 5774,
      "ompl": 5775,
      "Ġgust": 5776,
      "Ġgains": 5777,
      "Ġbefall": 5778,
      "seem": 5779,
      "semble": 5780,
      "Ġhare": 5781,
      "Ġhaunt": 5782,
      "Ġhabit": 5783,
      "lect": 5784,
      "ayed": 5785,
      "Ġmew": 5786,
      "Ġmemb": 5787,
      "Ġisle": 5788,
      "Ġeff": 5789,
      "aded": 5790,
      "rich": 5791,
      "rieve": 5792,
      "Ġhist": 5793,
      "Ġrear": 5794,
      "Ġlick": 5795,
      "Ġlions": 5796,
      "Ġliking": 5797,
      "INE": 5798,
      "asp": 5799,
      "Ġdeer": 5800,
      "Ġdeck": 5801,
      "Ġsoil": 5802,
      "Ġsoci": 5803,
      "Ġaspect": 5804,
      "Ġashes": 5805,
      "hips": 5806,
      "ARLIS": 5807,
      "Ġdove": 5808,
      "Ġdole": 5809,
      "Ġdogs": 5810,
      "Ġshapes": 5811,
      "Ġseldom": 5812,
      "Ġsuits": 5813,
      "Ġalleg": 5814,
      "Ġload": 5815,
      "Ġlock": 5816,
      "Ġlodge": 5817,
      "ardel": 5818,
      "Ġspit": 5819,
      "Ġspread": 5820,
      "ORGE": 5821,
      "ĠCARLIS": 5822,
      "ules": 5823,
      "Ġvessel": 5824,
      "Ġshrift": 5825,
      "Ġupright": 5826,
      "ĠEscalus": 5827,
      "ication": 5828,
      "Ġamain": 5829,
      "Ġamiss": 5830,
      "Ġconceive": 5831,
      "ived": 5832,
      "Forgive": 5833,
      "iege": 5834,
      "ĠGrumio": 5835,
      "Ġshel": 5836,
      "ept": 5837,
      "Ġbranch": 5838,
      "Ġlovely": 5839,
      "Ġtroop": 5840,
      "Ġtrunk": 5841,
      "Ġsweat": 5842,
      "ĠSp": 5843,
      "ĠShore": 5844,
      "ĠSurrey": 5845,
      "Ġunl": 5846,
      "Ġunst": 5847,
      "Ġunwill": 5848,
      "Ġlets": 5849,
      "ĠBe": 5850,
      "ĠBagot": 5851,
      "ĠBenvolio": 5852,
      "uns": 5853,
      "unate": 5854,
      "Ġrhe": 5855,
      "Ġgrain": 5856,
      "aker": 5857,
      "ĠAway": 5858,
      "elsh": 5859,
      "Ġproved": 5860,
      "Ġprocess": 5861,
      "Ġlikewise": 5862,
      "Ġshoulder": 5863,
      "arers": 5864,
      "Ġens": 5865,
      "Ġmadness": 5866,
      "Ġdisin": 5867,
      "Ġdisgu": 5868,
      "Ġdisgra": 5869,
      "Ġdissemb": 5870,
      "ĠPray": 5871,
      "Ġheartily": 5872,
      "Withdraw": 5873,
      "ĠWest": 5874,
      "ĠWelsh": 5875,
      "Ġsomewhat": 5876,
      "orney": 5877,
      "Ġalso": 5878,
      "Ġlooked": 5879,
      "Ġearldom": 5880,
      "Ġexerc": 5881,
      "Ġdesc": 5882,
      "Ġplaints": 5883,
      "Ġflock": 5884,
      "Ġflourish": 5885,
      "Ġfearing": 5886,
      "Ġride": 5887,
      "Whereof": 5888,
      "lied": 5889,
      "Ġcouple": 5890,
      "bert": 5891,
      "Ġpartner": 5892,
      "Ġgreatness": 5893,
      "ĠTribunes": 5894,
      "loso": 5895,
      "Ġprefer": 5896,
      "Ġraven": 5897,
      "Ġwring": 5898,
      "Ġwritten": 5899,
      "Ġsweetest": 5900,
      "Ġworldly": 5901,
      "Ġotherwise": 5902,
      "Ġdownright": 5903,
      "Ġmoves": 5904,
      "Ġmoiety": 5905,
      "together": 5906,
      "Ġways": 5907,
      "Ġappea": 5908,
      "Ġremoved": 5909,
      "ĠFourth": 5910,
      "ĠFIT": 5911,
      "ĠKent": 5912,
      "Ġconspir": 5913,
      "Ġcontents": 5914,
      "Ġeverlast": 5915,
      "ercing": 5916,
      "Ġclamour": 5917,
      "forced": 5918,
      "Ġrepro": 5919,
      "Ġrepose": 5920,
      "ulting": 5921,
      "Ġchallen": 5922,
      "Ġharsh": 5923,
      "cheth": 5924,
      "Ġaccomp": 5925,
      "Ġpeaceful": 5926,
      "Ġsmiling": 5927,
      "Ġpace": 5928,
      "GEORGE": 5929,
      "Ġbestri": 5930,
      "Ġhenceforth": 5931,
      "Ġresc": 5932,
      "Ġresist": 5933,
      "Ġtrif": 5934,
      "Ġhelps": 5935,
      "Ġpurge": 5936,
      "Ġearthly": 5937,
      "Ġtrain": 5938,
      "Ġbank": 5939,
      "Ġbrains": 5940,
      "Ġsubd": 5941,
      "Ġcouldst": 5942,
      "being": 5943,
      "Ġlaws": 5944,
      "Ġprick": 5945,
      "Ġcharges": 5946,
      "Ġconfound": 5947,
      "Ġdepose": 5948,
      "Ġbeside": 5949,
      "Ġbesides": 5950,
      "Ġmisc": 5951,
      "Ġmischance": 5952,
      "Ġmischief": 5953,
      "Ġsorrows": 5954,
      "Ġbuz": 5955,
      "Ġstrive": 5956,
      "Ġrevenges": 5957,
      "Ġsounds": 5958,
      "Ġtack": 5959,
      "pense": 5960,
      "Ġwanting": 5961,
      "Ġprompt": 5962,
      "Ġhangs": 5963,
      "Ġcareless": 5964,
      "posed": 5965,
      "Ġbeaut": 5966,
      "Ġstranger": 5967,
      "IDAM": 5968,
      "Ġbeats": 5969,
      "Ġaffords": 5970,
      "Although": 5971,
      "Hadst": 5972,
      "Ġsadness": 5973,
      "ĠMontagues": 5974,
      "Ġmonarch": 5975,
      "Ġmurders": 5976,
      "Ġchose": 5977,
      "Ġchosen": 5978,
      "Ġsupply": 5979,
      "Ġspeedy": 5980,
      "Ġsuffic": 5981,
      "Ġwatery": 5982,
      "Ġpoints": 5983,
      "Ġboldly": 5984,
      "Ġlearning": 5985,
      "Ġconfessor": 5986,
      "Comfort": 5987,
      "Ġdivor": 5988,
      "Ġguiltless": 5989,
      "Ġminutes": 5990,
      "Ġbeggars": 5991,
      "Ġleaden": 5992,
      "Ġcloudy": 5993,
      "Ġsumm": 5994,
      "Ġgrieves": 5995,
      "Ġwax": 5996,
      "Ġchamp": 5997,
      "Ġpraises": 5998,
      "Trust": 5999,
      "eshrew": 6000,
      "Ġredempt": 6001,
      "Ġseated": 6002,
      "Ġprophes": 6003,
      "Ġdarkness": 6004,
      "overn": 6005,
      "Ġclean": 6006,
      "Ġtowns": 6007,
      "Ġweakness": 6008,
      "Ġkinsmen": 6009,
      "Ġlimit": 6010,
      "Ġpuiss": 6011,
      "Ġsmallest": 6012,
      "Ġsuccession": 6013,
      "Arm": 6014,
      "Ġagree": 6015,
      "ĠChristopher": 6016,
      "Ġfrail": 6017,
      "Ġinjustice": 6018,
      "Ġusurping": 6019,
      "Ġutmost": 6020,
      "Ġdestruction": 6021,
      "Ġlowly": 6022,
      "Ġadmir": 6023,
      "Ġdrunkard": 6024,
      "Ġcondemned": 6025,
      "Plantagenet": 6026,
      "Ġmeddle": 6027,
      "Ġgladly": 6028,
      "Ġignorance": 6029,
      "speak": 6030,
      "Ġunkind": 6031,
      "Ġmutinous": 6032,
      "Ġnobility": 6033,
      "Disp": 6034,
      "Ġforswear": 6035,
      "Ġconquest": 6036,
      "Ġgifts": 6037,
      "Ġdismiss": 6038,
      "acles": 6039,
      "where": 6040,
      "Ġlusty": 6041,
      "Ġconclude": 6042,
      "Ġbehavior": 6043,
      "Ġghostly": 6044,
      "Perhaps": 6045,
      "Ġarrived": 6046,
      "Ġnecessity": 6047,
      "Ġconjure": 6048,
      "Ġheavier": 6049,
      "Ġwandering": 6050,
      "Ġrenowned": 6051,
      "glass": 6052,
      "Ġbands": 6053,
      "Ġweapons": 6054,
      "Ġconcerns": 6055,
      "Ġkeys": 6056,
      "Appear": 6057,
      "Shalt": 6058,
      "safe": 6059,
      "ARCHIDAM": 6060,
      "Ġangel": 6061,
      "Strike": 6062,
      "Ġcorrection": 6063,
      "bric": 6064,
      "iveness": 6065,
      "Ġtestim": 6066,
      "Ġtaunts": 6067,
      "Ġunseen": 6068,
      "Ġdispersed": 6069,
      "Ġwhispering": 6070,
      "Ġfashion": 6071,
      "Ġhungry": 6072,
      "Ġbereft": 6073,
      "Ġinquire": 6074,
      "Ġblushing": 6075,
      "ĠBlunt": 6076,
      "Ġprovoked": 6077,
      "Ġopposite": 6078,
      "Ġescape": 6079,
      "Ġtardy": 6080,
      "Ġmilk": 6081,
      "Ġnumbers": 6082,
      "Ġmemory": 6083,
      "Ġspleen": 6084,
      "Ġnightingale": 6085,
      "Ġrestored": 6086,
      "Ġserpent": 6087,
      "Ġestimation": 6088,
      "Ġfreedom": 6089,
      "Ġransom": 6090,
      "Ġsavage": 6091,
      "Ġmarvellous": 6092,
      "Ġexample": 6093,
      "BARNARD": 6094,
      "Follow": 6095,
      "Gardener": 6096,
      "Queen": 6097,
      "TMORELAND": 6098,
      "WESTMORELAND": 6099,
      "Ġsixteen": 6100,
      "Ġfifteen": 6101,
      "Ġnuptial": 6102,
      "Ġphiloso": 6103,
      "Ġpeevish": 6104,
      "Ġmembers": 6105,
      "Ġallegiance": 6106,
      "ĠCARLISLE": 6107,
      "Ġexercise": 6108,
      "ĠFITZWATER": 6109,
      "Ġchallenge": 6110,
      "Ġredemption": 6111,
      "ARCHIDAMUS": 6112,
      "BARNARDINE": 6113,
      "Ġphilosophy": 6114,
      "Af": 6115,
      "Aw": 6116,
      "Again": 6117,
      "AGE": 6118,
      "Beshrew": 6119,
      "Che": 6120,
      "Cle": 6121,
      "Chi": 6122,
      "Cont": 6123,
      "Eng": 6124,
      "Else": 6125,
      "Five": 6126,
      "Friar": 6127,
      "Gra": 6128,
      "Gentleman": 6129,
      "Girl": 6130,
      "Groom": 6131,
      "Gaoler": 6132,
      "Huntsman": 6133,
      "Hortensio": 6134,
      "Justice": 6135,
      "Left": 6136,
      "Much": 6137,
      "Mist": 6138,
      "Perc": 6139,
      "Peter": 6140,
      "Petruchio": 6141,
      "PAGE": 6142,
      "Sound": 6143,
      "Six": 6144,
      "Ten": 6145,
      "Truly": 6146,
      "Wife": 6147,
      "Women": 6148,
      "Yield": 6149,
      "ald": 6150,
      "aven": 6151,
      "awd": 6152,
      "bow": 6153,
      "bid": 6154,
      "best": 6155,
      "bble": 6156,
      "boy": 6157,
      "bune": 6158,
      "back": 6159,
      "board": 6160,
      "bearer": 6161,
      "cot": 6162,
      "cont": 6163,
      "cock": 6164,
      "from": 6165,
      "fend": 6166,
      "gic": 6167,
      "grown": 6168,
      "gues": 6169,
      "govern": 6170,
      "ipt": 6171,
      "ky": 6172,
      "lm": 6173,
      "low": 6174,
      "lain": 6175,
      "light": 6176,
      "long": 6177,
      "liness": 6178,
      "longs": 6179,
      "may": 6180,
      "mal": 6181,
      "mind": 6182,
      "master": 6183,
      "miss": 6184,
      "off": 6185,
      "ops": 6186,
      "phan": 6187,
      "part": 6188,
      "rit": 6189,
      "rat": 6190,
      "sick": 6191,
      "such": 6192,
      "tied": 6193,
      "uge": 6194,
      "uced": 6195,
      "ually": 6196,
      "vied": 6197,
      "ws": 6198,
      "wat": 6199,
      "wart": 6200,
      "Ġice": 6201,
      "ĠQueen": 6202,
      "Ġtie": 6203,
      "Ġtink": 6204,
      "Ġtame": 6205,
      "Ġtorn": 6206,
      "Ġtall": 6207,
      "Ġtree": 6208,
      "Ġtaking": 6209,
      "Ġtakest": 6210,
      "Ġape": 6211,
      "Ġaged": 6212,
      "oured": 6213,
      "Ġsn": 6214,
      "Ġsand": 6215,
      "Ġsong": 6216,
      "Ġsides": 6217,
      "Ġsongs": 6218,
      "inal": 6219,
      "inct": 6220,
      "Ġwipe": 6221,
      "reant": 6222,
      "ndy": 6223,
      "Ġbon": 6224,
      "Ġbol": 6225,
      "Ġbrown": 6226,
      "Ġbud": 6227,
      "Ġbought": 6228,
      "isle": 6229,
      "ision": 6230,
      "orter": 6231,
      "oriz": 6232,
      "Ġfish": 6233,
      "Ġfret": 6234,
      "Ġfran": 6235,
      "Ġfelt": 6236,
      "Ġfingers": 6237,
      "Ġfardel": 6238,
      "erily": 6239,
      "itch": 6240,
      "onus": 6241,
      "onstant": 6242,
      "Ġder": 6243,
      "Ġdined": 6244,
      "Ġchat": 6245,
      "Ġcent": 6246,
      "Ġcla": 6247,
      "Ġcrew": 6248,
      "Ġlin": 6249,
      "Ġlame": 6250,
      "Ġlinger": 6251,
      "Ġnort": 6252,
      "Ġnaught": 6253,
      "Ġnourish": 6254,
      "Ġnamed": 6255,
      "Ġhy": 6256,
      "Ġhounds": 6257,
      "Ġobt": 6258,
      "Ġtoil": 6259,
      "Ġtomorrow": 6260,
      "Ġpat": 6261,
      "Ġpear": 6262,
      "Ġpaint": 6263,
      "Ġpup": 6264,
      "hath": 6265,
      "Ġhedge": 6266,
      "owick": 6267,
      "omes": 6268,
      "omenes": 6269,
      "Ġgather": 6270,
      "Ġgown": 6271,
      "Ġgoose": 6272,
      "Ġgeld": 6273,
      "ato": 6274,
      "athe": 6275,
      "athed": 6276,
      "cels": 6277,
      "Ġinch": 6278,
      "Ġinward": 6279,
      "Ġinherit": 6280,
      "Ġhall": 6281,
      "ldren": 6282,
      "ednes": 6283,
      "Ġmeed": 6284,
      "Ġug": 6285,
      "Ġforty": 6286,
      "Ġweal": 6287,
      "advent": 6288,
      "entious": 6289,
      "ril": 6290,
      "Ġstem": 6291,
      "Ġstale": 6292,
      "Ġstiff": 6293,
      "Ġstead": 6294,
      "rament": 6295,
      "Ġrein": 6296,
      "Ġrend": 6297,
      "Ġreach": 6298,
      "Ġrevive": 6299,
      "Ġlivest": 6300,
      "urb": 6301,
      "uring": 6302,
      "urgh": 6303,
      "urvy": 6304,
      "iders": 6305,
      "Ġdeaf": 6306,
      "alks": 6307,
      "ropp": 6308,
      "Ġdoves": 6309,
      "Ġshare": 6310,
      "Ġnoses": 6311,
      "Ġsearch": 6312,
      "Ġseized": 6313,
      "Throw": 6314,
      "Things": 6315,
      "Ġsung": 6316,
      "Ġsunder": 6317,
      "thing": 6318,
      "throw": 6319,
      "Ġlovers": 6320,
      "Ġhers": 6321,
      "Ġansw": 6322,
      "Ġantic": 6323,
      "Ġspect": 6324,
      "Ġspurs": 6325,
      "Ġspider": 6326,
      "hance": 6327,
      "ĠRaven": 6328,
      "Ġvass": 6329,
      "Ġknot": 6330,
      "Ġknaves": 6331,
      "Ġwhatsoever": 6332,
      "Ġshook": 6333,
      "Ġshown": 6334,
      "ĠEly": 6335,
      "ĠELY": 6336,
      "Ġprate": 6337,
      "Ġprime": 6338,
      "Ġamends": 6339,
      "Ġambit": 6340,
      "Ġamorous": 6341,
      "Ġconver": 6342,
      "Ġconsequ": 6343,
      "odowick": 6344,
      "Forbid": 6345,
      "olks": 6346,
      "eping": 6347,
      "Ġthereby": 6348,
      "Ġknowing": 6349,
      "Ġbru": 6350,
      "Ġcaps": 6351,
      "Ġtrim": 6352,
      "Ġtrades": 6353,
      "Ġherein": 6354,
      "Ġswo": 6355,
      "Ġunth": 6356,
      "Ġunfe": 6357,
      "Ġunruly": 6358,
      "Ġunlook": 6359,
      "ums": 6360,
      "umed": 6361,
      "Ġorator": 6362,
      "Ġorphan": 6363,
      "Assist": 6364,
      "ĠLodowick": 6365,
      "Ġworms": 6366,
      "ĠHa": 6367,
      "ĠHis": 6368,
      "ĠHim": 6369,
      "ĠHeaven": 6370,
      "igonus": 6371,
      "Ġrue": 6372,
      "Ġrate": 6373,
      "Ġrum": 6374,
      "Ġrouse": 6375,
      "Ġroof": 6376,
      "Ġjoc": 6377,
      "cip": 6378,
      "ĠAl": 6379,
      "ĠAll": 6380,
      "eliver": 6381,
      "Ġhoar": 6382,
      "Ġprodig": 6383,
      "Ġseeks": 6384,
      "Ġsaved": 6385,
      "Ġshoulders": 6386,
      "peian": 6387,
      "Ġdiso": 6388,
      "Ġdisease": 6389,
      "ĠPlease": 6390,
      "ĠPatrici": 6391,
      "ĠPercy": 6392,
      "death": 6393,
      "Ġhandle": 6394,
      "aughter": 6395,
      "ickle": 6396,
      "ĠWould": 6397,
      "Ġalar": 6398,
      "Ġaloof": 6399,
      "Ġaltogether": 6400,
      "Ġoffences": 6401,
      "Ġmars": 6402,
      "Ġabund": 6403,
      "Ġroses": 6404,
      "Ġrocks": 6405,
      "Ġwhereon": 6406,
      "Ġplan": 6407,
      "Ġplent": 6408,
      "Ġbail": 6409,
      "Ġtelling": 6410,
      "Ġrig": 6411,
      "Ġrivers": 6412,
      "Ġleaving": 6413,
      "Ġlace": 6414,
      "Ġbread": 6415,
      "Behold": 6416,
      "ffer": 6417,
      "ffic": 6418,
      "ĠTake": 6419,
      "ĠTell": 6420,
      "ĠTew": 6421,
      "idered": 6422,
      "Ġraiment": 6423,
      "Ġscore": 6424,
      "Ġsweets": 6425,
      "Ġsweetly": 6426,
      "Ġpermit": 6427,
      "ĠDid": 6428,
      "ĠDian": 6429,
      "Ġmale": 6430,
      "Ġgraced": 6431,
      "Ġmoe": 6432,
      "Ġapply": 6433,
      "Ġappoint": 6434,
      "Ġappointed": 6435,
      "Northumberland": 6436,
      "Ġbeget": 6437,
      "ĠJer": 6438,
      "Ġwhore": 6439,
      "Ġlongest": 6440,
      "ĠMarch": 6441,
      "Ġconserves": 6442,
      "ksbury": 6443,
      "these": 6444,
      "thens": 6445,
      "attern": 6446,
      "Ġleg": 6447,
      "Ġlevy": 6448,
      "Ġlevel": 6449,
      "Ġsettled": 6450,
      "Ġrestra": 6451,
      "Ġsmother": 6452,
      "Ġbestow": 6453,
      "Ġputting": 6454,
      "Ġcompare": 6455,
      "Ġpurple": 6456,
      "Ġhighway": 6457,
      "Stanley": 6458,
      "Ġsubtle": 6459,
      "Ġcoz": 6460,
      "Ġcoast": 6461,
      "Ġlights": 6462,
      "Ġlightly": 6463,
      "Ġmeaner": 6464,
      "Ġforthwith": 6465,
      "Ġimpeach": 6466,
      "Ġconfed": 6467,
      "Ġdroop": 6468,
      "Ġroyalty": 6469,
      "Ġroyalties": 6470,
      "Ġchances": 6471,
      "Ġholding": 6472,
      "Ġwronged": 6473,
      "Ġlasting": 6474,
      "Ġdevour": 6475,
      "Ġgoddess": 6476,
      "Ġstrict": 6477,
      "Ġafterward": 6478,
      "Ġcomforts": 6479,
      "Ġfalcon": 6480,
      "Ġfalls": 6481,
      "Ġfalling": 6482,
      "Any": 6483,
      "Ġsounded": 6484,
      "Ġgrim": 6485,
      "Ġsenses": 6486,
      "Ġfighting": 6487,
      "Ġcourtier": 6488,
      "Ġdram": 6489,
      "Ġhuman": 6490,
      "Ġhumility": 6491,
      "Ġreasonable": 6492,
      "twill": 6493,
      "twould": 6494,
      "Ġretired": 6495,
      "Ġattain": 6496,
      "Ġattorney": 6497,
      "Ġstrait": 6498,
      "Ġdischarged": 6499,
      "Ġserious": 6500,
      "Ġbelieved": 6501,
      "Attend": 6502,
      "Ġadvised": 6503,
      "Ġcrab": 6504,
      "Ġyielding": 6505,
      "Ġboon": 6506,
      "ittany": 6507,
      "Ġdefy": 6508,
      "Ġcareful": 6509,
      "Ġlambs": 6510,
      "Ġgrew": 6511,
      "shine": 6512,
      "Ġvillains": 6513,
      "Ġwinters": 6514,
      "Ġtenderly": 6515,
      "Ġgrowth": 6516,
      "Ġrecover": 6517,
      "Ġmerri": 6518,
      "Ġmonster": 6519,
      "vours": 6520,
      "Ġrevengeful": 6521,
      "Ġchop": 6522,
      "Ġsuppose": 6523,
      "Ġbosoms": 6524,
      "Ġsilk": 6525,
      "Ġwooing": 6526,
      "Ġdared": 6527,
      "Becomes": 6528,
      "gundy": 6529,
      "Twixt": 6530,
      "Ġconfession": 6531,
      "Ġprofit": 6532,
      "Ġprofan": 6533,
      "Ġdespised": 6534,
      "Ġyouthful": 6535,
      "Ġmurderous": 6536,
      "Ġdivines": 6537,
      "Ġclosed": 6538,
      "Ġclosely": 6539,
      "Ġreadiness": 6540,
      "LORDS": 6541,
      "ventry": 6542,
      "Ġentreaties": 6543,
      "Ġgrieved": 6544,
      "Ġstirs": 6545,
      "Ġresolute": 6546,
      "Ġacts": 6547,
      "Ġwaves": 6548,
      "Ġsufferance": 6549,
      "arlisle": 6550,
      "Ġsacrament": 6551,
      "Ġrebuke": 6552,
      "Ġlamentation": 6553,
      "ggest": 6554,
      "Ġapproved": 6555,
      "Ġexped": 6556,
      "Ġsignal": 6557,
      "Ġhurl": 6558,
      "Ġsuddenly": 6559,
      "Ġliberal": 6560,
      "Ġextreme": 6561,
      "Ġsatisfaction": 6562,
      "shearing": 6563,
      "Ġshop": 6564,
      "Ġburnt": 6565,
      "Ġburden": 6566,
      "Ġlimits": 6567,
      "Ġpuff": 6568,
      "Ġwedded": 6569,
      "Ġsecrets": 6570,
      "ĠNed": 6571,
      "Ġfondly": 6572,
      "Ġcreatures": 6573,
      "Ġtroubl": 6574,
      "Whiles": 6575,
      "Ġeasily": 6576,
      "Ġcomplaint": 6577,
      "Ġreigns": 6578,
      "aptain": 6579,
      "Ġmildly": 6580,
      "Ġmildness": 6581,
      "Ġbowels": 6582,
      "Ġdukes": 6583,
      "Ġoppression": 6584,
      "Ġinsol": 6585,
      "Ġinsulting": 6586,
      "Ġsolely": 6587,
      "Stands": 6588,
      "mediate": 6589,
      "Ġobsequ": 6590,
      "Measure": 6591,
      "spurgh": 6592,
      "Ġslipp": 6593,
      "Ġprosperity": 6594,
      "ĠCapulets": 6595,
      "Proud": 6596,
      "Ġmiddle": 6597,
      "Ġfaintly": 6598,
      "Ġunderstanding": 6599,
      "Ġtemples": 6600,
      "headed": 6601,
      "Ġshrink": 6602,
      "Ġplants": 6603,
      "Ġguests": 6604,
      "Ġsubstitute": 6605,
      "when": 6606,
      "whelm": 6607,
      "Ġcreate": 6608,
      "Ġcrept": 6609,
      "Ġcalf": 6610,
      "Ġlustful": 6611,
      "Ġoccup": 6612,
      "Ġpilot": 6613,
      "Ġeaten": 6614,
      "Ġprovide": 6615,
      "Ġdwells": 6616,
      "Ġloyalty": 6617,
      "ĠAntigonus": 6618,
      "Ġimagine": 6619,
      "Ġdelights": 6620,
      "Ġextremes": 6621,
      "Ġextremity": 6622,
      "Ġlists": 6623,
      "Ġobedient": 6624,
      "Ġinclined": 6625,
      "Ġtempted": 6626,
      "Ġpenitence": 6627,
      "Ġeleven": 6628,
      "Ġstocks": 6629,
      "Ġprevented": 6630,
      "Ġaccusation": 6631,
      "actors": 6632,
      "Ġdesigns": 6633,
      "Ġcorruption": 6634,
      "Prepare": 6635,
      "Ġgloves": 6636,
      "Ġweapon": 6637,
      "Ġlodging": 6638,
      "Ġstolen": 6639,
      "Ġnobler": 6640,
      "Ġnobleness": 6641,
      "ĠCoventry": 6642,
      "ĠDeath": 6643,
      "Sometime": 6644,
      "cannot": 6645,
      "Ġpersuade": 6646,
      "Ġflatterers": 6647,
      "Ġmoral": 6648,
      "Ġpedlar": 6649,
      "Ġhaughty": 6650,
      "Ġsteward": 6651,
      "Ġrevolt": 6652,
      "Ġconsorted": 6653,
      "Ġintelligence": 6654,
      "Ġrecompense": 6655,
      "Suppose": 6656,
      "Relent": 6657,
      "craft": 6658,
      "Ġfiend": 6659,
      "Ġnails": 6660,
      "Ġhinder": 6661,
      "Ġparents": 6662,
      "Ġreckon": 6663,
      "Ġanchor": 6664,
      "ĠGreece": 6665,
      "ĠLeontes": 6666,
      "ĠTarpeian": 6667,
      "Ġcounsellor": 6668,
      "Ġblemish": 6669,
      "Ġceremonious": 6670,
      "Lieutenant": 6671,
      "Ġtiger": 6672,
      "Ġfantast": 6673,
      "Ġvarlet": 6674,
      "ĠBrittany": 6675,
      "ĠBurgundy": 6676,
      "ĠAlban": 6677,
      "Ġcommonwealth": 6678,
      "Ġinferior": 6679,
      "Ġconcluded": 6680,
      "Break": 6681,
      "Virtue": 6682,
      "Ġeternal": 6683,
      "Ġsurpr": 6684,
      "Ġthieves": 6685,
      "Ġhistory": 6686,
      "Ġprophesy": 6687,
      "Ġpuissant": 6688,
      "Ġunkindness": 6689,
      "Children": 6690,
      "Perchance": 6691,
      "water": 6692,
      "Ġnorthern": 6693,
      "Ġobtain": 6694,
      "ednesday": 6695,
      "adventure": 6696,
      "ĠRavenspurgh": 6697,
      "Ġambitious": 6698,
      "Ġjocund": 6699,
      "ĠPatrician": 6700,
      "ĠTewksbury": 6701,
      "Ac": 6702,
      "Aff": 6703,
      "Apothecary": 6704,
      "Ban": 6705,
      "Best": 6706,
      "Bold": 6707,
      "BIAN": 6708,
      "Back": 6709,
      "Ca": 6710,
      "Ch": 6711,
      "Care": 6712,
      "Catesby": 6713,
      "Content": 6714,
      "Dest": 6715,
      "Def": 6716,
      "Div": 6717,
      "End": 6718,
      "Ever": 6719,
      "Fit": 6720,
      "Far": 6721,
      "Fall": 6722,
      "Full": 6723,
      "Fourth": 6724,
      "Gl": 6725,
      "Gives": 6726,
      "Grand": 6727,
      "Host": 6728,
      "High": 6729,
      "Harry": 6730,
      "Hang": 6731,
      "Imp": 6732,
      "Kind": 6733,
      "Mur": 6734,
      "Music": 6735,
      "Mistress": 6736,
      "Night": 6737,
      "Old": 6738,
      "Pres": 6739,
      "Red": 6740,
      "Se": 6741,
      "Sit": 6742,
      "Talk": 6743,
      "Touch": 6744,
      "Twere": 6745,
      "Teach": 6746,
      "Vouch": 6747,
      "Verily": 6748,
      "Wert": 6749,
      "Withal": 6750,
      "against": 6751,
      "aches": 6752,
      "br": 6753,
      "bon": 6754,
      "bot": 6755,
      "bur": 6756,
      "bell": 6757,
      "bel": 6758,
      "cing": 6759,
      "cest": 6760,
      "corn": 6761,
      "call": 6762,
      "cons": 6763,
      "cured": 6764,
      "des": 6765,
      "dal": 6766,
      "down": 6767,
      "dist": 6768,
      "eases": 6769,
      "ebus": 6770,
      "fed": 6771,
      "fix": 6772,
      "fran": 6773,
      "gea": 6774,
      "gged": 6775,
      "groom": 6776,
      "gative": 6777,
      "join": 6778,
      "len": 6779,
      "lay": 6780,
      "lic": 6781,
      "lance": 6782,
      "mary": 6783,
      "mistress": 6784,
      "mongst": 6785,
      "nib": 6786,
      "ob": 6787,
      "overy": 6788,
      "open": 6789,
      "pse": 6790,
      "put": 6791,
      "pest": 6792,
      "pho": 6793,
      "pres": 6794,
      "pire": 6795,
      "pite": 6796,
      "ples": 6797,
      "pular": 6798,
      "piece": 6799,
      "rish": 6800,
      "roof": 6801,
      "sent": 6802,
      "spe": 6803,
      "sire": 6804,
      "side": 6805,
      "somet": 6806,
      "thi": 6807,
      "tell": 6808,
      "tong": 6809,
      "ug": 6810,
      "ukes": 6811,
      "vir": 6812,
      "wh": 6813,
      "was": 6814,
      "why": 6815,
      "withal": 6816,
      "zel": 6817,
      "Ġire": 6818,
      "ĠNo": 6819,
      "ĠThen": 6820,
      "ĠThy": 6821,
      "Ġton": 6822,
      "Ġtur": 6823,
      "Ġtreat": 6824,
      "Ġtatter": 6825,
      "Ġtied": 6826,
      "Ġtents": 6827,
      "Ġteeming": 6828,
      "Ġtumbling": 6829,
      "hen": 6830,
      "heard": 6831,
      "ouches": 6832,
      "Ġsith": 6833,
      "Ġslack": 6834,
      "Ġsilly": 6835,
      "Ġmir": 6836,
      "Ġmas": 6837,
      "Ġmould": 6838,
      "Ġmant": 6839,
      "Ġmouse": 6840,
      "Ġmurde": 6841,
      "Ġmates": 6842,
      "Ġmiles": 6843,
      "Ġmask": 6844,
      "Ġmuff": 6845,
      "inu": 6846,
      "inent": 6847,
      "inies": 6848,
      "inces": 6849,
      "Ġwet": 6850,
      "Ġwore": 6851,
      "Ġwester": 6852,
      "Ġwilful": 6853,
      "Ġwenches": 6854,
      "reg": 6855,
      "requ": 6856,
      "report": 6857,
      "haeth": 6858,
      "habit": 6859,
      "Ġbot": 6860,
      "Ġbay": 6861,
      "Ġbill": 6862,
      "Ġbust": 6863,
      "Ġbows": 6864,
      "Ġbounty": 6865,
      "Ġborough": 6866,
      "isc": 6867,
      "isk": 6868,
      "oricles": 6869,
      "Ġfil": 6870,
      "Ġfem": 6871,
      "Ġfate": 6872,
      "Ġfolks": 6873,
      "itors": 6874,
      "once": 6875,
      "Ġdot": 6876,
      "Ġdine": 6877,
      "Ġdiest": 6878,
      "Ġdash": 6879,
      "Ġdrift": 6880,
      "Ġcord": 6881,
      "Ġcand": 6882,
      "Ġcli": 6883,
      "Ġcuck": 6884,
      "Ġcrows": 6885,
      "Ġlass": 6886,
      "Ġloose": 6887,
      "Ġlatest": 6888,
      "Ġnon": 6889,
      "Ġyew": 6890,
      "arr": 6891,
      "Ġthrown": 6892,
      "Ġthread": 6893,
      "Ġhill": 6894,
      "Ġhood": 6895,
      "Ġhills": 6896,
      "Ġoce": 6897,
      "Ġomit": 6898,
      "Ġpill": 6899,
      "Ġpate": 6900,
      "Ġpals": 6901,
      "Ġpines": 6902,
      "Ġpattern": 6903,
      "ĠIn": 6904,
      "ingu": 6905,
      "anous": 6906,
      "oming": 6907,
      "Ġgir": 6908,
      "Ġgid": 6909,
      "Ġgear": 6910,
      "Ġgaunt": 6911,
      "att": 6912,
      "Ġbeads": 6913,
      "sec": 6914,
      "seth": 6915,
      "Ġhaw": 6916,
      "Ġhalt": 6917,
      "lex": 6918,
      "ayer": 6919,
      "aying": 6920,
      "etch": 6921,
      "etition": 6922,
      "imy": 6923,
      "iments": 6924,
      "Ġmeal": 6925,
      "Ġissu": 6926,
      "Ġweed": 6927,
      "Ġweek": 6928,
      "illed": 6929,
      "Ġeight": 6930,
      "Ġelo": 6931,
      "ado": 6932,
      "rion": 6933,
      "ript": 6934,
      "rief": 6935,
      "ribe": 6936,
      "Ġstu": 6937,
      "Ġstag": 6938,
      "Ġstark": 6939,
      "Ġsteep": 6940,
      "raid": 6941,
      "raught": 6942,
      "Ġresemb": 6943,
      "Ġlief": 6944,
      "urbs": 6945,
      "idow": 6946,
      "asy": 6947,
      "asant": 6948,
      "asures": 6949,
      "Ġdem": 6950,
      "Ġdeceive": 6951,
      "Ġdeform": 6952,
      "Ġsoar": 6953,
      "vering": 6954,
      "verty": 6955,
      "Ġdoors": 6956,
      "Ġshade": 6957,
      "Ġnoon": 6958,
      "amb": 6959,
      "aments": 6960,
      "Ġbutter": 6961,
      "ushi": 6962,
      "ushes": 6963,
      "Ġallies": 6964,
      "thren": 6965,
      "Ġloins": 6966,
      "Ġloathed": 6967,
      "Ġann": 6968,
      "Ġancest": 6969,
      "tering": 6970,
      "Ġspar": 6971,
      "Ġspilt": 6972,
      "Ġspark": 6973,
      "Ġspiders": 6974,
      "ello": 6975,
      "ĠRatcliff": 6976,
      "ĠCy": 6977,
      "ĠCle": 6978,
      "ilver": 6979,
      "hoebus": 6980,
      "Ġvul": 6981,
      "Ġvast": 6982,
      "Ġvial": 6983,
      "cts": 6984,
      "ctor": 6985,
      "ctors": 6986,
      "Ġshower": 6987,
      "Ġshru": 6988,
      "Ġshines": 6989,
      "ĠMadam": 6990,
      "ĠMistress": 6991,
      "ĠMino": 6992,
      "Ġmanhood": 6993,
      "venient": 6994,
      "Whate": 6995,
      "Ġwhet": 6996,
      "Ġwheel": 6997,
      "icate": 6998,
      "icide": 6999,
      "icial": 7000,
      "emper": 7001,
      "embroke": 7002,
      "olve": 7003,
      "ondello": 7004,
      "Ġblot": 7005,
      "Ġblown": 7006,
      "Ġblade": 7007,
      "eptune": 7008,
      "Ġthereto": 7009,
      "Ġcauses": 7010,
      "ĠOur": 7011,
      "Ġswore": 7012,
      "Ġswine": 7013,
      "Ġswears": 7014,
      "ĠScot": 7015,
      "Ġarch": 7016,
      "Ġarray": 7017,
      "Ġarbit": 7018,
      "Ġunrest": 7019,
      "ateful": 7020,
      "ppily": 7021,
      "uments": 7022,
      "ĠBrist": 7023,
      "quis": 7024,
      "quence": 7025,
      "ĠLook": 7026,
      "ĠLove": 7027,
      "ĠHark": 7028,
      "igation": 7029,
      "Ġranc": 7030,
      "Ġrites": 7031,
      "Ġrising": 7032,
      "Ġjade": 7033,
      "Whence": 7034,
      "Ġgrass": 7035,
      "Ġgraces": 7036,
      "Ġgraft": 7037,
      "ĠAm": 7038,
      "elting": 7039,
      "elpho": 7040,
      "Ġprocure": 7041,
      "Ġsap": 7042,
      "Ġlikeli": 7043,
      "fulness": 7044,
      "Ġenrich": 7045,
      "people": 7046,
      "Ġdisl": 7047,
      "Ġdisorder": 7048,
      "Ġdiseases": 7049,
      "ĠPisa": 7050,
      "ĠPhaeth": 7051,
      "ĠPhoebus": 7052,
      "Ġspeaking": 7053,
      "Ġpoll": 7054,
      "Ġpopular": 7055,
      "Ġpoverty": 7056,
      "ptory": 7057,
      "Ġheap": 7058,
      "ĠWh": 7059,
      "ĠWales": 7060,
      "ĠWednesday": 7061,
      "ABRA": 7062,
      "oyal": 7063,
      "Ġaloud": 7064,
      "igned": 7065,
      "Ġbrotherhood": 7066,
      "Ġhears": 7067,
      "Ġabst": 7068,
      "Ġrod": 7069,
      "Ġrode": 7070,
      "Ġrobes": 7071,
      "Ġfoil": 7072,
      "Ġexceed": 7073,
      "Ġbagg": 7074,
      "Ġfliers": 7075,
      "Ġripen": 7076,
      "Ġriches": 7077,
      "Ġleap": 7078,
      "Ġbrethren": 7079,
      "lier": 7080,
      "tised": 7081,
      "ĠTime": 7082,
      "ĠTroy": 7083,
      "ĠTullus": 7084,
      "Ġrack": 7085,
      "Ġadorn": 7086,
      "Ġscour": 7087,
      "Ġscare": 7088,
      "peror": 7089,
      "perience": 7090,
      "Ġsweeten": 7091,
      "ĠDion": 7092,
      "ĠDoricles": 7093,
      "ĠDelpho": 7094,
      "Ġcommends": 7095,
      "Ġplebe": 7096,
      "Ġpreserve": 7097,
      "Ġdownfall": 7098,
      "Ġkeen": 7099,
      "Ġmoan": 7100,
      "Ġmoving": 7101,
      "Ġmoans": 7102,
      "Ġwayward": 7103,
      "Ġappell": 7104,
      "Ġappears": 7105,
      "Norfolk": 7106,
      "ĠLords": 7107,
      "Thank": 7108,
      "Ġbegot": 7109,
      "ĠJud": 7110,
      "ĠJup": 7111,
      "ĠJOHN": 7112,
      "ĠJesu": 7113,
      "Ġlonging": 7114,
      "Ġimper": 7115,
      "Ġmothers": 7116,
      "Ġconsume": 7117,
      "Ġconsumed": 7118,
      "Ġcontri": 7119,
      "Ġcontro": 7120,
      "Ġcontain": 7121,
      "Ġperem": 7122,
      "Ġfriendship": 7123,
      "Ġstrump": 7124,
      "Ġcler": 7125,
      "sweet": 7126,
      "Ġlewd": 7127,
      "Ġreprieve": 7128,
      "Ġafoot": 7129,
      "Ġafraid": 7130,
      "Ġshowers": 7131,
      "aped": 7132,
      "apable": 7133,
      "Ġharl": 7134,
      "Ġharvest": 7135,
      "Ġaccompl": 7136,
      "Ġplaces": 7137,
      "Ġrests": 7138,
      "Ġresort": 7139,
      "Ġdearth": 7140,
      "Ġtricks": 7141,
      "Ġtribune": 7142,
      "Ġpursue": 7143,
      "Ġtravell": 7144,
      "Ġsuburbs": 7145,
      "ertaint": 7146,
      "Ġcoll": 7147,
      "Ġcoat": 7148,
      "Ġcoal": 7149,
      "Ġprivy": 7150,
      "Ġtrees": 7151,
      "Ġbidding": 7152,
      "Ġcousins": 7153,
      "Ġpardons": 7154,
      "Ġminded": 7155,
      "Ġcharm": 7156,
      "Ġhomely": 7157,
      "Ġcaused": 7158,
      "Ġimpart": 7159,
      "Ġimpud": 7160,
      "Ġimpression": 7161,
      "Ġimpatience": 7162,
      "Ġconfines": 7163,
      "Ġconfusion": 7164,
      "Ġchanging": 7165,
      "Unw": 7166,
      "isterous": 7167,
      "Ġthousands": 7168,
      "Ġburial": 7169,
      "Ġlanded": 7170,
      "Ġwomanish": 7171,
      "Ġstrife": 7172,
      "Ġoverthrow": 7173,
      "Ġstreak": 7174,
      "Ġsunshine": 7175,
      "Ġrevenue": 7176,
      "Ġbridal": 7177,
      "ivant": 7178,
      "Ġtax": 7179,
      "Ġsleeps": 7180,
      "Ġmerciful": 7181,
      "range": 7182,
      "Ġbusy": 7183,
      "Ġwelcomes": 7184,
      "Ġdreamt": 7185,
      "Ġstraw": 7186,
      "Ġbreaks": 7187,
      "Ġintents": 7188,
      "Ġhangman": 7189,
      "Ġboisterous": 7190,
      "Ġpersons": 7191,
      "Ġnursed": 7192,
      "Ġcrook": 7193,
      "Ġcrush": 7194,
      "Ġcrutch": 7195,
      "Ġlately": 7196,
      "Hermione": 7197,
      "Ġtemple": 7198,
      "Ġwoeful": 7199,
      "Ġtenderness": 7200,
      "Ġassault": 7201,
      "Ġrecreant": 7202,
      "Ġsadly": 7203,
      "Ġrequire": 7204,
      "Ġplucked": 7205,
      "Ġmetal": 7206,
      "Whoop": 7207,
      "Ġbattles": 7208,
      "Ġreported": 7209,
      "Ġcounsels": 7210,
      "Ġterrible": 7211,
      "Ġboldness": 7212,
      "Ġposterity": 7213,
      "Twice": 7214,
      "Ġdevils": 7215,
      "Comes": 7216,
      "Command": 7217,
      "Ġinfring": 7218,
      "Ġprofound": 7219,
      "Ġmockery": 7220,
      "Ġforest": 7221,
      "Ġforehead": 7222,
      "Ġforefather": 7223,
      "Ġruns": 7224,
      "Ġmurdering": 7225,
      "scape": 7226,
      "voc": 7227,
      "voke": 7228,
      "Ġdivided": 7229,
      "Ġattended": 7230,
      "Ġinconstant": 7231,
      "Ġmoveables": 7232,
      "Ġdraws": 7233,
      "Ready": 7234,
      "Ġwhipt": 7235,
      "Ġsuffering": 7236,
      "Ġskulls": 7237,
      "Ġfourth": 7238,
      "Ġstops": 7239,
      "nowledge": 7240,
      "Ġpays": 7241,
      "Ġforgiveness": 7242,
      "Ġconsuls": 7243,
      "Ġwasted": 7244,
      "Ġrebel": 7245,
      "Ġsuccor": 7246,
      "Ġevils": 7247,
      "Ġveil": 7248,
      "Ġdarken": 7249,
      "Ġregiment": 7250,
      "Ġwisely": 7251,
      "Ġcowardice": 7252,
      "butt": 7253,
      "Ġinterchange": 7254,
      "Ġliberties": 7255,
      "shepherd": 7256,
      "tered": 7257,
      "Ġidly": 7258,
      "Ġshoot": 7259,
      "Ġshock": 7260,
      "Ġburst": 7261,
      "ĠPlayer": 7262,
      "Ġagreed": 7263,
      "Ġcheerly": 7264,
      "ĠNeptune": 7265,
      "Ġmalign": 7266,
      "Ġwonderful": 7267,
      "Ġfills": 7268,
      "Ġvisitation": 7269,
      "Ġframed": 7270,
      "Ġinjuries": 7271,
      "Ġproceedings": 7272,
      "Ġmodel": 7273,
      "Ġbroad": 7274,
      "Ġdestiny": 7275,
      "Ġuncertain": 7276,
      "Ġadmitted": 7277,
      "Ġremedies": 7278,
      "Ġapart": 7279,
      "Ġsurfeit": 7280,
      "Ġinsinu": 7281,
      "Ġslanderous": 7282,
      "Mariner": 7283,
      "Ġmedic": 7284,
      "Ġknocks": 7285,
      "Ġdrinking": 7286,
      "Meaning": 7287,
      "ossess": 7288,
      "Ġships": 7289,
      "Ġslily": 7290,
      "Ġmounting": 7291,
      "Ġmountain": 7292,
      "Ġadded": 7293,
      "Ġdamnable": 7294,
      "favour": 7295,
      "Ġmidst": 7296,
      "Ġmidnight": 7297,
      "Ġmidwife": 7298,
      "Ġmourning": 7299,
      "angling": 7300,
      "Ġrevel": 7301,
      "Ġsafer": 7302,
      "Ġchastity": 7303,
      "Ġchastisement": 7304,
      "Ġscarcely": 7305,
      "Ġstorms": 7306,
      "Ġgrandsire": 7307,
      "Ġdecay": 7308,
      "Ġknightly": 7309,
      "Ġknighthood": 7310,
      "Ġconclusion": 7311,
      "Ġprovided": 7312,
      "Amongst": 7313,
      "paration": 7314,
      "Ġstatutes": 7315,
      "Ġimagination": 7316,
      "Ġglasses": 7317,
      "Ġextremest": 7318,
      "Ġacquainted": 7319,
      "gracious": 7320,
      "portion": 7321,
      "Ġrelig": 7322,
      "Ġunborn": 7323,
      "Ġunworthy": 7324,
      "Ġassistance": 7325,
      "Ġlengthen": 7326,
      "Claudio": 7327,
      "Ġbigger": 7328,
      "Ġeager": 7329,
      "Ġneighbours": 7330,
      "Ġimportune": 7331,
      "Ġbridegroom": 7332,
      "Ġutterance": 7333,
      "Ġavoided": 7334,
      "Repent": 7335,
      "Ġtrembles": 7336,
      "Ġpublicly": 7337,
      "Ġconqueror": 7338,
      "Ġdetested": 7339,
      "Ġbaseness": 7340,
      "Ġcloak": 7341,
      "Ġhostess": 7342,
      "Ġsupreme": 7343,
      "Ġsprings": 7344,
      "Ġjealousies": 7345,
      "Ġchiefest": 7346,
      "Ġpursuit": 7347,
      "Ġpursued": 7348,
      "Ġsolemnity": 7349,
      "glig": 7350,
      "Ġfleet": 7351,
      "Ġdearer": 7352,
      "Ġenforcement": 7353,
      "Ġworthily": 7354,
      "Ġworthiest": 7355,
      "Ġachieve": 7356,
      "Ġachieved": 7357,
      "Ġdriven": 7358,
      "Ġowes": 7359,
      "ARCHBISHOP": 7360,
      "Ġangels": 7361,
      "Ġsplit": 7362,
      "Ġerrand": 7363,
      "Ġtutor": 7364,
      "Ġtimeless": 7365,
      "Ġsalute": 7366,
      "Ġnapkin": 7367,
      "Ġswelling": 7368,
      "Ġfloods": 7369,
      "Ġadverse": 7370,
      "Ġadvertised": 7371,
      "Ġapprehend": 7372,
      "ĠFloriz": 7373,
      "Ġcompassion": 7374,
      "Ġabhorr": 7375,
      "URREY": 7376,
      "Write": 7377,
      "warrant": 7378,
      "Ġmultitude": 7379,
      "Ġwinged": 7380,
      "Ġforsake": 7381,
      "Ġworser": 7382,
      "Ġdispleased": 7383,
      "Ġwrinkled": 7384,
      "Ġperjured": 7385,
      "Ġafflict": 7386,
      "ĠVolscian": 7387,
      "ĠVolscians": 7388,
      "ĠAntium": 7389,
      "ĠAntiates": 7390,
      "Ġlurking": 7391,
      "Ġhorror": 7392,
      "Ġpiercing": 7393,
      "Ġdebase": 7394,
      "Ġblasts": 7395,
      "Ġscolding": 7396,
      "Ġbeguiled": 7397,
      "ĠFarewell": 7398,
      "Ġclimb": 7399,
      "Ġwitchcraft": 7400,
      "Ġcouncil": 7401,
      "Ġcurtain": 7402,
      "boding": 7403,
      "Ġblaze": 7404,
      "Ġfrozen": 7405,
      "Ġfurnish": 7406,
      "Ġnimble": 7407,
      "Ġhomicide": 7408,
      "Ġhigher": 7409,
      "Ġpowder": 7410,
      "Ġgentler": 7411,
      "Ġdeceased": 7412,
      "Ġvolume": 7413,
      "Ġneglect": 7414,
      "ĠEmilia": 7415,
      "Ġbranches": 7416,
      "Ġornaments": 7417,
      "Ġrobbers": 7418,
      "Ġfollies": 7419,
      "Ġincensed": 7420,
      "Ġembraced": 7421,
      "Ġtransported": 7422,
      "Ġcomplexion": 7423,
      "Ġcircumstance": 7424,
      "Ġtrenches": 7425,
      "reasonable": 7426,
      "Ġpestilence": 7427,
      "Ġsociety": 7428,
      "Ġunluck": 7429,
      "Ġdisgraced": 7430,
      "Ġdissembling": 7431,
      "ĠWelshmen": 7432,
      "Ġconspiracy": 7433,
      "Ġeverlasting": 7434,
      "Ġtrifles": 7435,
      "Ġbankrupt": 7436,
      "Dispatch": 7437,
      "Affection": 7438,
      "Mistake": 7439,
      "minded": 7440,
      "Ġtinker": 7441,
      "Ġfrank": 7442,
      "Ġderived": 7443,
      "Ġlinea": 7444,
      "Ġpearl": 7445,
      "Ġpupil": 7446,
      "Ġugly": 7447,
      "Ġconsequence": 7448,
      "Ġunthrift": 7449,
      "Ġorphans": 7450,
      "Ġdisobed": 7451,
      "Ġmarshal": 7452,
      "Ġmerrily": 7453,
      "Ġinsolence": 7454,
      "BIANCA": 7455,
      "Glad": 7456,
      "Grandam": 7457,
      "Hostess": 7458,
      "Murder": 7459,
      "Vouchsafe": 7460,
      "corner": 7461,
      "Ġtonight": 7462,
      "Ġmurdered": 7463,
      "Ġwestern": 7464,
      "Ġbustle": 7465,
      "Ġfemale": 7466,
      "Ġcuckold": 7467,
      "Ġgirls": 7468,
      "Ġgiddy": 7469,
      "ĠMinola": 7470,
      "ĠScotland": 7471,
      "ĠBristol": 7472,
      "Ġlikelihood": 7473,
      "ĠPhaethon": 7474,
      "ABRAHAM": 7475,
      "Ġbaggage": 7476,
      "ĠDelphos": 7477,
      "ĠJupiter": 7478,
      "Ġperemptory": 7479,
      "Ġstrumpet": 7480,
      "ĠFlorizel": 7481,
      "'--": 7482,
      ";--": 7483,
      "Aumerle": 7484,
      "Bi": 7485,
      "Bu": 7486,
      "BIO": 7487,
      "Bound": 7488,
      "Bless": 7489,
      "BON": 7490,
      "Bohemia": 7491,
      "Cast": 7492,
      "Cold": 7493,
      "Cull": 7494,
      "Charge": 7495,
      "Dou": 7496,
      "Den": 7497,
      "Die": 7498,
      "DEL": 7499,
      "Dorset": 7500,
      "Direct": 7501,
      "EM": 7502,
      "Ele": 7503,
      "Every": 7504,
      "EAS": 7505,
      "Fe": 7506,
      "Fri": 7507,
      "Fly": 7508,
      "Foul": 7509,
      "Fool": 7510,
      "Gu": 7511,
      "Gain": 7512,
      "Gold": 7513,
      "Gloucester": 7514,
      "Grim": 7515,
      "Har": 7516,
      "Ill": 7517,
      "Juliet": 7518,
      "Join": 7519,
      "Keeper": 7520,
      "Little": 7521,
      "Mount": 7522,
      "Mars": 7523,
      "New": 7524,
      "NDEL": 7525,
      "Opp": 7526,
      "Open": 7527,
      "Pom": 7528,
      "Pale": 7529,
      "Ren": 7530,
      "Run": 7531,
      "Sent": 7532,
      "Sus": 7533,
      "Send": 7534,
      "Sic": 7535,
      "Sham": 7536,
      "Tra": 7537,
      "Tong": 7538,
      "Ur": 7539,
      "Vince": 7540,
      "Vile": 7541,
      "Wit": 7542,
      "Yonder": 7543,
      "ais": 7544,
      "aper": 7545,
      "acious": 7546,
      "aled": 7547,
      "avy": 7548,
      "bre": 7549,
      "book": 7550,
      "bies": 7551,
      "bles": 7552,
      "bham": 7553,
      "brows": 7554,
      "bawd": 7555,
      "cat": 7556,
      "cour": 7557,
      "cas": 7558,
      "cast": 7559,
      "cise": 7560,
      "certain": 7561,
      "dra": 7562,
      "dur": 7563,
      "door": 7564,
      "duce": 7565,
      "daughter": 7566,
      "ech": 7567,
      "fri": 7568,
      "fly": 7569,
      "found": 7570,
      "fume": 7571,
      "front": 7572,
      "gress": 7573,
      "gled": 7574,
      "gling": 7575,
      "greed": 7576,
      "hra": 7577,
      "hors": 7578,
      "hrew": 7579,
      "iqu": 7580,
      "iber": 7581,
      "iby": 7582,
      "kn": 7583,
      "kest": 7584,
      "lu": 7585,
      "lor": 7586,
      "lord": 7587,
      "late": 7588,
      "leness": 7589,
      "lvet": 7590,
      "min": 7591,
      "met": 7592,
      "much": 7593,
      "matter": 7594,
      "mock": 7595,
      "mouth": 7596,
      "motion": 7597,
      "mission": 7598,
      "married": 7599,
      "net": 7600,
      "name": 7601,
      "oz": 7602,
      "oan": 7603,
      "oble": 7604,
      "occ": 7605,
      "oever": 7606,
      "phe": 7607,
      "por": 7608,
      "pit": 7609,
      "pter": 7610,
      "pla": 7611,
      "post": 7612,
      "pers": 7613,
      "rong": 7614,
      "ranc": 7615,
      "riment": 7616,
      "song": 7617,
      "sby": 7618,
      "sia": 7619,
      "spo": 7620,
      "too": 7621,
      "take": 7622,
      "tree": 7623,
      "tino": 7624,
      "tsey": 7625,
      "true": 7626,
      "ubs": 7627,
      "ucy": 7628,
      "vill": 7629,
      "vil": 7630,
      "vice": 7631,
      "vance": 7632,
      "vius": 7633,
      "vouch": 7634,
      "work": 7635,
      "wack": 7636,
      "wench": 7637,
      "warn": 7638,
      "yet": 7639,
      "yally": 7640,
      "zy": 7641,
      "zab": 7642,
      "zwater": 7643,
      "ĠU": 7644,
      "ĠAs": 7645,
      "ĠFirst": 7646,
      "ĠNot": 7647,
      "Ġtried": 7648,
      "Ġtunes": 7649,
      "Ġtainted": 7650,
      "Ġtired": 7651,
      "Ġtales": 7652,
      "Ġtumble": 7653,
      "hence": 7654,
      "Ġack": 7655,
      "Ġafore": 7656,
      "Ġaches": 7657,
      "Ġsow": 7658,
      "Ġsine": 7659,
      "Ġsurn": 7660,
      "Ġsiege": 7661,
      "Ġming": 7662,
      "Ġmom": 7663,
      "Ġmast": 7664,
      "Ġmum": 7665,
      "Ġmuse": 7666,
      "Ġmass": 7667,
      "Ġmute": 7668,
      "Ġmalm": 7669,
      "inet": 7670,
      "inance": 7671,
      "inary": 7672,
      "Ġware": 7673,
      "Ġwave": 7674,
      "Ġwalks": 7675,
      "rely": 7676,
      "reth": 7677,
      "reef": 7678,
      "Ġbone": 7679,
      "Ġbier": 7680,
      "Ġbash": 7681,
      "Ġbills": 7682,
      "Ġbishop": 7683,
      "isome": 7684,
      "orch": 7685,
      "orks": 7686,
      "Ġfed": 7687,
      "Ġfrow": 7688,
      "Ġfres": 7689,
      "Ġfrant": 7690,
      "Ġfits": 7691,
      "Ġfount": 7692,
      "Ġfitted": 7693,
      "Ġfitting": 7694,
      "Ġfront": 7695,
      "Ġfowl": 7696,
      "Ġfulf": 7697,
      "erver": 7698,
      "eria": 7699,
      "erwhelm": 7700,
      "lling": 7701,
      "itive": 7702,
      "onio": 7703,
      "Ġdame": 7704,
      "Ġdried": 7705,
      "Ġdiet": 7706,
      "Ġdrows": 7707,
      "Ġdumb": 7708,
      "Ġcook": 7709,
      "Ġcool": 7710,
      "Ġcrest": 7711,
      "Ġcropp": 7712,
      "Ġlends": 7713,
      "ening": 7714,
      "Ġnar": 7715,
      "Ġnigh": 7716,
      "Ġnurs": 7717,
      "Ġniece": 7718,
      "Ġnavy": 7719,
      "Ġninet": 7720,
      "Ġyester": 7721,
      "arth": 7722,
      "Ġthra": 7723,
      "Ġthrees": 7724,
      "Ġthwart": 7725,
      "Ġthreef": 7726,
      "Ġhugg": 7727,
      "Ġom": 7728,
      "Ġost": 7729,
      "Ġtoe": 7730,
      "Ġtoss": 7731,
      "Ġtoken": 7732,
      "Ġtoads": 7733,
      "Ġtower": 7734,
      "Ġpir": 7735,
      "Ġpour": 7736,
      "Ġpant": 7737,
      "Ġpump": 7738,
      "Ġpens": 7739,
      "Ġporter": 7740,
      "Ġheal": 7741,
      "Ġheel": 7742,
      "ĠIt": 7743,
      "ĠIrish": 7744,
      "stra": 7745,
      "stone": 7746,
      "ange": 7747,
      "omy": 7748,
      "omin": 7749,
      "Ġgle": 7750,
      "Ġgame": 7751,
      "Ġgru": 7752,
      "Ġgild": 7753,
      "Ġgarl": 7754,
      "Ġgaoler": 7755,
      "Ġgait": 7756,
      "Ġgulf": 7757,
      "atory": 7758,
      "Ġbeck": 7759,
      "Ġbeho": 7760,
      "see": 7761,
      "cel": 7762,
      "ceives": 7763,
      "Ġinv": 7764,
      "Ġinvent": 7765,
      "Ġinhabit": 7766,
      "Ġhag": 7767,
      "Ġhail": 7768,
      "Ġhazel": 7769,
      "ays": 7770,
      "irs": 7771,
      "iring": 7772,
      "uto": 7773,
      "ediment": 7774,
      "ims": 7775,
      "imple": 7776,
      "Ġmellow": 7777,
      "Ġnotes": 7778,
      "cho": 7779,
      "child": 7780,
      "ourn": 7781,
      "Ġforn": 7782,
      "Ġforces": 7783,
      "Ġforms": 7784,
      "keep": 7785,
      "Ġwears": 7786,
      "herited": 7787,
      "herds": 7788,
      "hertsey": 7789,
      "adem": 7790,
      "adise": 7791,
      "Ġstom": 7792,
      "Ġstart": 7793,
      "Ġstink": 7794,
      "Ġstage": 7795,
      "Ġstaff": 7796,
      "Ġkites": 7797,
      "ghts": 7798,
      "raken": 7799,
      "racted": 7800,
      "lying": 7801,
      "Ġrent": 7802,
      "Ġrender": 7803,
      "Ġrevers": 7804,
      "Ġrelease": 7805,
      "Ġliar": 7806,
      "Ġliqu": 7807,
      "Ġliars": 7808,
      "urity": 7809,
      "urance": 7810,
      "urther": 7811,
      "urps": 7812,
      "asing": 7813,
      "ashy": 7814,
      "asci": 7815,
      "Ġdefect": 7816,
      "alter": 7817,
      "alais": 7818,
      "Ġsolace": 7819,
      "Ġsolic": 7820,
      "Ġascend": 7821,
      "Ġashore": 7822,
      "rosby": 7823,
      "verns": 7824,
      "verdone": 7825,
      "esters": 7826,
      "estiv": 7827,
      "Ġdol": 7828,
      "Ġdoit": 7829,
      "Ġnod": 7830,
      "amy": 7831,
      "ifth": 7832,
      "ifter": 7833,
      "ussia": 7834,
      "Ġsex": 7835,
      "Ġsear": 7836,
      "Thither": 7837,
      "Ġsued": 7838,
      "Ġsugar": 7839,
      "Ġsuggest": 7840,
      "things": 7841,
      "Ġlocks": 7842,
      "Ġherbs": 7843,
      "Ġherds": 7844,
      "eard": 7845,
      "Ġant": 7846,
      "ards": 7847,
      "Ġspot": 7848,
      "Ġspell": 7849,
      "Ġspices": 7850,
      "Ġspotted": 7851,
      "Ġfaction": 7852,
      "Ġfabric": 7853,
      "ĠRo": 7854,
      "ĠRag": 7855,
      "ĠRussia": 7856,
      "ĠCall": 7857,
      "ĠCarlisle": 7858,
      "ĠCaptain": 7859,
      "ĠChertsey": 7860,
      "ĠCalais": 7861,
      "ĠCrosby": 7862,
      "ilent": 7863,
      "Ġvi": 7864,
      "Ġvig": 7865,
      "Ġvap": 7866,
      "Ġneglig": 7867,
      "Ġkna": 7868,
      "Ġknit": 7869,
      "ERKE": 7870,
      "athom": 7871,
      "Ġshot": 7872,
      "Ġshine": 7873,
      "Ġshout": 7874,
      "antime": 7875,
      "ĠMab": 7876,
      "ĠMEAS": 7877,
      "Ġmanly": 7878,
      "Ġmansion": 7879,
      "Ġmanacles": 7880,
      "ĠEven": 7881,
      "ĠEli": 7882,
      "ĠEcho": 7883,
      "Ġprint": 7884,
      "Ġprating": 7885,
      "Ġpratest": 7886,
      "Ġwheres": 7887,
      "icle": 7888,
      "icester": 7889,
      "Ġamend": 7890,
      "lavius": 7891,
      "Ġtheme": 7892,
      "Forth": 7893,
      "Forget": 7894,
      "Forbear": 7895,
      "eminate": 7896,
      "olar": 7897,
      "olate": 7898,
      "Ġhatch": 7899,
      "ĠGuild": 7900,
      "Ġbliss": 7901,
      "Ġsheet": 7902,
      "ephen": 7903,
      "Ġcanop": 7904,
      "Ġusing": 7905,
      "Ġusure": 7906,
      "Ġusage": 7907,
      "ressed": 7908,
      "Ġcave": 7909,
      "Ġcaus": 7910,
      "Ġcapar": 7911,
      "ĠOr": 7912,
      "Ġswarm": 7913,
      "Ġswifter": 7914,
      "ĠShall": 7915,
      "ĠSix": 7916,
      "ĠSTANLEY": 7917,
      "feits": 7918,
      "Ġarise": 7919,
      "Ġunre": 7920,
      "Ġunple": 7921,
      "Ġunlo": 7922,
      "Ġunlike": 7923,
      "Ġunlaw": 7924,
      "Ġunpro": 7925,
      "Ġunacc": 7926,
      "Ġungentle": 7927,
      "pped": 7928,
      "umny": 7929,
      "ĠBel": 7930,
      "ĠBret": 7931,
      "ĠBishop": 7932,
      "ĠBraken": 7933,
      "ĠBERKE": 7934,
      "uned": 7935,
      "ĠVen": 7936,
      "qua": 7937,
      "quet": 7938,
      "ĠLam": 7939,
      "ĠLeave": 7940,
      "ĠHave": 7941,
      "ĠHerc": 7942,
      "ĠHallow": 7943,
      "Ġrushes": 7944,
      "Ġjo": 7945,
      "Ġjump": 7946,
      "cible": 7947,
      "cipl": 7948,
      "cially": 7949,
      "ounded": 7950,
      "Ġmusty": 7951,
      "Ġhop": 7952,
      "Ġhole": 7953,
      "Ġproffer": 7954,
      "Ġsaucy": 7955,
      "Ġencom": 7956,
      "Ġenroll": 7957,
      "Ġdiscipl": 7958,
      "ĠPil": 7959,
      "ĠPlace": 7960,
      "ĠPembroke": 7961,
      "owned": 7962,
      "ĠYorks": 7963,
      "echer": 7964,
      "eches": 7965,
      "Infer": 7966,
      "ĠWas": 7967,
      "Thoughts": 7968,
      "allel": 7969,
      "wness": 7970,
      "Ġlooker": 7971,
      "Ġmarble": 7972,
      "Ġmarvel": 7973,
      "Ġabuses": 7974,
      "Ġroaring": 7975,
      "Ġroyally": 7976,
      "Ġearl": 7977,
      "Ġfox": 7978,
      "Ġfold": 7979,
      "Ġexha": 7980,
      "Ġexclaim": 7981,
      "Ġexperience": 7982,
      "Ġhonourably": 7983,
      "Ġplate": 7984,
      "Ġbald": 7985,
      "Ġbache": 7986,
      "Ġbaby": 7987,
      "Ġwarn": 7988,
      "Ġflame": 7989,
      "Ġquake": 7990,
      "Ġridd": 7991,
      "Ġribb": 7992,
      "Wherefore": 7993,
      "Ġbreeding": 7994,
      "agine": 7995,
      "liction": 7996,
      "berate": 7997,
      "Ġpartake": 7998,
      "Ġnobleman": 7999,
      "loves": 8000,
      "Ġpreced": 8001,
      "Ġpreparation": 8002,
      "Ġprecise": 8003,
      "Ġraw": 8004,
      "Ġrace": 8005,
      "Ġrages": 8006,
      "Ġrasc": 8007,
      "Ġraging": 8008,
      "Ġraze": 8009,
      "Ġragged": 8010,
      "Ġscru": 8011,
      "Ġscape": 8012,
      "Ġwrangling": 8013,
      "Ġprays": 8014,
      "Ġperd": 8015,
      "Ġpert": 8016,
      "Ġperfection": 8017,
      "Ġperused": 8018,
      "Ġarmed": 8019,
      "Ġqueens": 8020,
      "redit": 8021,
      "Ġpledge": 8022,
      "Ġpresum": 8023,
      "Ġpresses": 8024,
      "Ġpresume": 8025,
      "Ġpreserved": 8026,
      "assad": 8027,
      "Ġchival": 8028,
      "Ġremiss": 8029,
      "ĠFear": 8030,
      "ĠFranc": 8031,
      "ĠFlavius": 8032,
      "ĠJu": 8033,
      "ĠJul": 8034,
      "ĠJun": 8035,
      "Ġlongs": 8036,
      "Ġimmediate": 8037,
      "Ġlively": 8038,
      "Ġconsidered": 8039,
      "Ġpeck": 8040,
      "Ġstring": 8041,
      "forward": 8042,
      "sworn": 8043,
      "Ġmightst": 8044,
      "Ġlieutenant": 8045,
      "Ġreplied": 8046,
      "Ġrepetition": 8047,
      "Ġrepossess": 8048,
      "meant": 8049,
      "Ġafeard": 8050,
      "Ġkeeping": 8051,
      "Ġchains": 8052,
      "Ġladyship": 8053,
      "Ġgripe": 8054,
      "Ġharder": 8055,
      "Ġharbour": 8056,
      "Ġrestrain": 8057,
      "weigh": 8058,
      "ieldy": 8059,
      "Ġhelms": 8060,
      "Ġcompet": 8061,
      "Ġcompell": 8062,
      "Ġpurged": 8063,
      "Ġpursues": 8064,
      "Ġcounted": 8065,
      "Stab": 8066,
      "Ġbanquet": 8067,
      "Ġbragg": 8068,
      "Ġbrazen": 8069,
      "Thyself": 8070,
      "Ġsubsc": 8071,
      "Ġhandsome": 8072,
      "eeds": 8073,
      "abouts": 8074,
      "Ġcoals": 8075,
      "Ġcozen": 8076,
      "Ġprig": 8077,
      "Ġneedless": 8078,
      "Ġchest": 8079,
      "Ġlightness": 8080,
      "Sirs": 8081,
      "Ġcharters": 8082,
      "Ġcharitable": 8083,
      "Ġimpati": 8084,
      "Ġimposition": 8085,
      "Ġimpediment": 8086,
      "Ġconfidence": 8087,
      "aching": 8088,
      "Ġbringing": 8089,
      "Ġjustify": 8090,
      "Ġchants": 8091,
      "Unha": 8092,
      "Ġnatures": 8093,
      "Ġplaced": 8094,
      "Ġglories": 8095,
      "Ġbeshrew": 8096,
      "Ġhappily": 8097,
      "ailing": 8098,
      "Ġhelping": 8099,
      "Ġwrongfully": 8100,
      "Ġdevice": 8101,
      "Ġkilled": 8102,
      "Ġunderne": 8103,
      "Ġeyebrows": 8104,
      "Ġfully": 8105,
      "Ġlesson": 8106,
      "Ġstrip": 8107,
      "Ġtalked": 8108,
      "Ġstream": 8109,
      "Ġcomfortable": 8110,
      "Another": 8111,
      "Answer": 8112,
      "Ġbribe": 8113,
      "Ġturning": 8114,
      "Ġturned": 8115,
      "Ġfights": 8116,
      "Ġinstead": 8117,
      "Ġmatters": 8118,
      "Ġchid": 8119,
      "Ġchides": 8120,
      "Ġchron": 8121,
      "Ġhumane": 8122,
      "twenty": 8123
    },
    "merges": [
      [
        "Ġ",
        "t"
      ],
      [
        "h",
        "e"
      ],
      [
        "Ġ",
        "a"
      ],
      [
        "o",
        "u"
      ],
      [
        "Ġ",
        "s"
      ],
      [
        "Ġ",
        "m"
      ],
      [
        "i",
        "n"
      ],
      [
        "Ġ",
        "w"
      ],
      [
        "r",
        "e"
      ],
      [
        "h",
        "a"
      ],
      [
        "Ġt",
        "he"
      ],
      [
        "n",
        "d"
      ],
      [
        "Ġ",
        "b"
      ],
      [
        "i",
        "s"
      ],
      [
        "o",
        "r"
      ],
      [
        "Ġ",
        "f"
      ],
      [
        "e",
        "r"
      ],
      [
        "l",
        "l"
      ],
      [
        "i",
        "t"
      ],
      [
        "o",
        "n"
      ],
      [
        "Ġ",
        "d"
      ],
      [
        "Ġ",
        "c"
      ],
      [
        "Ġ",
        "l"
      ],
      [
        "e",
        "s"
      ],
      [
        "e",
        "n"
      ],
      [
        "Ġ",
        "n"
      ],
      [
        "Ġ",
        "y"
      ],
      [
        "a",
        "r"
      ],
      [
        "Ġt",
        "h"
      ],
      [
        "Ġ",
        "h"
      ],
      [
        "Ġ",
        "o"
      ],
      [
        "Ġt",
        "o"
      ],
      [
        "Ġy",
        "ou"
      ],
      [
        "Ġ",
        "p"
      ],
      [
        "ha",
        "t"
      ],
      [
        "Ġ",
        "he"
      ],
      [
        "Ġ",
        "I"
      ],
      [
        "v",
        "e"
      ],
      [
        "o",
        "t"
      ],
      [
        "in",
        "g"
      ],
      [
        "o",
        "w"
      ],
      [
        "Ġa",
        "nd"
      ],
      [
        "s",
        "t"
      ],
      [
        "a",
        "n"
      ],
      [
        "Ġo",
        "f"
      ],
      [
        "o",
        "m"
      ],
      [
        "Ġ",
        "g"
      ],
      [
        "a",
        "t"
      ],
      [
        "Ġb",
        "e"
      ],
      [
        "s",
        "e"
      ],
      [
        "Ġm",
        "y"
      ],
      [
        "c",
        "e"
      ],
      [
        "Ġ",
        "in"
      ],
      [
        "Ġ",
        "ha"
      ],
      [
        "l",
        "e"
      ],
      [
        "a",
        "y"
      ],
      [
        "l",
        "d"
      ],
      [
        "e",
        "t"
      ],
      [
        "i",
        "r"
      ],
      [
        "u",
        "t"
      ],
      [
        "e",
        "d"
      ],
      [
        "i",
        "m"
      ],
      [
        "Ġm",
        "e"
      ],
      [
        "it",
        "h"
      ],
      [
        "'",
        "s"
      ],
      [
        "Ġn",
        "ot"
      ],
      [
        "Ġt",
        "hat"
      ],
      [
        "c",
        "h"
      ],
      [
        "g",
        "h"
      ],
      [
        "Ġ",
        "is"
      ],
      [
        "ou",
        "r"
      ],
      [
        "Ġ",
        "u"
      ],
      [
        "A",
        "nd"
      ],
      [
        "Ġf",
        "or"
      ],
      [
        "k",
        "e"
      ],
      [
        "Ġw",
        "e"
      ],
      [
        "o",
        "o"
      ],
      [
        "i",
        "ll"
      ],
      [
        "Ġ",
        "e"
      ],
      [
        "Ġw",
        "ith"
      ],
      [
        "he",
        "r"
      ],
      [
        "Ġyou",
        "r"
      ],
      [
        "Ġ",
        "it"
      ],
      [
        "a",
        "d"
      ],
      [
        "en",
        "t"
      ],
      [
        "r",
        "i"
      ],
      [
        "Ġs",
        "t"
      ],
      [
        "or",
        "d"
      ],
      [
        "'",
        "d"
      ],
      [
        "Ġh",
        "is"
      ],
      [
        "Ġ",
        "k"
      ],
      [
        "Ġth",
        "ou"
      ],
      [
        "om",
        "e"
      ],
      [
        "E",
        "N"
      ],
      [
        "gh",
        "t"
      ],
      [
        "r",
        "a"
      ],
      [
        "T",
        "he"
      ],
      [
        "Ġh",
        "im"
      ],
      [
        "l",
        "y"
      ],
      [
        "Ġha",
        "ve"
      ],
      [
        "Ġ",
        "re"
      ],
      [
        "Ġl",
        "i"
      ],
      [
        "u",
        "r"
      ],
      [
        "I",
        "N"
      ],
      [
        "i",
        "d"
      ],
      [
        "a",
        "s"
      ],
      [
        "Ġd",
        "e"
      ],
      [
        "a",
        "l"
      ],
      [
        "Ġth",
        "is"
      ],
      [
        "Ġs",
        "o"
      ],
      [
        "Ġa",
        "s"
      ],
      [
        "Ġ",
        "on"
      ],
      [
        "r",
        "o"
      ],
      [
        "h",
        "i"
      ],
      [
        "A",
        "R"
      ],
      [
        "o",
        "re"
      ],
      [
        "ou",
        "ld"
      ],
      [
        "oo",
        "d"
      ],
      [
        "c",
        "k"
      ],
      [
        "a",
        "in"
      ],
      [
        "v",
        "er"
      ],
      [
        "es",
        "t"
      ],
      [
        "es",
        "s"
      ],
      [
        "Ġd",
        "o"
      ],
      [
        "Ġth",
        "y"
      ],
      [
        "Ġw",
        "ill"
      ],
      [
        "Ġs",
        "ha"
      ],
      [
        "e",
        "a"
      ],
      [
        "U",
        "S"
      ],
      [
        "Ġn",
        "o"
      ],
      [
        "a",
        "m"
      ],
      [
        "I",
        "O"
      ],
      [
        "i",
        "f"
      ],
      [
        "Ġb",
        "ut"
      ],
      [
        "u",
        "s"
      ],
      [
        "a",
        "nd"
      ],
      [
        "Ġs",
        "e"
      ],
      [
        "g",
        "e"
      ],
      [
        "T",
        "h"
      ],
      [
        "T",
        "o"
      ],
      [
        "Ġs",
        "u"
      ],
      [
        "i",
        "on"
      ],
      [
        "Ġa",
        "ll"
      ],
      [
        "t",
        "h"
      ],
      [
        "a",
        "ke"
      ],
      [
        "Ġl",
        "o"
      ],
      [
        "u",
        "e"
      ],
      [
        "Ġhe",
        "r"
      ],
      [
        "e",
        "ar"
      ],
      [
        "Ġa",
        "n"
      ],
      [
        "t",
        "er"
      ],
      [
        "ar",
        "d"
      ],
      [
        "Ġs",
        "p"
      ],
      [
        "Ġ",
        "our"
      ],
      [
        "ha",
        "n"
      ],
      [
        "e",
        "ll"
      ],
      [
        "Ġf",
        "a"
      ],
      [
        "Ġb",
        "y"
      ],
      [
        "IN",
        "G"
      ],
      [
        "Ġ",
        "R"
      ],
      [
        "Ġsha",
        "ll"
      ],
      [
        "O",
        "R"
      ],
      [
        "Ġthe",
        "e"
      ],
      [
        "Ġ",
        "C"
      ],
      [
        "r",
        "om"
      ],
      [
        "i",
        "l"
      ],
      [
        "Ġa",
        "re"
      ],
      [
        "ou",
        "s"
      ],
      [
        "h",
        "o"
      ],
      [
        "u",
        "l"
      ],
      [
        "E",
        "S"
      ],
      [
        "u",
        "st"
      ],
      [
        "Ġ",
        "v"
      ],
      [
        "Ġn",
        "e"
      ],
      [
        "T",
        "hat"
      ],
      [
        "Ġk",
        "n"
      ],
      [
        "i",
        "ght"
      ],
      [
        "Ġw",
        "hat"
      ],
      [
        "E",
        "R"
      ],
      [
        "Ġl",
        "ord"
      ],
      [
        "c",
        "t"
      ],
      [
        "at",
        "h"
      ],
      [
        "U",
        "C"
      ],
      [
        "ar",
        "t"
      ],
      [
        "Ġs",
        "h"
      ],
      [
        "se",
        "l"
      ],
      [
        "Ġu",
        "p"
      ],
      [
        "L",
        "A"
      ],
      [
        "Ġ",
        "'"
      ],
      [
        "B",
        "ut"
      ],
      [
        "an",
        "t"
      ],
      [
        "a",
        "st"
      ],
      [
        "r",
        "ow"
      ],
      [
        "hi",
        "ch"
      ],
      [
        "Ġ",
        "M"
      ],
      [
        "n",
        "t"
      ],
      [
        "'",
        "ll"
      ],
      [
        "E",
        "T"
      ],
      [
        "Ġm",
        "an"
      ],
      [
        "on",
        "e"
      ],
      [
        "K",
        "ING"
      ],
      [
        "Ġg",
        "ood"
      ],
      [
        "Ġ",
        "E"
      ],
      [
        "Ġp",
        "r"
      ],
      [
        "v",
        "en"
      ],
      [
        "in",
        "e"
      ],
      [
        "W",
        "hat"
      ],
      [
        "e",
        "nd"
      ],
      [
        "Ġw",
        "he"
      ],
      [
        "i",
        "c"
      ],
      [
        "Ġa",
        "m"
      ],
      [
        "Ġa",
        "t"
      ],
      [
        "Ġc",
        "on"
      ],
      [
        "l",
        "a"
      ],
      [
        "Ġc",
        "om"
      ],
      [
        "on",
        "g"
      ],
      [
        "I",
        "C"
      ],
      [
        "Ġf",
        "rom"
      ],
      [
        "Ġthe",
        "m"
      ],
      [
        "i",
        "ve"
      ],
      [
        "r",
        "y"
      ],
      [
        "o",
        "d"
      ],
      [
        "F",
        "or"
      ],
      [
        "b",
        "le"
      ],
      [
        "e",
        "m"
      ],
      [
        "i",
        "e"
      ],
      [
        "ou",
        "t"
      ],
      [
        "H",
        "e"
      ],
      [
        "ot",
        "her"
      ],
      [
        "o",
        "st"
      ],
      [
        "o",
        "l"
      ],
      [
        "Ġ",
        "hat"
      ],
      [
        "Ġ",
        "G"
      ],
      [
        "ot",
        "h"
      ],
      [
        "I",
        "US"
      ],
      [
        "Ġm",
        "ore"
      ],
      [
        "Ġw",
        "ould"
      ],
      [
        "AR",
        "D"
      ],
      [
        "o",
        "nd"
      ],
      [
        "Ġb",
        "l"
      ],
      [
        "Ġn",
        "ow"
      ],
      [
        "Ġs",
        "he"
      ],
      [
        "Ġw",
        "as"
      ],
      [
        "Ġ",
        "if"
      ],
      [
        "e",
        "p"
      ],
      [
        "Ġthe",
        "re"
      ],
      [
        "Ġc",
        "an"
      ],
      [
        "Ġthe",
        "ir"
      ],
      [
        "er",
        "s"
      ],
      [
        "Ġkn",
        "ow"
      ],
      [
        "in",
        "d"
      ],
      [
        "Ġu",
        "s"
      ],
      [
        "Ġk",
        "ing"
      ],
      [
        "sel",
        "f"
      ],
      [
        "re",
        "s"
      ],
      [
        "Ġb",
        "r"
      ],
      [
        "Ġc",
        "a"
      ],
      [
        "Ġlo",
        "ve"
      ],
      [
        "Ġ",
        "O"
      ],
      [
        "Ġt",
        "r"
      ],
      [
        "-",
        "-"
      ],
      [
        "Ġhe",
        "re"
      ],
      [
        "Ġs",
        "w"
      ],
      [
        "Ġ",
        "S"
      ],
      [
        "M",
        "y"
      ],
      [
        "Ġs",
        "ir"
      ],
      [
        "f",
        "e"
      ],
      [
        "K",
        "E"
      ],
      [
        "Ġa",
        "r"
      ],
      [
        "Ġt",
        "han"
      ],
      [
        "at",
        "her"
      ],
      [
        "Ġu",
        "n"
      ],
      [
        "at",
        "e"
      ],
      [
        "p",
        "p"
      ],
      [
        "u",
        "m"
      ],
      [
        "Ġ",
        "or"
      ],
      [
        "Ġthe",
        "y"
      ],
      [
        "Ġthe",
        "n"
      ],
      [
        "Ġs",
        "ay"
      ],
      [
        "Ġl",
        "et"
      ],
      [
        "L",
        "I"
      ],
      [
        "Ġ",
        "B"
      ],
      [
        "u",
        "n"
      ],
      [
        "L",
        "O"
      ],
      [
        "Ġ",
        "V"
      ],
      [
        "Ġg",
        "o"
      ],
      [
        "A",
        "s"
      ],
      [
        "or",
        "t"
      ],
      [
        "u",
        "re"
      ],
      [
        "ir",
        "st"
      ],
      [
        "q",
        "u"
      ],
      [
        "Ġ",
        "L"
      ],
      [
        "in",
        "k"
      ],
      [
        "Ġw",
        "or"
      ],
      [
        "Ġ",
        "H"
      ],
      [
        "h",
        "y"
      ],
      [
        "i",
        "g"
      ],
      [
        "Ġm",
        "ay"
      ],
      [
        "Ġwe",
        "ll"
      ],
      [
        "oo",
        "k"
      ],
      [
        "Ġ",
        "r"
      ],
      [
        "is",
        "h"
      ],
      [
        "v",
        "es"
      ],
      [
        "am",
        "e"
      ],
      [
        "Ġ",
        "j"
      ],
      [
        "Ġc",
        "ome"
      ],
      [
        "W",
        "he"
      ],
      [
        "Ġg",
        "ra"
      ],
      [
        "f",
        "ore"
      ],
      [
        "Ġhat",
        "h"
      ],
      [
        "g",
        "ain"
      ],
      [
        "Ġon",
        "e"
      ],
      [
        "a",
        "k"
      ],
      [
        "Y",
        "ou"
      ],
      [
        "c",
        "i"
      ],
      [
        "ou",
        "nd"
      ],
      [
        "Ġ",
        "A"
      ],
      [
        "re",
        "at"
      ],
      [
        "Ġm",
        "ust"
      ],
      [
        "e",
        "l"
      ],
      [
        "Ġh",
        "o"
      ],
      [
        "O",
        "M"
      ],
      [
        "Ġwe",
        "re"
      ],
      [
        "Ġp",
        "ro"
      ],
      [
        "Ġse",
        "e"
      ],
      [
        "Ġm",
        "ake"
      ],
      [
        "Ġs",
        "a"
      ],
      [
        "Ġli",
        "ke"
      ],
      [
        "ea",
        "k"
      ],
      [
        "it",
        "y"
      ],
      [
        "Ġde",
        "ath"
      ],
      [
        "Ġha",
        "d"
      ],
      [
        "D",
        "U"
      ],
      [
        "m",
        "an"
      ],
      [
        "im",
        "e"
      ],
      [
        "DU",
        "KE"
      ],
      [
        "f",
        "ul"
      ],
      [
        "Ġsh",
        "ould"
      ],
      [
        "Ġup",
        "on"
      ],
      [
        "E",
        "O"
      ],
      [
        "n",
        "g"
      ],
      [
        "IC",
        "H"
      ],
      [
        "a",
        "re"
      ],
      [
        "Ġ",
        "en"
      ],
      [
        "O",
        "L"
      ],
      [
        "p",
        "e"
      ],
      [
        "Ġm",
        "ad"
      ],
      [
        "en",
        "ce"
      ],
      [
        "i",
        "ce"
      ],
      [
        "Ġto",
        "o"
      ],
      [
        "Ġd",
        "is"
      ],
      [
        "Ġf",
        "ather"
      ],
      [
        "n",
        "ce"
      ],
      [
        "Ġf",
        "ri"
      ],
      [
        "T",
        "IO"
      ],
      [
        "Ġ",
        "P"
      ],
      [
        "Ġd",
        "id"
      ],
      [
        "w",
        "ard"
      ],
      [
        "ICH",
        "ARD"
      ],
      [
        "Ġ",
        "out"
      ],
      [
        "d",
        "e"
      ],
      [
        "ent",
        "le"
      ],
      [
        "ow",
        "n"
      ],
      [
        "Ġha",
        "nd"
      ],
      [
        "Ġsp",
        "eak"
      ],
      [
        "F",
        "irst"
      ],
      [
        "Ġp",
        "o"
      ],
      [
        "Ġw",
        "hich"
      ],
      [
        "Ġhe",
        "art"
      ],
      [
        "o",
        "se"
      ],
      [
        "Ġ",
        "Y"
      ],
      [
        "Ġa",
        "gain"
      ],
      [
        "a",
        "u"
      ],
      [
        "W",
        "e"
      ],
      [
        "e",
        "c"
      ],
      [
        "W",
        "ith"
      ],
      [
        "Ġy",
        "et"
      ],
      [
        "I",
        "f"
      ],
      [
        "i",
        "es"
      ],
      [
        "i",
        "ck"
      ],
      [
        "W",
        "hich"
      ],
      [
        "p",
        "t"
      ],
      [
        "I",
        "n"
      ],
      [
        "Ġh",
        "on"
      ],
      [
        "Ġhe",
        "a"
      ],
      [
        "Ġw",
        "ho"
      ],
      [
        "u",
        "ch"
      ],
      [
        "C",
        "A"
      ],
      [
        "Ġ",
        "W"
      ],
      [
        "Ġs",
        "ome"
      ],
      [
        "or",
        "n"
      ],
      [
        "Ġh",
        "ow"
      ],
      [
        "A",
        "B"
      ],
      [
        "IN",
        "C"
      ],
      [
        "o",
        "y"
      ],
      [
        "Ġwhe",
        "n"
      ],
      [
        "in",
        "ce"
      ],
      [
        "Th",
        "ou"
      ],
      [
        "Ġa",
        "l"
      ],
      [
        "ig",
        "n"
      ],
      [
        "I",
        "S"
      ],
      [
        "ha",
        "r"
      ],
      [
        "ver",
        "y"
      ],
      [
        "i",
        "re"
      ],
      [
        "Ġt",
        "ime"
      ],
      [
        "an",
        "ce"
      ],
      [
        "'",
        "t"
      ],
      [
        "ĠI",
        "I"
      ],
      [
        "ĠR",
        "ICHARD"
      ],
      [
        "Ġbr",
        "other"
      ],
      [
        "v",
        "ing"
      ],
      [
        "ur",
        "se"
      ],
      [
        "a",
        "ll"
      ],
      [
        "w",
        "n"
      ],
      [
        "R",
        "Y"
      ],
      [
        "Ġm",
        "ine"
      ],
      [
        "U",
        "E"
      ],
      [
        "Ġs",
        "on"
      ],
      [
        "Ġbl",
        "ood"
      ],
      [
        "Ġsu",
        "ch"
      ],
      [
        "Ġof",
        "f"
      ],
      [
        "O",
        "f"
      ],
      [
        "T",
        "ER"
      ],
      [
        "Ġl",
        "ook"
      ],
      [
        "Ġm",
        "ar"
      ],
      [
        "Ġhe",
        "ar"
      ],
      [
        "it",
        "her"
      ],
      [
        "Ġa",
        "b"
      ],
      [
        "ĠO",
        "F"
      ],
      [
        "E",
        "L"
      ],
      [
        "Ġ",
        "ro"
      ],
      [
        "Ġd",
        "ay"
      ],
      [
        "Ġfri",
        "end"
      ],
      [
        "G",
        "LO"
      ],
      [
        "S",
        "o"
      ],
      [
        "Ġw",
        "ord"
      ],
      [
        "ES",
        "TER"
      ],
      [
        "UC",
        "ESTER"
      ],
      [
        "LA",
        "N"
      ],
      [
        "GLO",
        "UCESTER"
      ],
      [
        "N",
        "o"
      ],
      [
        "Ġg",
        "ive"
      ],
      [
        "Ġe",
        "ar"
      ],
      [
        "is",
        "e"
      ],
      [
        "ad",
        "y"
      ],
      [
        "EN",
        "TIO"
      ],
      [
        "e",
        "et"
      ],
      [
        "Ġth",
        "ink"
      ],
      [
        "W",
        "hy"
      ],
      [
        "ou",
        "l"
      ],
      [
        "Ġf",
        "o"
      ],
      [
        "B",
        "R"
      ],
      [
        "Ġli",
        "fe"
      ],
      [
        "n",
        "ot"
      ],
      [
        "Ġe",
        "y"
      ],
      [
        "Th",
        "is"
      ],
      [
        "n",
        "ess"
      ],
      [
        "Ġe",
        "x"
      ],
      [
        "EN",
        "RY"
      ],
      [
        "OR",
        "K"
      ],
      [
        "Ġthe",
        "se"
      ],
      [
        "Ġd",
        "es"
      ],
      [
        "row",
        "n"
      ],
      [
        "a",
        "ge"
      ],
      [
        "t",
        "her"
      ],
      [
        "Ġwhe",
        "re"
      ],
      [
        "Ġhon",
        "our"
      ],
      [
        "Ġp",
        "l"
      ],
      [
        "Ġg",
        "entle"
      ],
      [
        "ing",
        "s"
      ],
      [
        "Ġt",
        "ake"
      ],
      [
        "Ġb",
        "a"
      ],
      [
        "Ġt",
        "ell"
      ],
      [
        "H",
        "ow"
      ],
      [
        "Q",
        "UE"
      ],
      [
        "QUE",
        "EN"
      ],
      [
        "e",
        "f"
      ],
      [
        "N",
        "T"
      ],
      [
        "is",
        "t"
      ],
      [
        "ĠV",
        "INC"
      ],
      [
        "ĠVINC",
        "ENTIO"
      ],
      [
        "w",
        "ay"
      ],
      [
        "Ġm",
        "ost"
      ],
      [
        "Ġar",
        "t"
      ],
      [
        "Ġw",
        "ar"
      ],
      [
        "Ġf",
        "l"
      ],
      [
        "Ġf",
        "ear"
      ],
      [
        "Ġ",
        "qu"
      ],
      [
        "Ġm",
        "uch"
      ],
      [
        "Ġ",
        "ri"
      ],
      [
        "ur",
        "n"
      ],
      [
        "Ġl",
        "ea"
      ],
      [
        "Ġmad",
        "e"
      ],
      [
        "A",
        "U"
      ],
      [
        "ou",
        "gh"
      ],
      [
        "ĠR",
        "ome"
      ],
      [
        "Whe",
        "re"
      ],
      [
        "ow",
        "er"
      ],
      [
        "ĠG",
        "od"
      ],
      [
        "Ġl",
        "a"
      ],
      [
        "Ġb",
        "re"
      ],
      [
        "at",
        "ion"
      ],
      [
        "B",
        "e"
      ],
      [
        "I",
        "s"
      ],
      [
        "a",
        "g"
      ],
      [
        "l",
        "i"
      ],
      [
        "Ġbe",
        "t"
      ],
      [
        "s",
        "s"
      ],
      [
        "Ġhea",
        "ven"
      ],
      [
        "u",
        "ke"
      ],
      [
        "Ġc",
        "ou"
      ],
      [
        "t",
        "is"
      ],
      [
        "Y",
        "our"
      ],
      [
        "b",
        "er"
      ],
      [
        "e",
        "e"
      ],
      [
        "c",
        "c"
      ],
      [
        "i",
        "o"
      ],
      [
        "t",
        "le"
      ],
      [
        "Ġt",
        "w"
      ],
      [
        "f",
        "f"
      ],
      [
        "p",
        "le"
      ],
      [
        "Ġp",
        "art"
      ],
      [
        "Ġg",
        "reat"
      ],
      [
        "N",
        "ow"
      ],
      [
        "Ġm",
        "en"
      ],
      [
        "Ġha",
        "st"
      ],
      [
        "i",
        "z"
      ],
      [
        "o",
        "ld"
      ],
      [
        "u",
        "se"
      ],
      [
        "IN",
        "IUS"
      ],
      [
        "Ġfa",
        "ir"
      ],
      [
        "or",
        "row"
      ],
      [
        "i",
        "gh"
      ],
      [
        "q",
        "ue"
      ],
      [
        "Ġne",
        "w"
      ],
      [
        "O",
        "r"
      ],
      [
        "ve",
        "d"
      ],
      [
        "Ġne",
        "ver"
      ],
      [
        "A",
        "N"
      ],
      [
        "R",
        "OM"
      ],
      [
        "W",
        "ho"
      ],
      [
        "ROM",
        "EO"
      ],
      [
        "h",
        "ing"
      ],
      [
        "m",
        "ent"
      ],
      [
        "Ġ",
        "T"
      ],
      [
        "ear",
        "s"
      ],
      [
        "Ġcan",
        "not"
      ],
      [
        "S",
        "ec"
      ],
      [
        "Ġtr",
        "ue"
      ],
      [
        "Sec",
        "ond"
      ],
      [
        "U",
        "M"
      ],
      [
        "Ġno",
        "ble"
      ],
      [
        ",",
        "--"
      ],
      [
        "C",
        "ome"
      ],
      [
        "re",
        "e"
      ],
      [
        "Ġd",
        "oth"
      ],
      [
        "a",
        "ve"
      ],
      [
        "Ġbe",
        "en"
      ],
      [
        "l",
        "o"
      ],
      [
        "u",
        "d"
      ],
      [
        "id",
        "e"
      ],
      [
        "Ġde",
        "ad"
      ],
      [
        "I",
        "t"
      ],
      [
        "M",
        "EN"
      ],
      [
        "Ġp",
        "re"
      ],
      [
        "Ġst",
        "and"
      ],
      [
        "D",
        "W"
      ],
      [
        "Ġan",
        "y"
      ],
      [
        "Ġca",
        "ll"
      ],
      [
        "DW",
        "ARD"
      ],
      [
        "EN",
        "IUS"
      ],
      [
        "MEN",
        "ENIUS"
      ],
      [
        "Ġ",
        "ra"
      ],
      [
        "Ġa",
        "d"
      ],
      [
        "Ġs",
        "c"
      ],
      [
        "p",
        "er"
      ],
      [
        "Ġw",
        "r"
      ],
      [
        "Ġpr",
        "ay"
      ],
      [
        "Ġsw",
        "eet"
      ],
      [
        "l",
        "and"
      ],
      [
        "Ġs",
        "oul"
      ],
      [
        "Ġn",
        "ame"
      ],
      [
        "Ġp",
        "er"
      ],
      [
[...]
